#version: 0.2
a n
a r
a m
c h
a l
i n
Ġ p
a t
a d
Ġ s
Ġ m
u n
Ġ v
Ġ k
a k
d i
Ġ t
Ġ ch
Ġ n
a s
a y
an i
e s
a v
u l
o n
t h
i s
Ġ e
Ġ r
Ġ b
g a
e r
Ġp r
Ġ d
ar u
ar i
u k
in ch
l o
e n
a p
Ġ an
e l
i t
u d
i k
un n
al u
in a
u t
a b
Ġ g
a g
an t
u r
an u
Ġ c
e d
i r
s h
i l
Ġ l
an a
al a
Ġ j
Ġ a
k i
e t
i d
ak u
an d
a h
Ġ o
un di
ad h
i p
an n
o r
un d
i v
Ġch es
at h
Ġs am
ad u
Ġch e
k a
an ga
y u
Ġm ari
e e
ul u
Ġ h
t i
is t
is h
ani ki
Ġmari yu
a j
ar am
in di
Ġb h
u p
i m
o d
a ch
o l
u s
ab h
unn a
y a
l a
r am
Ġt h
at i
ad am
e m
as h
un t
al o
o t
i c
Ġt el
a i
Ġ 1
Ġ 2
ann i
an di
at a
ar a
an am
en d
u g
u v
Ġs h
Ġp ar
y am
Ġm ar
o m
i g
o s
ay i
in i
a ina
Ġ f
o v
u m
r a
al l
an g
ad i
Ġ in
Ġ y
al anu
b h
Ġ i
Ġan d
ud u
Ġv y
ap p
o g
at t
ay am
in g
Ġe n
Ġk al
Ġche y
e v
ch i
Ġn ir
p p
e k
as t
o k
Ġ av
ak sh
th a
ad aniki
Ġv a
ul a
es h
ik a
Ġk ud
Ġ lo
r i
Ġ ad
Ġ am
al i
e c
a ga
Ġ ar
ik i
Ġkud a
Ġv id
Ġ ay
am lo
Ġl ed
unn aru
l u
Ġ '
et t
o j
Ġv ar
n i
Ġ w
Ġk ar
Ġn e
Ġo ka
Ġm an
Ġan t
Ġ und
Ġm e
Ġk on
in d
uk u
el l
en t
Ġ adh
Ġs an
at o
Ġ2 0
Ġ unna
d h
Ġg ur
Ġches t
Ġ unt
ad a
n a
Ġ ani
Ġ at
inch i
Ġp at
an e
ant i
us t
Ġv i
Ġche pp
Ġm ee
on i
Ġ up
al lo
Ġa a
Ġ di
Ġpr abh
Ġp er
in e
ash t
Ġp ad
Ġm at
i th
ak k
on di
o p
uk ov
Ġm a
ed d
al aku
ar inch
Ġi di
ab ad
ant o
Ġ as
il l
Ġk ani
o y
Ġv ish
Ġo k
e y
Ġ 3
Ġm o
u b
t a
ul o
ok ka
Ġr aj
on d
os am
Ġs t
ak a
a c
Ġt ar
es t
s t
h a
Ġy okka
Ġc om
on e
am aina
th am
e di
ip p
en u
Ġn a
Ġe m
and h
ach ch
Ġn i
al ani
t o
Ġe d
inch ina
ul anu
Ġk osam
uk unt
Ġp ari
und a
Ġs ah
ar sh
Ġled a
am a
Ġ ud
Ġs th
inch aru
Ġ abh
m a
at am
Ġv iv
ee v
un chi
ar an
l e
Ġ 5
ar th
ati on
Ġe k
er s
Ġs r
ath i
Ġs w
Ġt ana
uk h
ant e
Ġtel ug
o c
er u
Ġd h
Ġvy ak
Ġpr at
ar y
ad d
es s
ut v
it i
Ġbh av
Ġ ipp
ag g
un i
Ġp ur
u sh
Ġn unchi
Ġt e
Ġpr ak
Ġch and
Ġth e
al am
Ġch it
Ġt o
Ġr end
ul aku
Ġprabh utv
an alu
Ġr oj
ut t
u ch
Ġv ast
Ġ 4
Ġch ala
Ġn undi
Ġ ga
Ġbh ar
an ch
app udu
e en
Ġp o
Ġk o
v ata
an k
e p
un u
ap ai
Ġpr ay
Ġk h
Ġv undi
Ġp ett
Ġm ah
em a
Ġp ol
Ġk r
Ġpr aj
Ġp ani
Ġc on
ed u
Ġm od
Ġ al
Ġn enu
Ġv ad
Ġs ar
Ġs p
av a
Ġek k
am e
w ara
ec t
is th
u ga
Ġan e
ari ki
Ġv el
Ġp h
Ġj ari
Ġd r
Ġan n
ant a
am p
at e
Ġ20 1
ith e
uv a
al la
an th
Ġtelug u
Ġm adh
Ġm und
u di
0 0
Ġm ukh
Ġr asht
Ġa ithe
Ġl aksh
Ġs in
Ġv e
at lu
Ġin t
ath a
Ġay ana
Ġsan k
ch ch
ay a
Ġs adh
Ġen n
k u
Ġv ell
at ti
av as
it e
ar ana
Ġe v
Ġd wara
ar ani
Ġkal ig
Ġ unn
Ġup ay
Ġs ang
ist undi
as am
inch adam
inch e
Ġsin im
Ġc in
Ġg r
Ġt r
y og
h i
al s
Ġ iv
Ġe l
c e
ut undi
Ġ ap
Ġpr adh
Ġcin ema
y ak
id d
Ġk ot
Ġches aru
Ġb r
Ġmat ram
is uk
h u
Ġnir v
Ġch er
edd y
Ġpar ish
Ġupay og
el a
Ġj eev
am ani
b andh
Ġ it
Ġd es
ish t
ag e
Ġvid h
Ġn am
Ġp al
Ġm andi
Ġav as
Ġd a
Ġ ak
inch adaniki
ap ad
t y
Ġj ag
Ġgur inchi
Ġnir m
Ġunt undi
Ġv at
ak unda
ar ch
Ġk av
Ġl ek
Ġches ina
p u
e b
Ġrend u
ann a
Ġn at
un e
i on
at u
Ġr a
o w
b er
Ġ il
Ġjari g
Ġp edd
ed a
Ġ app
os t
Ġvi j
Ġs and
an y
in t
Ġnirv ah
en i
Ġen d
ti on
Ġtar vata
Ġr am
Ġc or
Ġe r
ir u
Ġs a
Ġva c
inch indi
ud dh
inch andi
Ġk end
c k
av i
Ġv en
all i
ab u
ant r
Ġ ut
Ġp att
g r
Ġn il
it a
Ġne w
ar d
ant ri
Ġ 6
Ġko tha
Ġna a
ari t
aram bh
im ch
ak i
Ġk or
Ġvish ayam
Ġt ir
Ġtel ang
Ġvar aku
un a
Ġlo w
Ġch in
i y
end uku
Ġsam ayam
Ġva ari
Ġr e
th undi
Ġch end
Ġsam bandh
Ġj an
Ġ on
u bh
Ġv is
Ġpr am
Ġv anti
ik k
ut unn
Ġt agg
Ġme eru
av ar
Ġkon ni
Ġpr arambh
Ġbh ag
Ġ un
an al
all u
ak am
Ġd in
Ġn ag
Ġk ut
od u
Ġunna ayi
at iki
Ġmadh ya
it am
Ġh y
ar s
ar ulu
Ġpar ty
Ġadh ik
Ġ adi
Ġn u
Ġ ag
Ġcom m
Ġe la
o h
Ġva aru
k et
Ġprat y
i lo
Ġ1 9
p ad
uk unn
Ġprabhutv am
Ġr av
Ġth app
Ġavas aram
ar e
Ġcom p
Ġi chch
Ġ ist
Ġt am
Ġb al
Ġ ala
Ġpr ap
Ġ 0
Ġv ir
Ġman chi
um b
at s
ak t
f f
Ġav ak
Ġd ev
Ġc o
uk unna
i e
Ġa ame
Ġk a
Ġ 7
Ġg o
Ġ1 0
y at
Ġv alla
Ġant e
Ġvid y
ol l
k ar
ad anto
aru g
ic e
r e
Ġs ari
Ġmukh yam
p ai
ap u
Ġsam as
it o
ul lo
Ġs o
d er
Ġh er
Ġipp udu
ur u
Ġk adu
Ġr u
Ġt ama
Ġan ni
n am
ip oy
ay ak
i ch
Ġiv v
ut unna
Ġled hu
Ġtelang ana
Ġp a
Ġchand r
Ġkani p
ad ani
Ġchand ra
as s
Ġp ond
Ġvyak t
Ġ akk
Ġnir n
Ġprap anch
Ġm er
Ġkar yak
Ġin d
Ġn el
Ġr ang
Ġpur ti
Ġmar in
p r
Ġm iru
Ġ 8
al ato
Ġpar isth
n u
Ġvy avas
c r
Ġv in
Ġd een
or t
Ġnew s
Ġg ram
Ġk ath
it y
al edu
Ġma a
ar t
Ġk ur
Ġpr athi
y anga
Ġm ana
Ġpr ast
Ġmar o
Ġchey adam
an anga
Ġchey adaniki
Ġb adh
Ġenn ik
ar alu
o th
und ani
e ka
Ġches i
Ġm and
iv r
l oni
av am
it t
ach u
uk uni
e et
Ġpr ash
m an
Ġp en
Ġchit r
es i
ut u
Ġt an
Ġtel ip
Ġs ur
Ġsan s
i al
Ġp l
il la
Ġ id
ud ala
h y
ee m
Ġprak at
Ġr up
av achch
Ġ20 2
u th
Ġtel us
Ġpat u
Ġcon gr
od h
al as
Ġjag an
Ġv achch
Ġr ak
ach aram
Ġ alo
k sh
Ġd ur
Ġpat r
g u
Ġvy ap
t u
Ġpr ad
Ġ 9
Ġvij ay
at v
ann aru
Ġs ag
ad e
Ġkalig i
Ġv ach
Ġprabhutv a
Ġs abh
Ġ ikk
Ġch o
ch u
on n
Ġme eda
ar bh
ik e
am u
Ġvyak ti
v ats
att u
on a
Ġmarin ta
id h
an s
ika a
at r
Ġme di
Ġm em
Ġr o
Ġcongr ess
Ġ ikaa
Ġut p
Ġprast ut
Ġt aru
Ġth isuk
Ġpedd a
ak ti
i b
av an
a in
iv e
ukov adam
ag al
Ġs uch
ut o
Ġch up
Ġkal is
Ġpr as
Ġg h
Ġalo ch
an alanu
y al
Ġher o
ist unn
Ġchandr ab
r ap
Ġkut umb
Ġp un
Ġchey andi
et i
ay ani
Ġchit ram
ay y
Ġv ari
i di
ay alu
th alu
ik sh
Ġv il
Ġp an
ar m
u j
Ġv r
Ġmund u
Ġn iv
Ġp ill
Ġpani ch
Ġadh ika
im p
Ġch us
ab b
Ġer p
Ġekk uva
ul ato
Ġi th
Ġam m
Ġd arsh
avachch u
ak h
Ġk an
Ġar th
Ġv im
ul l
ud d
Ġann aru
Ġpr av
e el
ig h
ak ee
Ġat y
m ch
der abad
av ant
Ġj arug
e h
Ġmatram e
Ġmar ch
as e
Ġan um
Ġa c
Ġtel is
av u
Ġraj akee
Ġvac ch
Ġsamayam lo
a il
Ġ ash
Ġo t
Ġhy derabad
ar anga
Ġt ag
at m
j p
Ġk um
Ġmee ku
Ġdi g
Ġf or
am m
ot e
an alo
Ġay ina
Ġt er
om e
Ġvid udala
Ġand h
l y
Ġda ani
Ġay y
Ġpen ch
q u
Ġabh ivr
i ga
Ġb jp
Ġn aku
on u
an ani
Ġb ah
at n
Ġem p
Ġsam aj
Ġk ab
uddh i
Ġtaru vata
Ġp ost
em ber
Ġb ay
Ġchepp aru
Ġane ka
Ġ1 2
Ġm anam
Ġ utt
Ġcor ona
Ġt ay
Ġed ur
Ġches indi
Ġc r
Ġl e
y alu
Ġmo tham
Ġd agg
Ġch iv
y an
Ġchin na
Ġavak asam
Ġv ay
ann u
Ġok k
at aniki
Ġp or
en a
Ġviv arinch
Ġchend ina
Ġad e
Ġd o
v a
Ġb o
Ġm antri
l ad
t e
Ġche p
er n
Ġ1 5
in c
Ġmar g
Ġch ud
ini yog
Ġv ip
ac k
ig i
ot s
Ġvi bh
Ġpradh ana
as ag
Ġ is
Ġche b
Ġches e
ati ya
Ġsand arbh
Ġp ot
t or
Ġikk ada
lo w
Ġil a
er ic
Ġadh y
Ġsah ay
Ġgur t
Ġ yu
as th
Ġant u
Ġr eddy
ak e
ist unnaru
ist unna
Ġipp at
Ġmo odu
ani c
in atlu
Ġt akk
Ġches uk
Ġe pp
Ġch et
Ġt ol
Ġch ust
Ġkaryak ram
Ġud yog
Ġt anu
v u
Ġan ubh
Ġtelip aru
al e
al an
Ġs e
t r
Ġn av
Ġch arch
er v
Ġl a
as w
Ġl abh
or e
ek sh
Ġs ev
Ġy o
Ġn o
ar o
Ġchandrab abu
ti c
p oy
Ġv ah
al alo
ar g
Ġpr ath
Ġrasht ra
Ġn ayak
Ġmar ket
Ġj illa
Ġn im
Ġf r
Ġp amp
inch adu
Ġs up
Ġb aga
Ġunt ayi
unt e
er i
Ġn ar
Ġchest undi
at la
Ġ indi
adu thundi
an aku
Ġn alu
Ġj ill
Ġan di
ak ap
ani k
bh av
Ġan edi
Ġk es
ay anni
ist e
Ġand uk
ub l
Ġk sh
ok k
Ġn er
ay ana
Ġprastut am
d u
ut ondi
Ġmem u
Ġr ach
er y
Ġkalis i
k arinch
ad r
Ġan ch
ind ani
Ġk od
Ġmer ug
al ni
Ġv iniyog
Ġd ad
Ġk ad
Ġpad d
ar og
uk k
Ġper ug
Ġtel iy
Ġprabh av
p ath
inch abad
Ġp alu
Ġv ariki
Ġam eric
Ġ1 1
Ġk ol
Ġnam m
unn ayi
aram aina
i f
ar ala
Ġbhav ani
Ġvachch ina
Ġth is
th i
Ġend uk
Ġr as
il a
Ġm alli
an j
r ad
Ġch ary
o om
Ġarth ika
Ġs idd
Ġch a
Ġp and
Ġv as
Ġm ug
Ġc ar
Ġv es
Ġan uk
ic al
Ġas s
Ġpray atn
Ġin ka
Ġk att
Ġkr ish
ath o
Ġni z
ut unnaru
y anni
Ġper u
Ġv all
Ġt isuk
Ġv ent
Ġs n
Ġs at
uk a
Ġkon asag
b b
ind e
Ġt aj
Ġparisth it
an ala
Ġc l
Ġper k
Ġf ir
ist aru
ak ar
Ġm in
in appudu
Ġith ara
r it
aksh a
Ġdin to
Ġo f
ec ch
on t
y av
th u
Ġabh y
r ah
al apai
Ġp ak
ig n
ri ya
Ġv ed
on g
Ġh e
ap ur
Ġp il
Ġh ome
u c
Ġmod ati
Ġdi r
Ġ idd
ar j
Ġm us
ai ah
Ġbh ari
k ur
esh am
Ġsr isht
Ġs eem
ak ha
Ġpol ic
Ġkon d
Ġdarsh ak
av ah
Ġr ah
Ġ' '
Ġabhivr uddhi
el la
Ġen tha
Ġ adu
or d
h ar
Ġch ad
v ar
Ġandi st
Ġv ey
ind a
uk ondi
is s
Ġk cr
Ġala age
ot t
uv aga
ti m
Ġp ubl
Ġsam s
Ġerp atu
lo ki
Ġrasht ram
Ġo p
asht am
Ġsam vats
Ġk alu
Ġlaksh m
Ġph al
Ġn ad
ect or
Ġkab atti
Ġsang h
Ġg ant
Ġth ir
Ġn et
en s
Ġe x
ant u
l one
Ġsh o
Ġkh arch
d p
Ġva id
id ha
Ġpray oj
Ġtir igi
Ġr ec
ud h
Ġkend ram
Ġkar anam
Ġlek unda
ak ulu
Ġat ani
Ġat anu
Ġman as
Ġk ante
Ġd ay
adh i
ak al
Ġ20 0
an anni
Ġpol ice
Ġrasht r
Ġb e
ch e
ip ai
ish ed
Ġ1 8
Ġr es
Ġm ig
an anu
Ġpr em
Ġvi ch
Ġp ell
Ġjarig ina
Ġviv idha
app atiki
b e
ee p
Ġchest unn
Ġvidy arth
at ri
es am
Ġsam acharam
ir i
Ġv an
Ġpal g
ak r
anu g
ik r
Ġb ag
Ġs oc
inch uk
Ġpraj alu
adu th
Ġo r
Ġun ch
Ġsam av
Ġ unnaru
y ata
Ġm ud
ach ar
Ġe t
als ina
Ġvat ini
igh t
inch alani
Ġm ad
Ġt w
Ġt dp
Ġt ra
Ġf il
Ġnirn ay
an ce
Ġad d
Ġutp atti
am an
Ġkal p
Ġunt e
ation s
Ġvad la
al ana
uv u
Ġo ff
Ġ ir
Ġenduk ante
Ġp anch
Ġar tham
en e
Ġv aj
v e
in n
Ġ3 0
yam lo
Ġpraty eka
Ġv ist
o lo
Ġsamas y
Ġvid e
Ġg ata
Ġte es
Ġp avan
ov adam
Ġav i
Ġok ati
s am
ent s
ulu ga
av ari
o us
Ġpar ti
Ġan g
Ġvy avah
ist u
Ġtakk uva
Ġv ati
Ġd esh
Ġd e
Ġm aru
Ġippat ike
Ġk atha
Ġprak aram
Ġs y
u h
Ġd abb
it r
Ġmukhyam antri
Ġroj u
ist ayi
o od
w ar
av aram
Ġgo pp
Ġend uku
onn aru
Ġg od
Ġ202 0
Ġprash n
Ġper ig
ek k
id e
ak alu
Ġne path
er a
Ġph ot
asw am
Ġch ell
Ġmo di
Ġs av
Ġr ep
Ġakk ada
Ġch ir
Ġmat lad
it anga
Ġn ee
Ġm add
id dh
Ġs ec
Ġpolic es
Ġs c
ukov adaniki
l i
Ġch att
Ġ1 4
Ġ201 9
Ġ 00
ad ar
ol u
t anga
Ġg el
Ġr aksh
Ġbay at
Ġh al
Ġb ad
Ġm ay
Ġsh akti
ip r
Ġk ev
Ġl u
Ġni j
al ap
ar ag
and r
Ġadhik ar
Ġm ul
Ġthe es
Ġr ay
i es
Ġbh ash
inch ali
ara o
anam lo
Ġa arog
Ġm ov
Ġid e
ath u
t er
Ġund ani
Ġd as
Ġvidh anga
Ġp ath
ip u
Ġ all
alu ga
Ġ -
Ġpraty ek
r u
in am
it s
Ġ isht
Ġma atla
at ana
kur ma
oc k
Ġkend ra
Ġven k
er e
Ġbhar at
Ġb ank
an tha
Ġw h
or k
Ġsh atam
Ġve g
Ġpr oj
Ġ2 5
Ġanduk e
Ġm ed
yam aina
Ġpari m
at alu
et a
e lo
ang al
Ġm un
Ġch utt
Ġkev alam
d am
Ġennik ala
Ġchest unnaru
l anu
Ġsoc ial
Ġa ah
Ġp ed
Ġsans tha
Ġproj ect
Ġg at
Ġlo p
on na
Ġrajakee ya
Ġk ada
Ġ ath
e at
al oni
ust om
Ġmaatla ad
Ġ1 3
o ga
Ġd oc
an as
Ġind ulo
Ġyu v
Ġekk uvaga
Ġv edi
Ġtel ust
Ġn y
Ġmedi a
Ġe di
ist ondi
Ġk akunda
Ġchin n
ath ir
ip un
Ġvyavas th
Ġr el
Ġch arit
uk une
ac chu
Ġpr anth
ev i
Ġvaj be
Ġ1 6
Ġra it
Ġp utt
Ġt al
Ġand ol
Ġs ai
Ġpar is
Ġs ch
ar aku
Ġpar yav
ur i
in adi
Ġ ab
ar aj
r y
Ġsth ayi
Ġp ust
c y
Ġg ad
ar n
Ġam s
Ġw eb
Ġt eev
v am
av ad
Ġabh im
Ġpr ant
bh ut
Ġvivarinch andi
Ġd ar
Ġsn eh
r o
y as
ug u
Ġpr eksh
an ini
Ġsam arth
Ġpett ub
Ġadhika arulu
om m
Ġs ing
Ġd em
Ġavak as
Ġtay aru
uk oni
ar ach
ic ket
Ġsam pr
Ġpubl ished
Ġp m
al ante
Ġ1 7
Ġk anug
ur e
uk undi
Ġpari ksh
Ġd ec
ev aru
als i
el u
Ġmar p
Ġa h
Ġs on
Ġc ustom
Ġan and
Ġsam bhav
Ġj ab
at anu
Ġ à
Ġas alu
Ġprad arsh
Ġidd aru
ukunt e
Ġvim ars
av achu
atv am
Ġani p
ow n
Ġs m
iv as
Ġvac chi
Ġt ad
ari k
Ġch ot
o b
Ġparisth iti
Ġhal f
amp ai
ut aru
Ġr ev
ic k
il i
Ġaty anta
Ġpo sh
Ġsandarbh anga
l alo
up u
y ulu
Ġvent ane
ud e
Ġs um
Ġam alu
ots ah
Ġd el
y ap
Ġvyakti g
h ya
v ara
Ġkar ananga
Ġ es
Ġlek ap
Ġsank et
Ġn id
Ġn adu
Ġpr ati
at es
Ġgr ah
Ġb abu
en n
od a
ar eddy
Ġst ar
Ġc ol
Ġche ya
Ġedur k
Ġs ul
Ġro op
ar av
Ġvy athir
Ġp ai
isth undi
Ġpr otsah
rad esh
Ġt im
Ġb y
Ġi bb
Ġund e
il e
Ġkot la
ub at
Ġv aru
uk unnaru
Ġled ani
o ur
Ġbh oom
Ġkon ug
Ġar og
Ġsambandh inchina
Ġcomp any
ul e
Ġvyakt am
Ġchey alani
ar alanu
ec tion
Ġte ch
Ġud ah
Ġm ani
il u
m ent
Ġan na
Ġsampr ad
Ġjarig indi
Ġl eni
g h
ed ani
iv i
di ga
Ġph one
ukunt unn
Ġsh iksh
am ga
Ġh a
Ġch adu
Ġil anti
p i
Ġka ani
Ġv ant
aj i
ukov ali
av e
Ġepp udu
Ġk am
utunn ayi
uv anti
ak ala
Ġan uv
Ġpat ra
add u
Ġvar sh
Ġv and
ar ini
aru p
Ġd ash
ul alo
Ġa id
Ġlo k
Ġb i
Ġbhar atha
Ġk il
Ġen ch
Ġpanich est
k aram
Ġch ik
Ġs ara
Ġnepath yamlo
el lo
Ġkum ar
Ġs ep
r iti
h am
und o
Ġchary alu
Ġtelis inde
Ġre ad
im a
ap r
Ġ qu
in and
Ġel anti
Ġsr in
aran anga
im m
ag am
ap aduthundi
Ġvyak hy
Ġen g
et ti
Ġvar g
Ġnirn ayam
Ġo pp
Ġtaj aga
an aniki
Ġp ap
inch avachchu
Ġk i
Ġdi s
ari ga
Ġvacch indi
f t
Ġd ani
Ġc ov
Ġanubh av
Ġroj a
Ġad ig
Ġpurti ga
Ġpr acharam
Ġl ev
Ġmaatlaad utu
Ġd arit
Ġmo th
Ġmund uku
Ġve er
Ġag o
Ġabh ipr
Ġdad apu
Ġkot t
Ġev er
Ġabhy arth
ush t
Ġk asht
g e
r ic
em p
Ġen to
Ġmerug up
oj u
Ġtam il
Ġsah a
m ine
Ġok ka
Ġs ay
Ġsank hya
Ġ5 0
Ġkend r
Ġdagg ara
Ġv allu
ik ar
Ġadu g
im pu
Ġdoc tor
Ġchest unna
Ġr ash
Ġkal yan
c o
Ġdem and
Ġp od
on s
av acchu
en ce
r aj
em b
Ġfil m
am i
Ġennik allo
Ġed aina
Ġ2 4
Ġchey abad
Ġprapanch a
abh a
ukunt u
Ġn ov
Ġst r
Ġutp att
y ad
ava aram
oll y
Ġr et
id a
atm aka
Ġs ri
Ġg aru
iv a
l aku
Ġb us
Ġ one
Ġphal it
Ġp akk
avant amaina
Ġgopp a
Ġni y
um m
al ane
Ġsadh arananga
ad as
Ġbh ay
Ġs akha
Ġvar ini
Ġni yam
Ġsth ir
g y
Ġd or
Ġbh adr
Ġ202 1
in k
Ġand ubat
g et
Ġan tha
Ġ us
uv ulu
Ġ ur
Ġchus i
Ġindi a
Ġ201 8
Ġdes am
Ġg ov
Ġjeev ith
Ġn annu
Ġsank sh
at ed
r aksh
ik anga
Ġsan ch
Ġandubat ulo
Ġpari ch
i z
d a
Ġd eb
Ġd ata
Ġvil uv
ur t
Ġmukh yanga
Ġr ag
w ay
Ġpreksh ak
Ġp oy
Ġkar m
Ġ appudu
Ġiv i
Ġsan vats
Ġemp ic
ukunn adu
ast a
Ġcho os
ond a
Ġameric a
Ġpell i
ul apai
ish y
Ġm al
Ġjag r
Ġsahay apaduthundi
iss ion
Ġsadh arana
Ġsah aj
Ġmov ie
Ġsam pad
Ġad es
i ah
e er
l ine
Ġvide o
Ġm am
Ġichch ina
Ġniy antr
Ġs el
um p
Ġpari g
ek ap
ag ala
Ġs ann
l esh
Ġsp and
Ġap r
w ood
Ġan us
Ġand ulo
Ġkon ta
Ġabhim an
ar lu
Ġlaksh ala
Ġo c
ar v
Ġc oll
Ġches adu
Ġsinim alo
Ġb andh
Ġk ram
as i
ic s
Ġad bhut
Ġparish ram
o or
ip ot
Ġr od
Ġdeen i
o ka
adu p
Ġnam od
avar anam
Ġdeen iki
Ġs ub
Ġchest u
ak anga
ga h
ut ayi
Ġmah esh
Ġ2 1
ish ti
Ġp os
ev al
d ay
ik arinch
Ġv add
Ġvyathir ek
Ġvish ay
ch ina
Ġv et
Ġup d
l es
Ġdi v
m i
Ġund ali
Ġroop ond
Ġman ch
Ġed adi
Ġsans th
Ġed o
ip ad
uk un
e ak
es e
Ġp as
Ġg an
Ġvir us
ey adam
in na
Ġvat av
Ġev aru
imch aru
j i
t t
Ġcomm un
in es
Ġl anti
Ġsamas ya
ap a
Ġsth anic
Ġj ul
Ġnalu gu
s ip
Ġtan aku
Ġn uv
en g
olly wood
Ġsam adh
ab le
Ġm okk
ar p
Ġpai gah
Ġchadu v
an c
Ġudah aran
or s
Ġsamaj ic
o ol
indi a
Ġs ek
Ġud d
Ġma aji
Ġra il
Ġar dh
Ġmah il
Ġk ul
Ġchik its
Ġprad esh
Ġund hi
Ġcomp ani
Ġjeev it
y alanu
Ġpraj ala
Ġsam ip
Ġand aru
rap radesh
os ari
Ġst or
ar k
inch in
e es
Ġa adh
ur av
Ġit eval
Ġj atiya
aru d
alu e
Ġt op
an ya
Ġ att
Ġpar yat
Ġs om
Ġk ir
Ġm et
i tha
ar dh
Ġb ab
Ġcon t
Ġn ot
Ġsam achar
Ġk ann
Ġen th
Ġparish karinch
o o
Ġtelust ondi
Ġvyaktig ata
and ri
Ġ2 2
Ġenn o
Ġt est
at ya
Ġy uddh
Ġd anini
ar ap
Ġm la
Ġr y
Ġr og
Ġprak ri
Ġsrin ivas
Ġvish lesh
Ġtr s
Ġn it
o ut
Ġb ang
Ġgat amlo
Ġsho ot
Ġt all
ad anni
Ġanch ana
Ġprabh avam
Ġn tr
Ġkonug olu
f or
Ġc ase
ari m
Ġbhar ath
Ġmig il
unn adu
Ġpr ach
et ini
al one
Ġd at
Ġmo h
ud a
Ġcustom er
Ġcheya ali
ie w
and am
it al
un g
Ġdir ector
i a
akt ini
Ġne eti
er al
Ġdes amlo
uk ha
ad o
Ġt is
Ġ1 00
Ġs ib
Ġrel e
Ġj arag
Ġsam p
Ġb ill
Ġchest e
Ġsara in
Ġm y
Ġa ug
Ġandh rapradesh
Ġvenk at
at ayi
ala h
2 0
Ġkond aru
ar ula
Ġne thalu
Ġman av
ab adi
ee ksh
Ġr un
inch al
Ġass emb
Ġsup er
' '
akr ish
Ġbr ah
Ġat m
o sh
Ġkal am
Ġpram ukh
Ġà ¤
up ai
Ġpar t
Ġk aga
Ġvid ya
Ġekk ada
Ġnag ar
Ġdr ishti
ukov alani
iti lo
at nam
Ġprav esh
Ġn adi
ukov achu
Ġ im
Ġm ur
ip i
o di
Ġem m
Ġroj ula
Ġchey y
Ġyo u
Ġcompani es
Ġ2 3
Ġg und
Ġk aru
Ġb ud
Ġg andh
Ġassemb ly
Ġne eru
Ġak arsh
Ġrec ord
Ġal anti
ag ar
Ġmani sh
ac e
Ġdeb b
ukunt aru
Ġsidd am
Ġmukhyam aina
uk i
Ġa av
Ġan sh
Ġv ik
Ġmar k
Ġsamav es
Ġa ch
Ġs et
Ġso uk
Ġin k
Ġud yam
Ġadhy aksha
Ġkaryakram am
Ġin ti
Ġadh aranga
an alaku
Ġp aram
Ġpat la
at ch
Ġrach ay
ur a
Ġpr iv
Ġem i
Ġpr anal
c t
Ġw ork
Ġb ig
Ġmod al
p a
un ch
Ġs cr
Ġkutumb a
Ġnim ish
Ġt ed
Ġsang athi
Ġapr il
ag ane
Ġsw ee
Ġok e
Ġperk onnaru
ak ram
ut a
Ġn asht
Ġar e
Ġutt am
di sh
Ġpradh ani
at l
ad iki
Ġm i
and a
att a
b i
un anga
Ġav aga
Ġnalu g
Ġint lo
Ġ ip
Ġman aku
Ġsinim alu
Ġb a
adh yam
Ġm as
Ġr em
Ġg n
Ġsahay apad
Ġnil ich
th e
Ġar r
id u
ak alam
Ġadhik aram
ipoy indi
Ġvast undi
am ika
ann y
ani v
Ġb lo
Ġsam ud
Ġchutt u
Ġra o
Ġh ind
Ġt it
ic ation
Ġtol i
ak aram
Ġchey avachu
Ġavasaram aina
und am
ant ram
Ġy aj
Ġp aksh
Ġanum at
Ġv sip
Ġre g
Ġud h
Ġc av
Ġpan ulu
Ġvyap ar
Ġsambandh am
Ġl oni
Ġsar v
unt aru
Ġvel d
ut und
at ra
ch aru
Ġn um
Ġund atam
Ġel ect
m e
Ġpr an
Ġnir d
em ent
Ġv est
es aru
Ġparish il
Ġk inda
Ġon line
Ġbhav ishy
in appatiki
Ġbharat ad
Ġe g
g am
Ġdarshak udu
Ġdec ember
Ġp et
Ġavaga ah
j a
Ġcomp ut
Ġjill alo
Ġparich ayam
Ġpraj alaku
Ġmer aku
Ġem iti
t ember
ta in
Ġkes ulu
Ġkil aka
Ġkar yal
Ġchest aru
Ġe th
Ġnag aram
any ata
ani s
ay al
Ġh r
Ġchepp ina
Ġmod alu
ani mch
ay anga
em o
di ki
Ġch at
Ġh akk
av aru
ett u
t on
ti e
Ġb att
Ġit ara
Ġth ol
Ġtim e
Ġbayat aku
Ġ undi
Ġtech n
Ġan anth
Ġint ern
Ġvibh aj
Ġdh ara
Ġrele ase
i ya
Ġj une
Ġun it
ation al
ing s
Ġled u
Ġdi l
ang am
Ġandist undi
Ġsep tember
Ġmadd athu
in avi
v er
Ġpari dh
Ġmah ila
Ġvat avaranam
c ort
Ġoc to
Ġaug ust
es indi
at y
yat anu
k al
Ġav utundi
Ġt app
Ġm p
Ġar op
Ġkanug on
Ġbhag anga
as an
Ġg op
Ġkrish na
Ġann adu
Ġn ati
Ġs ubh
r anga
Ġand ariki
Ġpram adam
Ġm antr
Ġant a
Ġkar n
Ġaarog ya
Ġprak riya
Ġvast av
Ġt v
Ġvin ip
ah am
o f
r eddy
Ġvad il
Ġlo ck
o z
Ġch amp
Ġ00 0
Ġf eb
Ġam e
Ġdr ush
ank ar
b andi
Ġam ma
ur s
Ġw ith
Ġunt aru
Ġch ina
Ġbh um
Ġjul y
Ġeng ine
Ġrak ala
Ġh it
Ġvar thalu
Ġsa in
Ġtam u
Ġdh arm
Ġmand al
w er
Ġpram ukha
Ġc ent
os e
Ġpriv ate
l ing
il oni
av adam
n e
Ġb ar
Ġteev ra
ak ud
Ġthapp a
os s
l ato
av alas
Ġdur am
Ġandol an
Ġl eka
Ġocto ber
Ġpol it
Ġvyavas tha
Ġnav v
' s
as ari
Ġchiv ari
Ġg amani
Ġp ack
Ġsw am
Ġa ad
Ġsai tham
a a
Ġsank hy
u e
c tion
Ġcho od
adi ga
Ġvast e
Ġtar al
Ġk all
aru du
Ġfir st
ond ani
Ġprarambh am
ir a
Ġcomm itt
Ġdel hi
ath ulu
Ġsthayi lo
unn atlu
Ġmod ala
Ġcov id
ti f
Ġmar ov
Ġvaid ya
Ġvi di
av id
anj eev
Ġd aksh
el lu
Ġapp at
Ġt var
Ġsing h
Ġvidh anam
uk ol
Ġant unnaru
at anto
Ġshoot ing
ang ane
Ġs al
Ġt alli
end ra
Ġpot tie
e ed
Ġpr ema
o chch
Ġkh achch
Ġvish ayanni
Ġsah ayam
Ġc re
od e
Ġt edi
ch ary
Ġch akk
Ġco urt
olo gy
Ġj ant
ol e
Ġbh akt
w as
Ġroj ulu
ar ya
Ġs ad
Ġanuk ul
Ġkot te
add aru
Ġ2 6
Ġtar ach
Ġm imm
Ġda aniki
Ġn idh
Ġs ant
Ġant arj
esh aru
Ġpettub ad
adh y
Ġk asta
in attu
is e
Ġsneh it
Ġsum aru
Ġf in
Ġmarov ipu
Ġj at
Ġananth aram
unn adi
Ġ2 8
ass u
er p
Ġ4 0
Ġt ecch
ar ma
al anni
ak ka
Ġnayak ulu
Ġsamas yalu
p h
Ġchir anjeev
Ġt y
Ġo oh
l on
Ġtarach uga
ukunt unnaru
ab ot
Ġkharch u
as u
Ġbhag aswam
p o
Ġ2 7
Ġdes ign
Ġtar ag
Ġsambhav ya
Ġch all
Ġjagr ath
Ġaloch ana
Ġnir as
il y
ath am
Ġg en
Ġb ack
1 9
Ġniv as
Ġpl an
Ġavagaah ana
Ġcharit r
Ġbhoom i
Ġsambandh inchi
ga a
Ġd anny
Ġev ery
ek u
ukov a
Ġman ava
Ġchikits a
uk up
ram a
am ma
Ġpar v
ur th
Ġa f
Ġpur t
Ġmarg am
Ġadbhut amaina
j ay
Ġarr est
Ġpill alu
Ġdr iv
Ġkanip inch
Ġch ani
Ġa ut
ay anam
er g
Ġgandh i
Ġs ign
Ġvaru s
Ġant ek
ip oth
Ġvy ayam
Ġsh aktini
Ġth at
Ġm ach
Ġper uto
Ġn ish
Ġdin ini
Ġb aru
Ġchey al
Ġd vara
Ġh igh
anto sh
Ġvidy ut
Ġm ir
ut undani
Ġm anu
Ġl at
Ġv alue
Ġs uk
Ġichch aru
Ġv und
ip o
aru st
Ġkot tu
Ġth all
Ġni bandh
ak udu
Ġsp ashtam
Ġmimm alni
Ġint er
Ġhero in
Ġudh ayam
p or
Ġot ti
Ġs eni
Ġo ut
Ġkon n
Ġt andri
Ġrail way
ayy aru
Ġdo or
Ġd own
Ġan ug
Ġne oz
p y
Ġpar inam
Ġbhadr ata
Ġv esi
Ġ aksh
Ġandh ra
Ġprapanch am
y aniki
Ġnov ember
Ġsth ay
et appudu
odh ana
Ġprat in
Ġtelus u
Ġsari ram
Ġdh any
Ġm all
Ġsib bandi
Ġrend o
Ġshiksh ana
em i
um ar
Ġprash na
Ġgram am
Ġcha ir
Ġs antosh
Ġh ar
Ġparyav aran
Ġm ag
Ġp ant
Ġ uch
ru ary
Ġkal amlo
ari ka
st em
ti lo
Ġint iki
Ġviniyog adar
uv ula
Ġven uka
Ġcar b
Ġma ata
Ġsam raksh
Ġj anu
Ġp ort
ee tham
Ġkarm ik
Ġv alana
Ġbhar ya
Ġut s
Ġaid hu
Ġbadh yat
s on
Ġsh iv
Ġg ani
Ġg ala
Ġfeb ruary
th aku
Ġjan as
Ġb ut
unt undi
Ġsam b
in y
ch indi
Ġtaj a
Ġar j
Ġs eri
ip t
Ġaah aram
Ġp e
Ġone india
akap ote
Ġ2 9
Ġas akti
Ġm ore
Ġpr odu
Ġsam ard
Ġin st
Ġc ap
Ġdeen ni
inch agal
Ġraj u
Ġa ir
Ġp emp
Ġin dh
Ġsy stem
ay aniki
oy ina
an o
Ġs un
Ġg am
Ġr an
arsh i
Ġna ipun
Ġk ilo
Ġsangh atana
Ġprastut a
Ġsans k
Ġsam iksh
ukunt unna
c ess
Ġin tha
Ġsamadh anam
Ġk apad
ap ett
al atho
Ġ201 7
Ġk ap
Ġroj ullo
Ġcomm ission
Ġn ipun
Ġsanvats aram
Ġsup r
ab d
Ġchep att
Ġpad arth
ram aina
k e
Ġh ot
ar yam
Ġm aj
Ġa ayana
ah a
oh an
Ġ z
Ġprabhav itam
d d
at an
Ġk as
Ġdi sh
Ġdesh a
Ġka adu
Ġdabb u
Ġkud in
ast u
Ġm ill
Ġd eep
Ġlek k
y alo
Ġt ap
Ġjanu ary
Ġjan m
Ġ x
Ġbh oj
arinch ina
it amaina
Ġnir dish
Ġd akk
up p
l onu
Ġches th
Ġprach ur
am ent
ay an
am b
Ġsanket ika
Ġso ft
Ġmar osari
Ġh im
Ġviniyog ad
Ġmerugup arach
Ġmedi alo
ak alanu
Ġsah it
Ġvatav arana
Ġg anani
Ġdarit istundi
al p
Ġkalig ina
Ġs akt
ion s
is m
Ġpo oj
Ġibb and
inch ayi
as on
Ġh as
Ġ ast
Ġb atti
Ġipp atiki
Ġl ine
en ani
Ġd ep
m ar
Ġvil uva
v i
inch enduku
ap ati
Ġl ab
av ett
el s
Ġ ug
in s
Ġj a
Ġgant ala
avant anga
ay ya
Ġd al
Ġsp asht
Ġchad iv
Ġcon n
d r
Ġpani t
Ġcor r
Ġnuv vu
y ala
ek har
Ġnamod hu
Ġgur uv
ul ni
Ġj ay
ee k
ous e
Ġgur th
Ġpari kar
Ġgr een
Ġchest ayi
Ġp av
Ġg al
Ġparti es
Ġvyakhy alu
inc adaniki
Ġmug g
Ġpras ad
Ġkrish n
Ġr atri
Ġmo b
Ġg adi
Ġpad av
id andr
Ġbud get
Ġko th
Ġrav ana
aru t
ot a
Ġp aduth
a ut
Ġg ol
ama indi
Ġte am
Ġkor aku
c al
Ġsand arsh
tim pu
ulo ki
Ġas up
Ġprakat ana
ani st
Ġsamachar anni
l an
Ġsar f
Ġvy as
Ġsh ock
ip al
Ġrang amlo
Ġmandi ki
Ġb as
Ġc ard
s r
Ġdur amlo
Ġcharit ra
Ġkani sam
ank u
Ġsamaj am
Ġsm art
Ġl en
Ġm ukk
oy e
Ġs erv
ari mch
p ur
Ġand uv
Ġp aina
ay ala
Ġkr m
at ram
Ġvel di
Ġab out
Ġseni or
an yam
Ġvyathirek anga
Ġupayog inchadam
Ġunt undani
Ġant aru
Ġmarp ulu
ak anni
Ġd adi
ov adanto
ar at
Ġv ani
Ġbhag am
ist an
Ġpr og
Ġtol ag
x t
Ġ ull
Ġmanas ika
Ġantarj atiya
Ġchiranjeev i
unn arani
adh a
Ġniv edi
Ġn ak
Ġnij am
Ġel l
Ġnel ak
Ġbhash a
an apu
Ġp ul
akrish na
Ġf l
Ġtit le
Ġkutumb am
Ġam arav
Ġnirdish ta
Ġc are
ati c
Ġchust e
Ġupayog inch
li ament
w ard
Ġnirm anam
Ġsabh yulu
ac u
Ġvij ayam
Ġbah ir
s a
ch es
ok unda
s o
Ġt in
Ġc y
ik aran
ir eddy
ud ini
Ġs ir
Ġpray og
Ġgov ern
Ġcor por
ant aram
Ġtag ina
ik arana
Ġny ayam
Ġs it
Ġk adani
Ġp ag
iv ed
Ġbal mine
Ġs iddh
Ġk app
Ġrah ul
p e
ik alu
Ġkrm amlo
Ġma aku
Ġt od
Ġs od
Ġc ine
Ġpr ac
Ġpo wer
Ġpar liament
Ġp all
Ġp ush
Ġmaro ka
abh am
Ġk anti
Ġg u
Ġupayog inchi
Ġv er
atv amlo
Ġcha ala
in at
Ġmod ata
Ġne th
o x
o und
Ġn al
Ġet t
Ġm angal
Ġal av
Ġup p
allo ki
Ġsabh y
Ġfor m
Ġd anto
Ġsamvats arala
Ġad ananga
Ġjab it
Ġpr of
Ġp arug
Ġk ant
Ġel la
Ġmarket s
Ġvir al
Ġm umb
v as
Ġchepp adu
Ġas p
Ġt at
l am
Ġp adi
Ġkon ch
Ġv ig
Ġupd ated
Ġkav adam
Ġlat est
h il
Ġviv aralu
Ġm on
Ġcheb utunnaru
att uga
Ġar t
Ġsar e
Ġa udi
Ġpl ay
Ġvip e
co unt
Ġj od
Ġadhy aksh
arinch adaniki
Ġprat ik
Ġpa ath
Ġsth anam
Ġweb s
i chi
Ġch alam
Ġotti di
Ġk ashtam
Ġibb andi
ist adu
Ġvyavah ar
ut r
ee ma
Ġprath amika
Ġvell ad
Ġl anu
Ġtagg inchadaniki
p ot
Ġbadh yata
Ġsam bh
Ġb ollywood
Ġcoll ector
ac t
ir am
Ġthees ukovadam
Ġpr oc
Ġd oll
Ġcarb on
Ġc al
Ġ3 1
Ġmat alu
ar indi
Ġjeev itam
und aga
Ġchandrab ab
Ġmigil in
Ġnir dh
Ġparig an
Ġo x
Ġprog ram
Ġras ina
rah am
Ġbrah m
Ġavakas alu
Ġpo int
Ġch ur
Ġb at
on y
Ġviv ar
Ġs ast
Ġ19 9
Ġ ush
Ġsh are
Ġw ill
Ġm ott
y oga
Ġs ab
Ġin n
Ġcommitt ee
er ing
an undi
Ġv am
Ġsouk ary
Ġk ash
Ġrav adam
Ġjarug ut
Ġlakshm i
l aksh
Ġpray ath
Ġtelug ud
Ġcharch a
id hi
und ane
y anu
Ġy e
Ġnat inchina
Ġtw eet
for m
r es
Ġmar tu
b al
Ġbhar atiya
ara ga
iti on
l and
Ġ ill
Ġsch ed
m et
an allo
Ġ u
Ġipp ati
Ġad anapu
Ġkar yad
Ġthol ag
Ġar dam
in anta
Ġn eti
Ġay anaku
Ġbr eak
or u
Ġkr itam
Ġf ri
Ġkur ma
Ġchit ra
Ġm id
r ata
Ġth agg
Ġsp ec
Ġvish ayalu
Ġint erv
Ġk ala
Ġcr icket
Ġk allu
Ġ3 5
el y
Ġch arg
Ġpettub adi
Ġr addu
Ġnum ber
Ġhy cort
Ġj ail
Ġsams k
am o
Ġadh un
Ġchitr anni
Ġmob ile
Ġop en
Ġam b
ul ar
Ġvel a
Ġmoh an
Ġn indi
Ġman ag
Ġvac c
Ġop er
Ġ201 4
Ġcomm ents
Ġvis w
ani r
Ġbo ok
Ġthall idandr
Ġg ari
r ak
Ġb ath
Ġdh ar
Ġrait ulu
on es
av utundi
Ġen ter
Ġk ov
Ġma arindi
ush i
Ġparish kar
Ġnirm ata
Ġtisuk uni
Ġund adu
Ġj ap
Ġko oda
Ġpraj a
ay o
Ġk anna
Ġjab ita
im chi
Ġsw at
Ġudd esh
Ġmari k
Ġsang eet
Ġtay ari
inch am
as ala
Ġl if
an unnaru
al ayam
Ġtam aku
Ġak att
l ish
Ġakk adi
ay alanu
Ġ abb
l im
Ġkotha ga
Ġjarug utundi
Ġem it
Ġkal ipi
Ġk eel
Ġpo di
Ġvyavas aya
Ġs unn
Ġk eta
Ġs im
Ġn in
Ġsev a
j an
Ġsul bh
en cy
Ġsinim acu
en ch
Ġs k
it ive
add a
as anam
Ġv yu
Ġmund e
Ġj arup
et o
di p
Ġtechn ology
Ġmanchi di
Ġsch ool
inc adam
Ġaty adh
Ġan y
ur n
und hi
Ġpras iddh
Ġjanas ena
i an
Ġveg anga
Ġand uku
Ġvij aya
ul oni
ap aduth
abad d
Ġch arm
ac ch
Ġlev u
ud aina
Ġanug unanga
Ġn ut
Ġchiv ariki
Ġk udi
Ġunn appudu
and ra
Ġsh il
Ġf am
Ġtelip indi
Ġday ton
Ġpalg onnaru
ist am
Ġjarig e
ip e
Ġgram amlo
Ġb udh
Ġever aina
Ġt icket
Ġc all
Ġsinim an
Ġm ot
Ġc ur
ay ina
Ġa aru
Ġven ak
Ġanumat istundi
Ġy ad
r anti
Ġvar t
Ġsan th
Ġmerug ine
Ġches enduku
Ġr ab
Ġthapp akunda
Ġgur thu
Ġind ust
r ut
Ġnam un
Ġok aru
Ġvyakt ulu
Ġchepp indi
Ġprat ipad
eeksh a
Ġny ay
ind o
ar ata
ist er
Ġbadh it
Ġm riti
Ġvich arana
Ġsay antram
Ġscr een
Ġp adam
as a
Ġcol le
Ġh el
Ġil lu
Ġin g
Ġsam arp
ev adu
p ort
Ġs if
ada alu
Ġintern et
Ġrag h
Ġkur ch
Ġbr and
Ġg unt
al em
abad indi
Ġm el
Ġproc ess
Ġp atha
av ya
Ġnirvah ana
Ġb la
b abu
Ġpur ush
Ġsams thalu
Ġpray anam
ol a
Ġtelugud esam
esh war
agal ig
Ġs ett
Ġvidyarth ulu
y adu
Ġmat ch
Ġkarn at
Ġg ud
Ġsh at
Ġoff ice
Ġl ag
Ġrod du
Ġv eru
Ġg ar
an ato
Ġivv andi
Ġchad av
v ad
Ġpratyek anga
Ġper ag
m p
ection s
Ġd on
Ġkav achu
Ġm udd
Ġgur timpu
Ġarj un
at ing
Ġhr ud
andi st
und u
Ġay indi
itt er
Ġas akt
d ani
Ġisht am
Ġmod el
anth anga
r an
ul t
Ġvell i
Ġfr om
a z
Ġparti ck
Ġmund uga
l d
ha ir
Ġn un
is ari
Ġvast uv
ak avar
Ġpr es
Ġnir odh
y anto
Ġed em
Ġ201 6
Ġup a
tham andi
Ġd v
en c
Ġvy adh
Ġteev ranga
Ġch ikk
iv ers
Ġkalu sh
Ġne tha
op atu
Ġpak istan
Ġches ukunna
Ġva ik
w are
Ġv ak
at or
Ġl ink
Ġmarket ing
Ġsambandh ita
Ġva aram
Ġ ati
Ġkur s
Ġchair man
Ġs us
Ġbhar tha
w ork
Ġt anik
avar aku
av v
ad incharu
ur al
ie f
Ġ4 5
Ġprayath nam
Ġam eku
Ġprakat incharu
Ġteliy adu
Ġmod at
Ġthe er
Ġsang ga
unn am
Ġw or
Ġry thu
Ġandh r
at ini
ap h
Ġivv adam
Ġner ch
Ġsahaj a
oc ch
inand uku
Ġswam y
Ġkonch em
at aku
Ġb and
Ġchepp i
Ġse ason
Ġam od
l et
s p
Ġv unna
Ġsr ik
Ġpak ala
Ġn ay
Ġund aga
all y
Ġl on
Ġh ecch
Ġvar l
in eni
Ġtan anu
Ġt idi
Ġdhany ava
av y
al aki
Ġhero ga
Ġp adhi
Ġsang eetham
Ġer pad
Ġt wara
Ġchud andi
Ġrah as
Ġprabhav anni
Ġd oh
Ġna aku
Ġchatt am
Ġnirm ana
em e
Ġf ol
Ġch aran
unn anu
Ġameric as
Ġpadd ati
ut e
Ġkhachch itanga
Ġmanish i
b ad
Ġna idu
Ġad r
ul i
Ġsamasy alanu
un am
Ġvach ayi
Ġtwara ga
Ġa i
Ġkr indi
Ġthisuk unna
Ġn em
Ġb ala
us s
Ġadh ine
Ġsh ow
Ġsan uk
aj a
Ġnir up
Ġte er
Ġre al
Ġp ann
Ġd uk
Ġand ari
Ġpadd ath
Ġn ani
Ġb ir
Ġsuch isthundi
Ġdarshak atvamlo
iti es
Ġdhanyava adaalu
Ġet uvanti
Ġr ed
Ġkr ushi
Ġmumb ai
Ġon t
Ġcomput er
Ġe p
Ġc ey
Ġpad avi
Ġw e
Ġvyap aram
ar ulanu
Ġudaharan aku
ur am
Ġj al
p and
Ġfir yadu
b o
Ġchep t
Ġdig ital
Ġchani poy
Ġvimars alu
Ġrup amlo
Ġs und
ar ane
ur alu
ch chi
Ġparyav eksh
and ha
Ġch il
ap t
e x
Ġprath ip
ama inadi
od ve
Ġtw itter
Ġres erv
Ġsambh ash
Ġ6 0
Ġay inappatiki
Ġmar ok
Ġpun arut
Ġchalam andi
Ġp ut
Ġisht apad
Ġkath alu
Ġn achch
Ġraksh ana
Ġmangal avaram
Ġj ati
Ġpr iy
Ġinterv iew
Ġkal ap
tif ic
es a
Ġat u
e g
Ġak ram
u z
Ġvi as
ot u
ay udu
uj an
Ġguruv aram
Ġin f
Ġgh at
Ġch al
Ġp og
Ġvedi ka
Ġj oh
og le
ant am
Ġs udh
Ġthapp u
al edani
Ġth ad
imch indi
Ġjeevith amlo
Ġsh ir
Ġbr it
Ġpanich ey
Ġn edu
Ġkaryal ayam
uk on
Ġsamav esham
Ġpond ina
Ġo d
Ġw ar
Ġt u
Ġsar d
Ġdar akh
Ġm il
Ġsann iv
Ġpran tham
Ġvip l
il anu
Ġapp ati
av ani
Ġrajakee y
Ġtelug ulo
Ġmus lim
Ġm rit
Ġv ere
Ġches ukuni
ank sh
Ġid hi
Ġbhav odve
Ġphot o
lo r
Ġit y
tham ga
Ġparisthit ulu
Ġde gr
Ġph ali
Ġ5 00
Ġm os
Ġindi an
Ġarop anal
Ġpur og
Ġund edi
apur am
Ġmed h
Ġav ut
Ġpranth amlo
arn ing
Ġsidd anga
Ġsamprad aya
e w
abad ina
aga a
aj j
Ġam enu
inchabad utundi
Ġpalu v
Ġtad vara
Ġpos itive
t ar
Ġy antr
c le
Ġst re
m ir
Ġo ver
Ġparish karam
Ġpar k
o chu
utt u
Ġveld adincharu
Ġkan uka
iv araku
Ġpakk ana
Ġman th
Ġva is
Ġar ch
Ġnil va
Ġsamarth yam
o ot
Ġsar lu
anic i
Ġpram ad
Ġbah um
Ġprant allo
Ġne etini
Ġnel ala
ow s
Ġnirvah incharu
Ġsh ast
Ġner p
Ġpr er
Ġvi f
on ic
aniv aram
Ġpatr alo
uk r
Ġtal k
av ut
Ġhe ad
Ġh ouse
Ġup adhy
Ġprabh as
Ġad a
Ġr akt
Ġn an
Ġdoor amga
Ġat aniki
at er
a indi
Ġmar animch
Ġbla ck
Ġpamp ini
ar l
Ġksh am
o tion
Ġg ay
Ġdr isht
Ġgo ogle
inch aledu
es day
Ġadhine tha
Ġrend ava
Ġrachay ita
Ġbh inn
Ġd ars
Ġav v
Ġ athi
Ġd ong
Ġunn atlu
Ġbaru vu
Ġkr itr
m ohan
Ġphali thamga
yam ani
Ġsamvats aram
Ġun ivers
Ġsur aksh
Ġlakshm analu
Ġprayoj analu
e th
ic ipal
yam n
Ġpust akam
as kar
Ġmugg uru
Ġcl ass
k ot
Ġkaryak alap
Ġsur y
Ġchesth ondi
Ġco unt
Ġk er
anu m
Ġlo ki
Ġs antr
Ġjeev itha
Ġsam an
Ġkh an
n adu
n al
up ati
ess ion
av ela
Ġn ell
Ġcha it
iva aram
udi ga
Ġrang u
d aniki
it iki
ar ulaku
ab ett
Ġk ri
Ġsamaves amlo
g en
ad arsh
Ġsamard yanni
Ġved uk
Ġmun icipal
Ġsh anivaram
Ġad v
Ġprast av
in ation
Ġg atti
Ġr avi
Ġblo g
Ġpr om
end er
Ġt a
Ġb idd
anth i
Ġ ik
Ġa aya
Ġac t
Ġvivarinch aru
Ġd hair
Ġle ad
Ġanduv alla
Ġspec ial
Ġkor t
tt p
ap adi
z ar
Ġgur l
Ġv al
Ġprav arth
Ġpett y
Ġkh at
Ġm r
in ar
Ġdil l
Ġr ek
ar inchi
Ġprat yamn
Ġekk ad
Ġb oss
inch inatlu
Ġvar as
Ġs uc
id ent
ipoy ina
Ġpratin idh
at anga
Ġaad ivaaram
ith i
ak arinch
Ġh atya
Ġlo g
Ġpedd aga
v esh
Ġn eru
Ġm uk
Ġdir gh
ag alu
Ġpradh anyata
analo ki
inchadam lo
Ġtr ump
Ġakk ad
Ġemit ante
ur es
Ġnad ip
Ġc ab
Ġprakri yanu
en ti
Ġpill ala
Ġf i
Ġg ang
Ġraj in
een a
ak ul
Ġst art
Ġvibh agam
Ġa ward
Ġgamani mch
Ġad av
Ġp ass
Ġv ikr
Ġmukh ya
Ġsth ap
Ġpa iki
Ġchitr aniki
ev aro
Ġve ed
Ġsarf ara
c c
in av
Ġsuch incharu
Ġmand alam
ekap oy
Ġpa ata
Ġh ttp
Ġmanu sh
ar anni
og rap
Ġoff ic
ub b
Ġs eet
as im
t c
Ġudyog am
Ġva adu
Ġs ens
Ġphot os
Ġniz aniki
Ġsrisht inchandi
ar asht
Ġn aga
pad aka
Ġenn ical
Ġbh ayam
th ula
r alu
Ġch enn
w ada
Ġa ar
Ġam y
ik anu
inchabad indi
ar tham
am loni
Ġn ashtam
Ġunna ayani
and u
Ġw ind
Ġch ief
Ġkritr ima
Ġn ational
ukunt undi
Ġno pp
Ġk op
Ġsamasy anu
ari lo
ap udu
Ġprapanch amlo
Ġ19 8
Ġs iv
Ġnag arj
ain adi
Ġyaj aman
Ġyuddh am
Ġam it
yap tanga
Ġprabhutva aniki
Ġcon f
Ġte as
Ġamm ay
at ik
ap y
Ġot t
Ġc eyadam
Ġch ush
Ġtarag ati
Ġal ayam
Ġdirgh akal
Ġsain ik
Ġo di
Ġjari p
Ġupayog inche
an ka
akk uva
Ġabhivr ud
Ġk ind
Ġand inch
Ġvast unna
Ġnet work
ra z
Ġelect r
Ġang ikr
w al
abad e
Ġ201 1
Ġches ukovadam
as k
ed y
Ġniz am
Ġc am
Ġen t
Ġlo t
Ġsh ubh
Ġkar y
Ġdaksh ina
Ġs ol
Ġst ation
Ġbo ard
Ġsulbh amga
Ġva iv
Ġtall ived
e j
Ġsh r
Ġa ag
Ġraj adh
r al
Ġtel iya
ann am
Ġlaksh yam
n agar
ist anu
Ġkaryad arshi
Ġre f
Ġkes ulo
rad dh
Ġedurk ont
achch u
Ġhind u
Ġ umm
Ġs en
Ġabhiman ulu
Ġram esh
Ġfri end
ff ic
Ġneru gaa
ak amaina
Ġnel la
Ġr om
is indi
Ġa ust
Ġkanip istundi
ep u
ish k
Ġv ers
Ġ allu
Ġadhy ayanam
ell i
Ġsand eh
Ġt ala
Ġr ate
Ġkon thamandi
Ġch akr
Ġga j
r ay
Ġok asari
Ġnee ku
Ġmat l
Ġell appudu
Ġchep tt
al ak
Ġm att
at ala
Ġanni e
Ġpanch ay
und e
and ariki
ant ra
Ġtra ck
Ġj am
Ġh indi
Ġkon t
araj u
Ġsh ankar
Ġb angal
Ġh ir
Ġen ti
Ġconn ect
Ġm ak
Ġsth anamlo
Ġmig ata
Ġb alah
iv ey
im b
Ġpraj alanu
Ġnirn ayalu
Ġt ak
Ġjarug utunna
al y
an unna
Ġpubl ic
Ġch ett
Ġmokk alu
Ġnirvah inchadaniki
m ika
at ive
var yam
Ġches ukunn
Ġthisuk uv
t el
Ġb ur
anam aina
ist s
Ġpap er
and aru
Ġpari p
Ġtelis ina
Ġk ane
Ġvel t
Ġthis ukov
Ġjagrath aga
Ġb eng
in et
Ġfilm ib
ak ur
Ġkaryak arth
Ġve etini
Ġcare er
o ch
Ġk et
Ġg aman
Ġl as
Ġgunt ur
Ġn en
Ġp i
Ġj our
ast er
oom i
Ġsabh a
Ġtisuk oni
Ġsamvats aralu
Ġfilmib eat
or y
Ġ ic
ap ari
Ġand y
Ġm og
Ġter ak
Ġem ail
p ett
Ġsign s
il d
aran aku
y ana
Ġund ataniki
Ġspasht anga
Ġkram am
Ġ ess
Ġann adi
Ġlaksh man
Ġprayatn alu
Ġupay oga
Ġpradh ananga
Ġs l
y oth
Ġsw antha
Ġlo ok
Ġvani j
Ġh ami
Ġichch e
anal ato
Ġaut om
Ġok avela
Ġunna a
Ġal as
Ġvijay ayam
Ġf ac
Ġtelang analo
k h
Ġc ode
edd a
Ġteliy aj
o bh
Ġlekap ote
ari g
Ġj anam
Ġvir am
ch andra
Ġapp le
r av
Ġpaluv uru
Ġund alani
Ġkad al
ant amaina
Ġchepp adam
ach esi
Ġgatti ga
ub atu
Ġna atiki
Ġvay as
arap adi
Ġibband ulu
f i
yak aramaina
Ġprayoj anam
Ġm ic
Ġsh ail
Ġkod uku
Ġn imp
Ġ3 6
Ġst ock
Ġt eem
Ġ201 5
ak riya
Ġg ul
Ġsamraksh ana
Ġgod avari
Ġprash ans
is i
ol edu
Ġbhari ga
als inde
aksh mi
Ġpalg on
Ġsw ayanga
Ġperig ina
Ġdh aralu
Ġ3 2
Ġath adu
a ir
Ġviv aham
Ġag n
Ġabh inand
Ġnamm akam
Ġbh ary
Ġcl ick
Ġch ain
Ġsah akar
Ġsam m
Ġch ann
ap tanga
Ġcont ent
Ġb alam
Ġsh ash
Ġo l
Ġt om
Ġf eat
Ġunn appatiki
Ġpratyek amaina
Ġm en
Ġgel ich
Ġmadd at
ak ula
Ġsh raddh
Ġar h
lo y
Ġtvar alo
Ġme ga
alo ki
ut am
d own
Ġi chchi
Ġchot u
Ġkilo met
Ġsadh inch
Ġpariksh alu
_ _
ayy e
urth y
Ġkalig e
Ġpatr alu
ar apad
Ġpray an
Ġpett ina
avya aptanga
Ġtad it
in ess
ip ti
Ġpari j
Ġg un
ul an
Ġmaru t
Ġvari lo
r et
Ġg lo
Ġthir ug
Ġsthir mine
Ġlok esh
Ġr uch
Ġpo th
Ġs il
i um
Ġp el
ann adi
in al
at aram
Ġb l
Ġl y
Ġsev alu
Ġjoh n
Ġd ust
k am
ag an
ha a
Ġdebb at
Ġpr achar
ip ett
Ġniz anga
Ġdor ik
Ġiv anni
ar aniki
Ġs adup
Ġrait ulaku
Ġs aksh
ann e
iv v
Ġprakri thi
att e
Ġsif ars
Ġches ukovadaniki
Ġlaksh yanga
ath ul
Ġh om
Ġn ik
ev a
all e
Ġn ind
Ġchet ilo
Ġar tic
u ck
Ġw as
Ġsa adhyam
Ġkalu g
uv ari
Ġtees uk
Ġp andi
Ġv ill
unt ayi
Ġp annu
Ġsh ukr
Ġ201 3
al anna
all oni
Ġkav adanto
is ion
k k
Ġt ur
it ini
Ġb om
Ġapp ag
Ġada im
i h
Ġsanniv esh
Ġichch indi
Ġchud ali
Ġniyantr ana
Ġdoll ars
Ġanum ath
it ra
abh oomi
Ġk and
Ġsr ujan
Ġelect ric
Ġc le
Ġchepp uk
ra o
Ġpor ad
Ġm itr
Ġprashn incharu
ug ane
Ġprapanch avyaaptanga
Ġadh arapadi
Ġjan abha
adup ari
Ġkav ali
Ġvyap tanga
p l
Ġsek arinch
Ġvach indi
inch ukov
Ġvell ina
Ġmahil alu
Ġsang am
Ġpat alu
Ġteem ramaina
uv v
Ġsom avaaram
inch arani
Ġme et
udi ki
Ġperk ondi
Ġmanth r
Ġna it
Ġmarin ni
Ġox y
Ġsh ah
Ġd ary
Ġy erp
Ġseri es
ut i
ant ara
Ġ0 1
Ġl ight
Ġwor ld
al th
Ġch ettu
imp ulu
od y
p et
Ġah ara
Ġs ayam
Ġbharatad es
akud adu
Ġtir ig
Ġy sr
att ulo
Ġrachay it
Ġvad di
Ġupayog inchavachchu
Ġ ali
Ġsamarth avantanga
Ġemm ely
Ġsuc cess
ar as
Ġn or
Ġa atm
Ġpar anga
Ġne et
Ġan arog
Ġac tion
Ġams alanu
Ġp op
Ġpolit ical
Ġm udi
Ġche ck
Ġbay al
Ġpak ka
Ġn all
Ġayy indi
Ġpett aru
Ġbr undam
idh anga
Ġand inche
Ġnat udu
Ġsa aksh
Ġ201 2
Ġs akh
ov erg
Ġprayoj analanu
Ġnar endra
Ġor der
Ġh aj
uch es
Ġved h
ut ti
at aru
Ġneoz ec
Ġanukul anga
Ġav unu
Ġmach ine
Ġpath akam
Ġthapp anis
Ġmari e
ap alli
Ġg arbh
al eni
Ġv int
n og
Ġs ite
Ġvel ug
Ġgr o
Ġparis odh
Ġk l
Ġvid esi
Ġjeevit anni
Ġg add
Ġmar t
a ite
Ġb odh
Ġh am
Ġmah amm
av adi
Ġippat ivaraku
Ġksh et
Ġas th
Ġraj dh
aswam y
Ġ8 0
Ġd en
Ġsth alam
ak ata
Ġabhipr ayam
Ġthad it
Ġtakk uvaga
Ġe en
Ġparigan analoki
ad ini
Ġan k
ul ik
Ġrev iew
Ġstor y
Ġund avachchu
Ġapp ude
elo p
1 0
Ġprakat inchindi
Ġjarug utondi
ukun enduku
inch ani
arsh ana
Ġchey ab
v ey
Ġpar y
an apai
Ġan ti
Ġme ant
Ġgh atana
Ġlop ala
Ġparidh ilo
Ġdabb ulu
' t
an lo
Ġb edi
Ġ um
Ġparti lo
Ġoxy gen
ab dam
ag iri
Ġshukr avaaram
Ġj o
Ġok ari
Ġin c
Ġant ar
Ġnid ra
ukova ali
Ġh is
and una
er m
Ġp age
Ġin v
Ġaar op
Ġmah arasht
Ġengine ering
all anu
Ġgen eral
Ġte j
Ġsangeet a
Ġnun che
5 0
Ġap ello
ug h
Ġpr ag
Ġedem aina
Ġen tr
Ġphal itam
apur v
Ġkath an
Ġan ub
Ġkaryakram alu
Ġganani yamaina
Ġte g
e tha
Ġsar al
Ġtagg istundi
Ġ3 7
ik am
ig am
Ġvin od
Ġrep ort
Ġtr ans
ak aramaina
Ġga ali
Ġvis esh
Ġtra il
Ġs alah
Ġmodal ine
Ġchitr alu
Ġav ine
or ity
Ġgo od
Ġg or
avid yal
Ġa ap
Ġs u
Ġc an
Ġayy aru
Ġvati lo
Ġphalit alu
Ġvenak ki
Ġme g
avalas ina
Ġ200 9
w ari
Ġchepp ali
a it
in app
Ġga ani
Ġdes ala
Ġpatt inchuk
Ġush nog
Ġv alas
Ġadhik ari
Ġemp loy
il lo
Ġvar ma
Ġn anna
k y
Ġanus arinch
ipoy aru
Ġpun j
Ġparis ram
Ġenth o
Ġt ri
Ġd ate
Ġneozec overg
Ġpil ust
Ġday achesi
Ġund andi
Ġtvar alone
Ġe c
edi a
Ġrajin ama
Ġgund e
Ġprav ah
Ġtamil nadu
Ġkal asala
p ut
aru ga
Ġsp usht
Ġcommun ication
Ġkr it
un aku
Ġad ag
atm akanga
Ġes ari
uc ch
ul aina
Ġkarnat aka
Ġsam ayanni
Ġsh ar
Ġteliya z
Ġdev elop
Ġrod d
Ġbhoj anam
ub ali
v an
Ġunn adi
Ġpor atam
Ġcheyabad ina
Ġswee karinch
Ġal g
Ġgovern or
aku diga
Ġtadit ara
Ġ7 0
ul lu
avu thundi
av er
Ġutt ar
Ġg uj
Ġva ipu
Ġcon tr
Ġ istundi
as tic
est undi
Ġh ave
Ġy og
Ġh ari
k alu
Ġven n
ayy ayi
Ġa ash
istunn ayi
Ġk tar
Ġnut an
Ġd akh
Ġud g
z a
lo ad
ir iga
g ane
Ġchet ulu
Ġ est
Ġemp ical
al iki
Ġn ished
Ġk ukk
Ġprekshak ula
Ġnell ie
ist r
Ġle arning
Ġviv arana
Ġlif e
Ġand amaina
ip ov
Ġst y
ang h
Ġ19 7
ul la
Ġviluv aina
Ġsur esh
Ġtelis indi
Ġread y
Ġnil lu
Ġperig indi
Ġparim itam
Ġtanik hi
Ġk at
r ali
Ġper gu
Ġsoft ware
Ġnagarj una
is pand
Ġayy e
Ġkav it
Ġk ish
Ġt em
Ġman j
Ġrak amaina
Ġl and
Ġsh ak
il lu
Ġbo x
Ġarog yakaramaina
Ġthadit arulu
Ġv itt
b a
Ġpl at
Ġf ans
Ġman chu
Ġj attu
adam e
Ġand inchandi
Ġbr ind
Ġud yoga
ri es
Ġbi j
Ġek anga
Ġso und
inch anu
ana ga
Ġvy asam
Ġy evaro
Ġperug utunna
Ġupayog inchandi
Ġakk ade
am andi
Ġrah ad
Ġsam antha
Ġdes alu
Ġch r
Ġk ak
Ġg iri
Ġnem m
es adu
Ġth r
Ġand aj
Ġjour nal
Ġcho pp
Ġches arani
Ġgr eat
ag u
Ġed uru
Ġ3 3
Ġth akkuva
Ġvacch aru
Ġprarambh a
Ġc anc
Ġteliy ani
Ġterak ekk
Ġvay ida
Ġchaala a
Ġf ull
Ġsa ari
Ġpad indi
Ġsar kar
Ġumm adi
Ġt alu
Ġindh an
Ġsanuk ula
uk e
Ġ201 0
Ġbalah in
Ġantek adu
ad y
Ġit u
Ġvat iki
ti ce
Ġbus iness
Ġdirghakal ika
Ġsec ond
Ġb all
Ġd us
ag alanu
Ġpar eeksha
Ġv ind
aku di
ast e
Ġs ach
Ġak hil
Ġch arya
Ġvant ivi
Ġaadh varyam
Ġvidh ananni
Ġfol low
Ġhe alth
Ġanand am
Ġv aram
inch u
avas ara
Ġpol ch
Ġams alu
al onu
Ġfam ily
Ġnayak udu
inchabad ina
Ġcent er
os p
Ġprarambh incharu
Ġvyavah aram
ed e
Ġchesuk unnaru
ro id
Ġasup atri
Ġch am
Ġson tha
inch adanto
Ġsched ule
Ġpan ulanu
Ġnipun ulu
ara c
Ġm ass
Ġtra ffic
ok u
r uth
Ġvyu h
Ġnidh ulu
Ġv ecch
Ġpanit ir
Ġsanth osh
s u
Ġlo ve
Ġviniyogad arulu
Ġvacc ine
Ġdev udu
Ġdh or
Ġserv ice
Ġbh o
ist amani
Ġcur r
Ġvijaya wada
Ġvatav aran
arinch adam
os a
Ġansh am
Ġb ed
Ġma at
adh ik
Ġgant alu
Ġaarop incharu
Ġchet a
Ġp uj
Ġv ol
Ġpar sh
all one
o pp
Ġmah a
Ġvis akh
Ġne el
ee th
Ġaloch analu
ic i
e eda
Ġches anu
Ġvel uv
Ġs een
Ġbudh avaaram
Ġand inchadam
Ġadhik anga
Ġdoh adam
Ġchiv araku
Ġpunarut padaka
Ġaust rali
Ġm ina
Ġmanas u
g ani
Ġhar ish
Ġvis esham
Ġanubh ava
ir e
Ġrajdh ani
Ġdi st
Ġcher ch
an anto
Ġmadhya ah
Ġadh igam
k ekk
Ġm ath
Ġekk uv
ap add
Ġan vesh
akap ov
Ġnadu st
Ġanuv arth
id ay
Ġnirvah inchina
Ġ202 2
Ġlekap ovadam
Ġn ann
ar ak
Ġspusht amaina
Ġasakt ik
udd am
Ġperug utundi
Ġgram anici
Ġpravesh apett
Ġin s
at ma
Ġvy adhi
Ġdr uk
Ġpaath as
Ġvim a
Ġanum ati
Ġbrit ish
Ġak as
d y
Ġvar n
Ġry thula
ush a
Ġen im
me eru
d e
Ġsari rak
Ġj av
Ġ0 5
w w
Ġr aledu
Ġpraj aswam
Ġsankhy alo
Ġches ukov
Ġlock down
Ġp adh
ol d
Ġokk o
Ġb omm
aru s
Ġandhr abhoomi
av ulu
Ġivv adaniki
Ġpill alaku
Ġan ukunna
Ġpratik ula
Ġn is
Ġprabhutva alu
ol i
Ġpa int
Ġemploy ees
h ari
Ġm ess
Ġr akam
Ġcar l
Ġj ok
Ġsp eak
Ġsur vey
Ġtag inanta
Ġsinim allo
Ġvin n
Ġsw ag
ek ar
poy indi
Ġkath in
ish n
Ġs ug
ond aru
Ġbal anga
Ġoff er
ap addaru
Ġparish odhana
Ġvastav aniki
Ġled o
end r
Ġch antr
Ġsadh inchina
ad alu
Ġn ars
ash ala
Ġnimish alu
Ġchenn ai
Ġind uku
Ġv itilo
Ġtar get
Ġed u
Ġbang aru
Ġsul abham
Ġbharatad esam
ar ayana
Ġh ad
Ġdani pai
s e
Ġamm ayi
Ġkol p
ed o
Ġvyavasth anu
th anga
Ġpol iste
Ġint ell
Ġve eru
Ġokk aru
Ġb u
Ġenter tain
isht amaina
Ġnindi t
Ġ0 4
Ġo or
Ġpench adaniki
ir oju
Ġsar k
Ġp ay
Ġrashtr ala
Ġt ara
Ġtel iv
Ġkal edu
Ġchesuk undi
es ina
Ġtel l
Ġparisthit ullo
ik ram
Ġvat ch
istunna ayi
Ġmeruguparach adaniki
Ġt i
Ġch or
Ġg adu
Ġraj amo
Ġsari p
Ġsanksh ip
Ġpett adam
Ġel lu
Ġs ong
ish ta
Ġo s
Ġmatlad aru
Ġven uk
Ġbedi r
Ġs anni
Ġsandarbh amlo
od d
Ġches inatlu
Ġbhav ana
Ġ uni
ar alaku
ee tha
Ġnar asim
Ġm ut
aru k
ots avam
w an
ach chi
Ġ3 4
Ġsrisht inchadaniki
Ġameric an
ar anam
Ġvyap ti
Ġivv alani
Ġkar analu
Ġf un
atr iki
ad ag
Ġt udi
ipoy i
Ġpost ed
Ġmad iriga
Ġprak ash
Ġth adupari
ah ubali
am anam
ub adi
Ġm ish
Ġc bi
il aku
av al
Ġco ff
Ġdas alo
Ġprath ispand
Ġanip istundi
Ġadhun ika
Ġvacch e
Ġh or
Ġadh arit
1 8
Ġtar v
Ġsam uh
Ġj uni
Ġches ukovachu
Ġniz amaina
Ġabhipr ay
Ġmud o
Ġputt ina
Ġ0 9
Ġrecord s
Ġparishkarinch adaniki
Ġtelus aa
Ġson tham
Ġn om
op e
Ġjagan mohan
Ġsanksh ema
Ġerp atlu
Ġsam yog
Ġvas ulu
Ġch ay
Ġchust u
Ġstor ies
Ġve eri
ist undani
Ġvip arit
Ġv itam
ell y
Ġth ipp
Ġdh r
Ġbhav istunnaru
Ġan th
Ġche v
Ġwebs ite
akap ovadam
Ġg e
arust undi
Ġat uvanti
op y
Ġm or
utunn adu
n ey
Ġcho op
Ġbadhyat alu
Ġko h
Ġ0 8
ap oy
Ġg ame
Ġ19 6
Ġdel iv
Ġg ir
Ġbh aut
Ġsh ap
Ġter kekk
Ġgurt unch
Ġappat lo
Ġs utr
s ar
ox ide
g o
Ġass ist
Ġroj uvari
Ġgant alaku
Ġc raz
Ġkum art
Ġsh a
Ġcav alani
Ġw ww
Ġvyakhy an
Ġm iss
Ġc lo
Ġpo ti
Ġbah ula
Ġvish ranti
Ġpun arud
s i
Ġp anta
Ġprac re
Ġsari h
Ġ isuk
Ġk eer
Ġted in
Ġmodalu pett
j ect
Ġt aksh
Ġrang am
anj anya
Ġjap an
Ġvy at
Ġenn y
Ġpond adaniki
Ġkh ali
Ġcheb ut
Ġsanch alana
Ġd aka
app a
Ġla x
Ġex p
av anthanga
Ġper son
Ġmus ic
al anam
Ġk aka
ondi mch
Ġchoos ina
Ġr oy
Ġpray anik
Ġac count
Ġk ang
edi t
Ġvell e
Ġ0 2
Ġvibh inna
Ġch ow
Ġwh ere
Ġ0 3
inch atam
Ġkash mir
Ġpolit ics
Ġsakt iv
Ġadu gu
u tha
Ġch alu
r ol
ga i
Ġha zar
inch aga
Ġvr uddhi
Ġprathip aksh
Ġintell ig
Ġthisuk unnaru
Ġtidi pi
Ġrajadh ani
Ġb ull
Ġthis ukovalani
Ġ uk
Ġk uk
Ġjeev ana
am bh
à ¤
p addaru
Ġmadh yalo
ik ala
Ġw ik
Ġdesh v
abh avam
Ġmahamm ari
ek h
up ett
Ġkum arudu
Ġcharch alu
Ġtr iv
ipoy ayi
inch ukunna
Ġvibhaj ana
Ġk om
er t
Ġ9 0
Ġam al
Ġd amp
Ġpo ur
Ġtelust undi
Ġbahir anga
Ġraj a
Ġthe at
Ġmoth amlo
Ġcor ic
isth u
n y
Ġpr analu
Ġpaathas alas
Ġprasiddh a
Ġh oda
s ah
Ġuch ita
sh i
Ġpatr ika
Ġteas er
Ġbhar ti
Ġsa id
Ġsouk aryam
Ġsam ag
Ġabhy as
Ġvyayam am
inch ela
im e
Ġvig rah
ay allo
g ar
Ġmarg adarsh
Ġga urav
Ġgro up
Ġviv aralanu
Ġvidyarth ulaku
m in
Ġmar y
Ġup pu
Ġup adhi
Ġam az
Ġanch analu
Ġvan arula
Ġsr ey
Ġroj una
Ġbadh a
Ġvarsh am
ari ty
am annaru
Ġrup ond
Ġb ak
Ġund haa
Ġj iv
Ġench ukondi
Ġdeshv yaptanga
Ġsinim ato
Ġm ant
Ġr tc
Ġ0 7
Ġadhikaram loki
Ġpanich ese
Ġjuni or
Ġkod diga
Ġvid ud
aran alu
Ġpas upu
Ġdi oxide
Ġkalig istundi
Ġvishay alanu
Ġm ik
Ġsand es
Ġsanket ik
Ġst ate
Ġgh an
av o
Ġsup port
Ġches ukunt
ar annaru
Ġne p
Ġrashtr allo
Ġs ala
Ġroj uku
Ġsub b
Ġat anni
Ġvarus agaa
ap tu
Ġner aver
Ġkam al
Ġbad uluga
Ġs aram
in ce
am s
Ġdagg ar
Ġs ak
is k
Ġat ip
Ġt ab
ag aram
ch ey
andh ra
ul ani
ul one
at one
Ġir oju
Ġc el
Ġkharch ulu
Ġro om
Ġmott am
Ġ4 8
Ġperug udala
Ġdegr ee
as ad
av anni
Ġchey agala
Ġund er
Ġatyadh ika
Ġunit ed
Ġdary aptu
Ġniras ana
Ġparish eel
Ġeen adu
Ġpench utundi
Ġpod av
Ġsinim ala
Ġw ater
Ġchot a
w n
Ġentr y
Ġvast uvulu
Ġvenkat esh
Ġnemm adiga
a f
Ġb av
Ġpranal ika
y i
Ġch akka
Ġspand ana
Ġbal akrishna
atv a
inch ada
Ġnir antaram
Ġan u
Ġd ach
it ch
ik alo
Ġnel alo
Ġcoff ee
Ġev ent
Ġm osam
Ġg l
Ġg et
Ġp aduthundi
Ġvish vas
av ariki
Ġh osp
Ġd et
ec chi
il one
av at
Ġsamsk ruth
Ġche ek
Ġopp andam
m aina
Ġan ukunn
Ġedur uch
aku m
Ġne xt
pad indi
ag aru
Ġann am
Ġcomm ent
Ġe ur
Ġb est
Ġsansth ala
Ġrajamo uli
Ġupayog istaru
Ġgn ap
Ġw ed
Ġmad yam
ay indi
Ġt able
Ġdr ug
Ġvast unnayi
Ġmaat lad
int ini
Ġvimars imcharu
Ġav ishk
Ġ3 8
Ġdish aga
Ġdruk path
Ġa ata
ang u
Ġbhar t
Ġyo ur
Ġp etti
iv es
Ġar m
Ġamarav athi
ad em
tic es
Ġp ic
Ġunn arani
r ik
Ġn inna
Ġsw achch
Ġvarg alu
ev er
Ġte esi
Ġsev alanu
Ġcov er
ish na
Ġn ig
Ġsam athul
ach er
Ġkar th
Ġrab oye
Ġ7 5
inch alsina
Ġat ag
Ġs ok
Ġk aj
m ani
Ġs as
Ġg udi
ak anksh
Ġpradh anam
Ġbayal ud
Ġb andi
Ġsh arma
inch akunda
Ġpr i
Ġpr ess
uk o
Ġcom b
Ġbala iah
Ġch ed
Ġprat isht
Ġpl astic
Ġabhyarth i
Ġm aga
istunn adu
Ġsupr en
Ġv otu
Ġa j
Ġma ulik
Ġblo ck
unn ara
Ġup arit
Ġtagg inchadam
y anam
oh am
Ġr adh
Ġlaksh am
Ġo b
Ġda ily
Ġcommission er
ent o
ul aki
Ġev aina
an ak
Ġarog yam
and uku
er ial
Ġkilomet ers
Ġant arg
Ġ0 6
Ġnivedi ka
Ġbangal ore
Ġvyavas ayam
Ġsr iram
Ġvadd aku
Ġtrail er
Ġche m
Ġr adi
ul d
Ġpol y
Ġpanichest undhi
Ġsamskruth ika
Ġvari to
Ġ15 0
Ġ4 2
Ġchey akunda
ayam lo
Ġ ya
Ġtir ug
Ġsamud ra
Ġpilust aru
1 2
Ġr ath
Ġd w
Ġbang aram
Ġwar angal
Ġvy arth
pp ing
Ġj eet
Ġn anyata
Ġcr edit
Ġpradh any
Ġyu va
Ġm inchi
Ġh and
at anni
Ġr ani
Ġsr ust
Ġdeliv ery
Ġbag undi
on ni
Ġmaru thundi
Ġakarsh ani
Ġ3 00
v aru
Ġchakka ga
Ġvay asu
Ġv adi
Ġda ari
Ġsamyog akriya
Ġpal an
Ġpil uv
aran alo
Ġvast ayi
Ġnar ayana
Ġcho ost
ant s
Ġudyog alu
Ġbhinn anga
e ch
av uth
Ġdash abd
ika ga
istunn anu
Ġpr int
Ġatip edda
Ġrach ana
av ai
Ġsala ha
Ġit uvanti
Ġad arsh
Ġmukh am
Ġs ig
Ġnirv ach
Ġchiv araga
Ġb ann
avar t
ed ana
Ġh ost
inch inappudu
Ġfir e
Ġjabit an
aran anu
Ġdeen ipai
Ġintellig ence
Ġrasht rap
Ġlek ha
g es
ak ante
Ġmar n
Ġviniyogad aru
een i
Ġk indi
Ġchey agal
t am
ela ilu
Ġ19 4
Ġtisuk une
Ġcustom ers
Ġr at
Ġsuch analu
Ġcolle ge
Ġed ug
Ġe ff
un iki
og al
erv are
Ġemm elailu
Ġpatr anu
Ġokk as
Ġjill aloni
Ġgr anth
Ġvay u
Ġrahad ari
av adu
Ġ5 5
e pp
Ġv ag
ith am
Ġvel ugu
Ġpad ay
Ġag r
Ġcheptt ina
Ġst ates
Ġn ela
Ġvishlesh ana
Ġpal ik
Ġs ud
Ġs id
unn ayani
Ġphalit alanu
Ġs aj
Ġnalug uru
i o
el d
k ir
Ġl ast
Ġpari t
Ġpun ar
Ġtir um
Ġganani yanga
Ġpath ak
Ġmadhyaah nam
m anam
Ġ apai
Ġwind ows
n enu
u ha
Ġvir uddh
Ġka alam
Ġg as
Ġy es
Ġund adam
op al
ep t
Ġsansk riti
ast ar
Ġpur i
Ġnil ip
Ġw ervare
en di
Ġutt ara
Ġpust akalu
Ġd ush
Ġsahit ya
atlu ga
Ġcher k
Ġnim ag
Ġvanij ya
h one
Ġpal ak
Ġanus andh
Ġcheyabad indi
ab i
Ġath adi
Ġbhavodve g
Ġvar tha
Ġthallidandr ulu
Ġpart iny
Ġm okka
Ġpaddath ulanu
l lo
Ġlek h
Ġbharatades amlo
ali tha
Ġkr inda
iz e
Ġa uto
iv al
Ġex ce
ak atvam
bh a
Ġvan arulanu
Ġcam era
Ġaah arana
Ġaag raham
Ġgram a
Ġcel eb
ut une
Ġpol ling
in ti
inch amani
Ġparisthit ini
Ġl alo
als indi
Ġmodala indi
Ġani l
Ġkanip inche
Ġac cess
Ġshraddh a
Ġm amm
Ġv o
as abh
Ġem ito
utunn adi
Ġkanip istondi
Ġtr ip
Ġmill ion
Ġnait ika
Ġm ond
Ġsh atr
Ġlow e
Ġrajakee yalu
Ġvay assu
Ġrep u
Ġpr ot
ah atya
el ugu
Ġsamud ram
Ġsec ur
Ġcom edy
Ġnin nu
Ġdarakh astu
Ġn eev
Ġpari raksh
on tu
Ġdev uni
Ġc es
Ġushnog rata
Ġ ayi
Ġpad m
Ġsa f
3 0
Ġchepp e
Ġvast ondi
at alanu
Ġs ukh
lu c
Ġla w
b an
iv alla
Ġarog ya
Ġan j
Ġ udi
Ġa chch
Ġardh am
Ġvid esh
Ġbag ane
sh ip
Ġc amp
Ġvaid yulu
Ġpras ang
Ġprodu ction
Ġf eed
Ġapp l
ul atho
ag es
Ġb utt
ap atu
Ġvidyarth i
Ġd and
Ġf eel
Ġavine eti
Ġr oh
Ġund ela
Ġsah akaram
Ġunna adu
Ġad l
av utunna
Ġj ad
utunn arani
k umar
Ġas vad
Ġvadd a
Ġpanit iru
av utayi
Ġmar anam
ant one
Ġviv ah
ad aina
ari ksh
Ġchest amani
Ġv it
Ġvan arulu
ud o
Ġk id
amlo ki
Ġ4 4
Ġchot la
unn attu
Ġsupr eme
Ġsaktiv antamaina
Ġf ood
Ġpand uga
est unnaru
Ġsan jay
Ġvyavah arinch
Ġanip inchindi
Ġp on
Ġlabh isthundi
Ġpooj a
Ġma il
ayak udu
Ġcanc er
yal e
Ġprekshak ulanu
Ġmas k
Ġpoy indi
y ani
Ġaarog yam
Ġ arud
l edu
Ġbar in
s in
ipoy adu
Ġv unte
Ġsadh yam
Ġsec ret
Ġm aster
Ġbh uj
Ġkir an
al ed
Ġn aksh
Ġdo sh
Ġutpatt ulu
n aku
Ġsahit yam
Ġrev anth
Ġplat form
c p
Ġs ush
it ed
Ġbad ili
Ġchopp una
Ġades imcharu
Ġadu p
Ġspeak er
lo re
Ġm m
Ġvey adam
Ġbhavishy attulo
p ar
al akshmi
ag r
Ġvarl ala
Ġp ash
Ġt int
Ġsh antr
asth anam
Ġb ell
Ġandubatulo ki
edi te
inch ukovadam
Ġnir laksh
as eb
Ġglo bal
Ġ200 8
Ġkutumb aniki
ath aru
Ġgur i
Ġsag am
Ġs em
Ġlaksh yalanu
Ġj us
Ġapp ud
Ġon g
id ini
ut ai
Ġh aty
as karinch
Ġpray atnam
Ġt emp
Ġnat imch
Ġot lu
Ġkosam e
Ġev ariki
Ġs uj
Ġprabhutva anni
Ġsabh alo
f r
avett alu
ub e
Ġsag atu
c ch
Ġse x
Ġst ud
Ġus er
Ġt en
Ġok ar
tion s
Ġt iy
ok sh
Ġsari ga
at anam
Ġnag adu
l ly
iv ari
Ġparsh ara
Ġbhaut ika
Ġs andh
Ġf it
Ġparish odh
Ġunivers ity
Ġpunarud dh
as ekhar
Ġtel i
Ġbhavishy athu
Ġvide os
Ġch edd
Ġ3 9
Ġviv adam
Ġdaggara ga
ay ite
el aku
anu bhut
Ġve elu
Ġkary ach
Ġparim anam
Ġbah usha
Ġand incadaniki
Ġan ukuntunn
Ġvis ip
Ġ5 2
uj i
v alue
Ġkath anu
Ġdad ulu
istunn arani
Ġanubhav anni
ath alu
Ġthis ukovali
Ġav at
Ġmat r
Ġve el
Ġgram eena
av alu
Ġp ac
Ġch int
ut y
app u
arth i
Ġandist ai
or pu
at in
Ġunn atha
Ġn ene
Ġaudi o
Ġvall ey
al alu
arg e
ipoy e
Ġamaz on
Ġsat yan
Ġc p
Ġpani lo
ar b
Ġc ity
Ġpr arth
Ġru chi
Ġl ong
ala ap
Ġrav adanto
Ġtelus uk
Ġj uttu
Ġv esharu
Ġb er
apad indi
ak andi
av ali
od du
Ġsifars u
ens ion
Ġtriv ikram
n ess
Ġcontr ol
Ġsanni h
Ġchestunn arani
Ġch edu
Ġd am
Ġpil up
Ġh m
Ġsur ya
Ġardh ika
ut adu
Ġh ai
Ġksh in
akavar gam
tor s
Ġnirvah inchadam
Ġvish was
Ġvel u
Ġpet ition
al ad
ap atr
Ġchey aledu
Ġalav atu
es ari
Ġund o
Ġd op
avalas i
Ġsth iti
Ġvell aru
Ġn ett
Ġyad av
Ġg ali
Ġfun ction
inatlu ga
Ġkav itha
h aram
y e
Ġikk adi
Ġn and
ut ion
Ġcharitr aka
Ġra asi
Ġh app
Ġand arini
Ġsho pping
Ġp edu
Ġt ane
ani yam
Ġvidudala ina
ap am
ind hi
Ġte xt
Ġm ett
Ġbe aut
Ġmar chu
Ġprakat inchina
Ġpap am
ri h
Ġupadhy ay
Ġyo ung
Ġvaiv idh
Ġokkas ariga
akal p
d aru
Ġsiddh anta
Ġmandi paddaru
Ġl in
Ġth appudu
Ġl avad
Ġsus p
Ġkal akram
h ay
Ġc ut
Ġnirm inchina
Ġkaryak alaap
Ġwh o
ul anga
Ġne ed
Ġkh ayam
Ġkur ag
Ġp in
Ġpal p
Ġchesuk une
Ġmedi cal
Ġbreak ing
Ġch akram
Ġsh as
Ġchepp andi
Ġroj uluga
Ġadhik arika
f a
ak as
ukunt adu
Ġk ast
Ġto orpu
Ġmoth anni
at ulu
Ġpan ini
Ġv ini
Ġgurt inchandi
p atti
id evi
Ġth att
Ġrak ap
Ġsamiksh a
Ġlakshman alanu
Ġch el
Ġl ond
Ġth ank
Ġpettubad ulu
Ġv illa
ut unte
Ġsh arm
Ġatt avi
Ġnel lore
Ġkram anga
Ġb an
us th
ad aga
Ġkod di
Ġbhakt ulu
Ġraj y
p atu
Ġdes aniki
as p
Ġan ant
Ġmo od
Ġtar un
Ġnel alu
u al
an tham
i j
il ity
Ġtam m
Ġ19 5
tu al
Ġnil abad
Ġtara f
d o
Ġv esh
sh atam
ip edia
anam e
or ith
oc i
Ġdo ub
Ġavakas alanu
Ġà ®
ek am
Ġb ind
Ġcon s
Ġg luc
Ġl aku
all onu
Ġad avi
uth u
Ġ4 9
Ġvy av
Ġok appudu
Ġvr utti
Ġcab inet
Ġcomm er
Ġvr uddh
Ġak ka
Ġrem ake
Ġv untundi
Ġj amm
ind annaru
Ġnirnay inch
Ġdoctor s
Ġbhar ati
g at
v en
Ġn ara
Ġjan abh
Ġooh imch
Ġviniyogadar ulaku
Ġug r
Ġnirm atalu
if t
Ġfr ee
Ġvas in
Ġtheer pu
Ġt up
Ġchepp alante
Ġvarg am
Ġdis c
unna ayi
Ġray andi
Ġs ap
anal apai
Ġle g
Ġmar ina
Ġkal ay
Ġprat iroju
Ġ4 3
Ġvr as
Ġdakh alu
Ġmish ram
Ġst ore
Ġand aga
Ġl are
Ġsam raj
is a
Ġkut uru
Ġalg orith
Ġantarg ata
l ight
Ġpr avart
1 5
Ġsmart ph
Ġsark aru
Ġco urs
Ġf und
Ġgurt inchadaniki
Ġpreksh akulu
Ġb or
int iki
Ġsamarth avantamaina
Ġpemp ond
is arlu
Ġport al
anic y
een am
Ġud a
Ġjill allo
Ġthisukov daniki
Ġpoint s
Ġbadh apad
Ġprav es
Ġsah akarinch
end ing
Ġin thaku
Ġco un
s s
Ġc as
ukol edu
Ġmanthr ulu
Ġga ji
Ġunch andi
Ġwik ipedia
Ġi yana
Ġtir upati
v iniyog
Ġkalu p
Ġchesuk ondi
ad ev
Ġ4 7
Ġdarsh anam
atv anni
Ġnizam abad
ar ham
ash a
ant unnaru
Ġar un
Ġd ra
ud r
Ġmanag ement
ens e
Ġabhivrud diki
Ġyo ga
Ġudd es
Ġb ow
s th
ar tha
Ġd ag
Ġm elu
Ġk n
Ġass oci
kot ta
it ram
Ġvist ita
Ġl ist
Ġand inchina
Ġraj yas
Ġsari kotta
asth ayi
Ġkh ar
el e
ane di
Ġkonug ol
ar anna
Ġk arim
olo g
Ġhttp s
te ch
Ġt ev
av ir
Ġm ission
ur avam
Ġmud r
Ġc m
Ġrup am
Ġi f
Ġlo c
Ġmoth aniki
Ġal ank
Ġjagrath alu
unn appudu
Ġdesam loni
Ġanub andh
Ġprarambh inch
ad anam
Ġap ram
Ġparug ulu
Ġt andr
abad utundi
Ġvikr ay
st o
Ġmund uk
Ġudyam am
Ġdriv er
Ġf ace
Ġisuk a
Ġches ayi
Ġkh al
Ġr ight
aku p
an and
ar la
Ġsantr ipti
Ġ5 3
Ġmond ay
ul am
Ġpres ident
Ġd om
et y
Ġpett indi
Ġpiluv abade
Ġb eti
Ġvyap aralu
ap aramaina
ib le
Ġgen er
Ġa z
Ġand anga
Ġand roid
ang e
Ġkop am
Ġl onu
Ġprant ala
Ġdown load
Ġe ka
Ġdh an
Ġrashtr aniki
Ġmahil ala
Ġbh aj
Ġ4 6
Ġrup ondimch
a e
Ġprati b
Ġedurk ov
ath anu
Ġb on
Ġunt adu
Ġas antr
Ġco lo
Ġdill ilo
uth anga
Ġcey adanto
Ġl im
Ġm up
m ah
Ġac c
Ġpil ich
Ġett una
Ġn ach
Ġkoh li
Ġpramukh yatanu
Ġpatt ana
ata ga
Ġnivedi k
Ġas chary
Ġph ones
Ġne g
als in
Ġs ram
Ġk ag
Ġdagg araku
Ġappat ike
Ġk akapote
Ġan uch
Ġnit yam
Ġb oy
Ġo m
Ġdor ak
Ġbaru v
Ġm ost
Ġmat am
Ġmaru st
Ġgr aph
Ġlok s
Ġrajakeey allo
Ġp ov
Ġ5 7
Ġches ukovali
Ġatm ah
in nam
aksh am
Ġbhay apad
Ġseet lu
Ġlot aina
Ġpa ur
Ġgad ap
Ġsaman v
in j
uv ulanu
Ġsambandh alu
Ġvand ala
o ff
Ġund atanto
Ġid anta
istunn atlu
Ġdhr uv
1 1
at yam
Ġh ard
pr ess
Ġgh or
g anam
Ġv ai
inchuk unnaru
Ġb iy
Ġa ush
Ġvr udd
Ġpanitir unu
Ġch ih
Ġcheppuk ochch
Ġch ent
yu di
Ġpraty aksha
Ġvaid y
Ġfr iday
Ġmah ill
Ġvad ana
Ġhy dr
Ġstr ee
al avari
Ġsamip amlo
Ġnimish ala
Ġchey alan
Ġsag u
ah ar
Ġres p
Ġalgorith m
Ġchann el
Ġp ach
ag ram
Ġadh arapad
Ġchend indi
Ġmic r
Ġp aru
Ġj ar
Ġanumath imch
Ġn andi
Ġen ni
Ġades alu
n ool
Ġpr ote
Ġvedika ga
um a
Ġ5 8
arinch indi
Ġchiv ar
Ġcont ra
Ġgn anam
Ġep is
Ġk atch
all aku
Ġtirum ala
Ġak h
Ġker ala
Ġr akunda
Ġvatavaran anni
ir n
Ġs ut
Ġv ine
Ġche kur
us e
Ġdev al
Ġvent a
Ġsthay iki
unn adani
Ġteli yak
um dani
Ġpedd alu
Ġhakk u
Ġcher ina
Ġams ampai
Ġth omm
Ġth ey
Ġkaryakarth alu
est e
Ġgaman arham
ug g
Ġvyakt it
akrish n
Ġpradh amika
Ġcap tain
Ġcommun ic
ith anga
qu e
Ġba ahubali
Ġs oni
ekap ot
Ġmeg astar
Ġg unda
Ġtat kal
Ġsard ubatu
Ġsw adh
Ġbom b
ap ote
Ġchus ina
Ġchud ataniki
Ġr isk
Ġim age
Ġkal av
onn adu
Ġfin al
Ġt ann
Ġdoc um
Ġkh amm
s c
Ġvach adu
Ġr ast
Ġch uddam
n esday
Ġpadd athulu
Ġaatm ahatya
Ġenim idi
Ġr ank
Ġansh alapai
unn i
Ġprodu ct
Ġch iru
Ġf e
Ġf lo
Ġto ur
g i
Ġves indi
Ġchakk era
Ġsamb andha
Ġdev i
akanksh alu
s w
oc ol
Ġwed nesday
as r
Ġan ush
Ġchesuk oni
Ġmanag er
Ġsr en
ett er
Ġkharch ulanu
Ġsupren cort
id y
udi lly
Ġsank alp
Ġsank l
Ġmokk ala
Ġkatch itanga
ap atnam
Ġfi x
Ġsam ananga
Ġvyathir eka
al k
Ġsam o
Ġgurt incharu
Ġtra in
ash i
Ġraj yam
Ġal so
Ġprom otion
Ġmaharasht ra
Ġchest anu
Ġnir ud
Ġvastuv ulanu
ur y
Ġvish akha
Ġpand lu
Ġn asanam
Ġsnehit ulu
Ġdhair yam
Ġmun ig
Ġg and
ang ana
Ġvyakhyan incharu
w s
Ġg udd
Ġtu esday
ta ur
m ana
y s
Ġpradh anyam
Ġanum anam
Ġevery cy
Ġyaj amani
Ġvitam in
Ġadh yat
Ġd ubb
Ġkumart e
Ġne oj
Ġc er
Ġav utondi
Ġvir tual
Ġsahayapad atayi
p er
Ġdir ect
Ġl i
ell alo
Ġkad il
Ġudyog ula
Ġpratib imb
ish karinch
achch ani
Ġprapanch anni
Ġvijay anni
p ulu
at adu
Ġem atram
Ġpett ukuni
Ġer r
Ġnid r
Ġrupondimch andi
Ġparisthit ulanu
Ġo il
Ġr ad
Ġuts ah
um u
ey andi
Ġpradarsh ana
Ġg arv
Ġ q
Ġartic le
ur na
Ġthe eru
Ġsecur ity
c l
ag ani
Ġy atra
Ġne udilly
Ġev ol
ukunn ayi
p anch
ed am
Ġ5 4
Ġsinim aki
Ġcurr ent
ul ak
Ġprad es
Ġr ana
Ġb el
Ġkav i
al annaru
p ap
Ġkonn isarlu
Ġcorpor ate
Ġdin ivalla
es ariki
arac ter
Ġipp ud
Ġ4 1
Ġd ari
inch an
Ġ5 6
Ġudi k
Ġg anta
Ġl ing
Ġnilich indi
Ġan thaku
Ġa alas
Ġvach ina
Ġb en
ap ana
ag rah
Ġvacch inappudu
Ġven di
Ġvij j
Ġcent ral
Ġ5 9
Ġadhikar ula
Ġparij ganam
Ġst udi
Ġupayog am
Ġak rama
av el
unn y
pp udu
Ġkanip inchindi
Ġidd ari
Ġrashtram loni
Ġhim s
Ġnis ch
Ġd att
Ġperug ud
Ġp aniki
atik appudu
Ġtis ina
Ġpust ak
Ġutpatt ulanu
Ġreg istr
et s
Ġnov el
Ġb ike
Ġkendram lo
Ġgad ip
enu e
utunn atlu
Ġdrush tilo
Ġr anga
Ġgop al
Ġmm elly
Ġas adh
Ġoper ation
Ġcount er
Ġp la
Ġvellad inchindi
av allu
inch ukuni
Ġkar an
Ġpanich es
m ee
ag adam
Ġpad ina
2 1
ar ath
Ġv unt
Ġsah ayak
Ġsth itilo
ary n
ut aku
Ġpur atana
Ġsanch alanam
Ġsahayapad ataniki
Ġupd ates
Ġkane esa
Ġsneh ith
Ġpettubad id
Ġichch adu
Ġsankship ta
l ines
arinch e
Ġs uv
raj u
Ġgurl inchi
Ġb lu
Ġvall aku
ograp hy
Ġl aga
Ġvish n
Ġsel f
Ġsw atch
avachch ani
Ġshiksh a
am sam
Ġs i
Ġchestunn adu
uk alu
Ġs ath
sh m
ini lo
Ġsul abh
Ġv ale
Ġennik alaku
Ġjabit alo
Ġth urs
Ġant ariksh
Ġsp o
Ġindust ry
m andi
Ġnat istunna
Ġull angh
Ġvar th
ama in
Ġrav ind
Ġman ass
Ġvey adaniki
Ġpramukh yata
ama inavi
Ġal age
Ġsamas yal
Ġjus tice
ap ill
Ġac adem
Ġvidyarth ula
Ġn okk
Ġbayalud er
Ġres taur
avett a
Ġas ah
inch ad
Ġvand a
Ġgan ank
Ġvast undani
Ġco ol
Ġpurog ati
ot o
Ġassist ant
Ġpatt ukuni
Ġkarim nagar
w a
ist a
Ġvyakt ula
unna i
Ġsandeh am
ay anto
Ġbh u
ok e
up ad
n ap
Ġvist atanga
Ġsansk rit
Ġve eti
Ġr add
Ġcorpor ation
Ġthurs day
p al
Ġpal pad
Ġand incharu
Ġvar un
Ġvyakt iki
Ġvyakt ini
Ġpen s
Ġm alu
Ġcher indi
Ġviv ek
Ġtaru v
Ġvik ram
Ġprogram m
Ġch aracter
ip ovadam
Ġlo pu
Ġaustrali a
m chi
Ġp indi
Ġtel up
Ġpras aram
Ġlavad ev
Ġgluc ose
Ġv ic
Ġhero ine
Ġkarmik ulu
Ġbij iga
Ġaty avasara
Ġrangamlo ki
Ġshir sh
Ġmud ava
l in
ik alanu
ag ott
Ġdr avy
k o
Ġkhachch itamaina
Ġswat antr
Ġar padindi
arg am
andam uri
Ġmot or
Ġl ive
Ġvibh ag
Ġt or
Ġla unch
Ġhot el
Ġud ay
Ġrashtrap ati
Ġso ura
Ġepp atiki
Ġd y
Ġma in
Ġnim m
Ġvishay aniki
Ġr ole
Ġdarit isindi
Ġchest unnayi
Ġs adar
achch a
Ġkod uk
Ġtod ay
Ġmamm alni
Ġb alo
Ġj att
Ġtelis i
Ġvers ion
Ġtaraf un
Ġsast riya
Ġvell adam
ish a
Ġraj ki
Ġanubh avam
Ġviniyog am
ap at
Ġvyavas thalu
Ġchadu vu
Ġsantosh anga
avidyal ayam
Ġavas aralu
c i
y uk
Ġm anug
ellu ga
Ġpe op
Ġpadarth alu
Ġcy ber
Ġnayak atvam
Ġv ign
Ġayy ayi
Ġro ad
Ġash ok
ap ar
Ġsam akur
Ġnirvah inch
Ġperk on
Ġlon ey
Ġkrit ajj
Ġsh ank
ok ki
Ġcolle ges
j ana
Ġy atr
Ġant ata
alas ina
akap oyina
Ġo op
Ġit yale
Ġkal asi
Ġkr im
Ġda iv
Ġpanich eyadam
Ġvaid yam
yoth i
n alu
Ġpr anam
Ġud rik
Ġhecch aryn
Ġant o
Ġvast avam
Ġkathan ay
Ġksh anam
Ġthir ch
Ġeff ect
Ġkil akamaina
Ġhel p
th iga
b r
Ġunn at
v ani
Ġnet rit
Ġphot ol
Ġly n
ant ar
y ash
Ġhigh light
Ġpandi t
ipo thundi
Ġsh e
Ġdash alanu
Ġd ance
ort s
Ġsamasy ala
Ġkap oor
Ġmand ulu
Ġprabhav alanu
Ġann anu
Ġpl ant
Ġmadd atu
Ġavas aralanu
Ġrak th
is ina
Ġg m
Ġchot uches
is ariga
ayy adu
Ġmin ister
Ġshast r
n anga
ig er
Ġtar achu
Ġopp and
adam lo
Ġv anta
Ġar av
Ġkurch uni
Ġviniyogadar ula
Ġpr ee
Ġpr ov
Ġjari gai
Ġpart il
Ġamarav ati
Ġvipl av
Ġchud atam
Ġvedi k
Ġuni on
b ot
Ġj ack
Ġtheat ers
as karam
Ġcharm am
v ari
Ġrup akalp
Ġpunj ab
Ġchey alsina
Ġmov ies
ant ivi
Ġsuk r
Ġ5 1
Ġkaryakalap alu
Ġadd uthanga
Ġnir ash
Ġrang e
Ġmand ali
Ġkath anam
Ġ inch
Ġt ata
Ġneev u
usht ini
Ġbahum ati
Ġe ta
Ġeduruch ust
Ġprotsah incadam
es w
ul onu
Ġb ody
Ġgo uravam
Ġtan ak
Ġpench am
poy i
Ġprath am
in ations
Ġk ing
apurv aka
Ġf oot
Ġst ep
idh ar
Ġg anu
Ġj ob
adu g
up alli
aseb uck
Ġte ga
Ġbatt ery
ad aru
Ġor g
Ġguj arat
ath er
Ġsth anik
Ġchir un
Ġm ind
Ġch ance
ik ulu
Ġkan abad
Ġcl arity
Ġnid rap
Ġkes ula
Ġkond a
Ġnij ame
Ġyuv athi
er ence
Ġme gh
Ġsari ra
Ġantek akunda
Ġity ali
at amlo
Ġl al
adu thu
Ġin th
Ġnirdh arinch
Ġkatt ubadi
Ġparisram ic
alo sin
Ġpravart ana
Ġnibandh analu
b ar
Ġpot t
Ġbhagaswam yam
g ala
ee ga
Ġsav al
Ġmeruguparach adam
ar ant
Ġj ac
Ġfeat ures
Ġb og
Ġrash ya
ang i
Ġveg am
Ġa adi
Ġsp andist
Ġsadh ana
add ani
Ġbhav anam
c ial
l ey
Ġay udh
Ġcraz e
Ġsh was
po thundi
Ġdop idi
ik aina
Ġsuk shm
ad ine
Ġay anam
ain avi
Ġd av
Ġidi la
Ġprof ession
Ġshr eni
al ann
Ġadug ulu
in o
Ġ ari
Ġp uvv
Ġso ur
Ġfir yad
Ġkal ip
Ġscr ipt
Ġcav alosin
ir m
Ġk it
Ġlond on
Ġbhag avant
amm eeda
n er
us arlu
Ġw eek
Ġb uj
Ġkalig inche
Ġisht amaina
Ġshat abdam
l ed
Ġaalas yam
Ġem otion
Ġrup eel
Ġras ayana
ad es
ee ch
Ġsubh akankshalu
Ġswadh eenam
l l
Ġpo or
Ġtin adam
Ġn ow
iv ud
idi ato
Ġkapp u
aj an
Ġsam ayaniki
idd aru
Ġshast ra
Ġpratinidh yam
alavari ga
Ġbalo pet
ar istundi
ga z
Ġchadav andi
Ġb ol
Ġme idiato
Ġchest adu
r oj
av arth
ul eni
Ġche pad
Ġp ir
Ġparim ita
Ġpet rol
Ġsur yam
Ġ yam
Ġkor e
Ġparig animch
Ġpol avaram
Ġbann er
Ġpr anti
Ġe thu
Ġst at
Ġindust ries
er gy
Ġk anch
Ġche kk
Ġgr uh
Ġkur nool
Ġpatr ik
Ġf asebuck
Ġkritajj atalu
Ġgr ound
Ġbay atiki
Ġadhikar ulaku
Ġsamp urna
Ġkal la
tific ial
Ġvalas a
Ġcheek ati
ap atam
Ġg eet
Ġl angu
Ġvar ada
Ġdr av
ast ulu
Ġrak ark
Ġash chary
Ġnar ayan
Ġroopond inchina
Ġdriv ing
Ġany ayam
at ors
Ġh arsh
Ġle chi
u tham
Ġsrisht inchadam
Ġmik u
Ġnil ad
Ġn ote
Ġpraj al
Ġbeng al
ay alaku
m ents
ar ante
unn amu
Ġra atri
Ġchary alanu
Ġmott ammeeda
alo gu
Ġmarik onni
i ent
Ġn andamuri
Ġtar k
Ġc ell
end u
Ġket ay
od di
Ġdev arak
Ġmarg alu
Ġgurt inchadam
ath ayi
abad dh
Ġhaj ar
ur ali
ur thi
Ġrash aru
Ġk und
Ġnepath yam
Ġmukk alu
Ġkalu s
Ġm adr
Ġbhar osa
Ġchey atam
ik h
it ya
ist amu
Ġdr uv
Ġkot l
Ġpatt anam
Ġkadu p
Ġl ic
Ġf ound
Ġor ig
j eev
Ġniv arinch
Ġasp atri
e gr
ukov alsina
Ġnet ala
Ġjagr atha
in atl
ab oth
y aku
es ar
inch a
Ġmukhyam antr
Ġkrish nam
Ġye pp
sh an
Ġbi har
ar apu
Ġpl us
end ar
utunn appudu
Ġchust unna
Ġuch itanga
Ġkooda a
Ġpr amani
ant ic
Ġsah as
Ġt ul
Ġund avacchu
Ġutt arv
arik anga
l er
uv uga
Ġkal ak
Ġpett e
Ġcomput ers
Ġpadarth alanu
Ġmottam od
est u
Ġarh ata
Ġnil ust
Ġparyav arana
al on
ay og
avas aram
Ġ9 9
Ġm ucch
Ġches inappudu
Ġday s
Ġj e
Ġpracre alo
ik it
Ġut pad
Ġchus e
Ġgan esh
Ġrav adaniki
poy e
ah as
Ġbhav an
Ġkalush yam
ava ipu
Ġkuk ka
ed aina
Ġavasaram aite
Ġsabhy udu
ag o
Ġtees ukunte
viniyog am
z ation
uk osam
avant am
Ġkhamm am
Ġkanip istayi
Ġadh ip
Ġla abham
Ġtem india
Ġkaj al
Ġinst all
Ġlead er
Ġc lu
ast ram
Ġper unu
Ġavakas anni
Ġas w
Ġniv arinchadaniki
Ġnij anga
Ġthr ill
at ip
ol ic
Ġsar adaga
Ġsang ath
Ġnat imcharu
Ġip l
Ġ uh
Ġvr utt
anik e
ek ki
akal amlo
abh ai
Ġprocess ing
Ġsuraksh itanga
s y
Ġled ante
Ġpad alu
at lo
or ies
ath vam
end a
Ġchey an
Ġprad esham
h er
ir aj
Ġch an
Ġok esari
Ġnam odu
Ġthappanis ariga
Ġdoub le
Ġkav adaniki
Ġpatt u
Ġanuv art
Ġn any
Ġsim h
Ġand ukunna
tic s
Ġappud appudu
Ġb add
Ġpraj allo
Ġdes i
Ġkaryakram anni
Ġgel uch
Ġgrah am
Ġneti z
Ġprer ep
Ġpratyamn aya
Ġm ata
unn amani
Ġmet res
Ġprof ess
Ġprekshak ulaku
Ġink o
v y
o ok
ath ini
Ġth in
Ġparikar alu
Ġchantr alo
Ġsatyan arayana
Ġvah analu
Ġnil abett
Ġb ot
b and
Ġont ariga
Ġm atha
Ġad min
Ġpad artham
Ġjag ann
Ġsy m
Ġcor on
Ġvarsh ika
Ġeka ika
g ic
Ġd ub
Ġbh askar
Ġjarig ite
Ġmill ions
Ġkalakram ena
uddh a
Ġsarih add
av addu
Ġr itilo
Ġwh at
Ġp le
Ġsp ace
Ġseri ous
Ġ imp
Ġp edite
Ġg adhi
Ġs v
Ġprarambh inchandi
Ġooh inchani
Ġprak as
Ġsankhy anu
Ġgol d
ch adu
al in
Ġthisuk ell
Ġs iva
r oom
ach i
Ġam ina
Ġsched ul
Ġudg aralanu
Ġmanj uru
Ġmed ha
Ġcoll ections
Ġveluv ad
Ġadhikar ulanu
f ul
Ġtaral incharu
Ġad ah
Ġvi ew
Ġbir th
Ġtel indi
Ġnir antara
Ġsadh inchadaniki
Ġch ak
Ġd inilo
Ġadhun atan
1 7
Ġr ock
Ġspand incharu
Ġtar aha
Ġno one
inch avacchu
Ġvast uvu
Ġproject s
Ġsing le
Ġan aga
Ġmarg anni
Ġsw ayam
j am
Ġmul am
Ġaf ter
Ġmina hay
es war
Ġgel up
Ġott idini
Ġen j
Ġneet ilo
ak aranga
Ġpr e
Ġakk ineni
Ġst and
est aru
Ġgo urav
Ġpod upu
Ġpr ab
Ġviv adas
ap ti
Ġp eda
Ġ ub
Ġp id
as abha
Ġnaipun yam
Ġin ni
ine lo
un ani
Ġm is
Ġme pp
Ġtam anu
app ati
Ġraj asth
Ġchust unte
Ġsam yuk
Ġsth anal
an ap
al adi
Ġm uth
Ġb udd
ek alu
Ġcon st
Ġrup ayal
Ġudyog ulaku
Ġray alas
it va
apad ina
Ġchepatt aru
Ġf re
y o
Ġv ipp
Ġmug impu
ev idhanga
Ġmund astu
Ġkanugon adaniki
um e
Ġsanksh em
Ġb is
Ġth ot
Ġdi es
Ġsr il
Ġvah anam
Ġdrisht iki
Ġa atma
Ġlabh inchindi
Ġinv est
Ġle ak
Ġswee ya
Ġj un
Ġbr e
Ġmeet ing
ee di
Ġf ight
Ġar adh
Ġmarg amlo
Ġadhyat mika
Ġdi alogu
Ġparishram alo
Ġsunn it
Ġj ust
Ġpari karam
Ġpalg ont
inch alsi
Ġty pe
Ġneozecoverg amlo
Ġthank s
Ġb ail
ers on
Ġgovern ment
ap arach
el anu
ull one
al d
Ġsandarbh allo
Ġdust ulu
Ġakk adiki
Ġp ich
Ġsn anam
Ġprati bh
Ġabhyarth ulu
Ġsam ardh
Ġches etappudu
Ġvi z
Ġk e
y y
uv an
Ġkeel akam
Ġg all
Ġchest am
Ġdr ive
Ġnat an
Ġkaryakram aniki
Ġmal ay
Ġn ipp
Ġdal it
k ara
in apudu
Ġc opy
Ġtees ukunt
al unnayi
Ġm ent
Ġudah arana
tif ication
c u
c er
unt a
Ġanand anga
Ġrev enue
it er
Ġnel aku
Ġtw o
Ġm ann
Ġbhag amlo
Ġkath alo
Ġprav een
Ġm ake
Ġn ight
Ġdebb a
ig ina
Ġrav ite
Ġdars akatvam
t s
Ġchestunn atlu
Ġs omm
Ġreg ular
Ġpram adanni
Ġmarp idi
Ġupd ate
Ġ akup
Ġ4 00
Ġpond adam
ad ri
iv ity
Ġne er
araj a
Ġnuv v
Ġvyavasth ap
Ġw ord
Ġaarog yanni
Ġnal g
a ar
Ġvar e
Ġist aru
Ġk arig
yam u
Ġgr and
Ġtelus ukovadaniki
an ati
Ġg ariki
Ġdh oni
Ġadug ula
ari c
Ġist e
eri a
Ġchani p
ur oj
pad e
Ġyepp atikappudu
Ġamod am
Ġcle an
Ġbh ad
ig aru
Ġve ela
Ġnird arana
b ab
Ġ6 5
Ġmaj ority
uga a
Ġrestaur ant
Ġme ere
al ekapoy
Ġvad ul
Ġnav ig
Ġkeel aka
Ġs end
Ġupayog istam
Ġutpatt ini
Ġsal es
Ġik apai
Ġjarig indani
Ġweb b
ist une
Ġjill ala
ch aryam
Ġnel allo
Ġkathin amaina
Ġpodi g
Ġnopp y
h al
Ġst ations
Ġcheb utaru
ist und
Ġgram allo
Ġex c
Ġviruddh anga
Ġvisakh apatnam
Ġneoz akavargam
akk u
Ġraj yanga
Ġikk ade
Ġvarsh alu
Ġnirdh arimch
Ġvo ice
Ġpratin idhi
Ġshantr avettalu
Ġth andri
Ġgm t
ann adu
Ġprarambh inchina
Ġth odu
Ġfr ont
Ġch lor
ondi st
Ġrend ella
Ġkann ada
Ġfac tor
Ġugr avad
Ġlim ited
Ġokk okk
Ġpranti ya
Ġa ff
Ġsh yam
Ġch ick
it es
ri b
Ġvish nu
z er
Ġkar anala
Ġprat ip
Ġkan undi
ist arani
Ġsr is
Ġsams th
Ġpalg onna
Ġkot a
Ġgh ananga
Ġmanas ulo
Ġchit t
Ġsabh ula
Ġupayog inchadaniki
l apai
Ġanant apur
Ġbalopet am
ub ad
Ġmadh y
Ġbeaut y
Ġk os
em ents
Ġy s
Ġtakk uv
Ġnird esh
Ġbhav ananu
ff er
Ġhosp ital
Ġkhar aru
Ġprasiddh i
Ġs ow
inch ab
ip s
Ġtag il
Ġepp udaina
ad an
Ġd aniki
Ġdr ushtini
ap ot
Ġit r
Ġprarambh inchindi
Ġcheyab aduthundi
Ġav in
Ġup ash
Ġpill alanu
Ġpooj alu
Ġintern ational
Ġsr usht
aniv v
Ġw ats
le x
Ġdo ok
Ġsanvats arala
Ġticket s
ev ariki
Ġte acher
Ġko bb
Ġvel ite
Ġunna anu
Ġkum bh
Ġb c
Ġko ti
inchuk une
Ġl ato
adu gu
Ġmar indi
Ġinst agram
1 6
Ġr atr
Ġmand ini
Ġheccharyn charu
Ġr um
Ġbh aram
Ġso uth
Ġkal alu
Ġappl ication
Ġhapp y
p athi
Ġd war
ov er
Ġhero ines
ash ekhar
Ġay an
Ġunt undo
Ġsambandh alanu
to or
Ġas thi
Ġokk asari
Ġnelak ondi
ani sh
t m
Ġc ir
Ġsh ish
Ġpas ch
Ġlax mi
uk one
Ġsar asan
Ġsamud r
Ġl ay
Ġer gat
Ġjeevith am
Ġkanugon adam
r or
ant opatu
pap er
Ġn oru
art ment
Ġrakt am
Ġhead lines
v asam
ai lo
Ġmund ugane
Ġbhoom ini
ukup oy
Ġsudh ir
Ġupayoga p
Ġt ipp
on o
Ġvishayam ai
Ġdevarak onda
in avaru
Ġb aj
ag ir
ec k
Ġp y
Ġs ome
Ġbhav ish
Ġdarshak athvam
Ġprap yata
Ġro und
Ġgol us
Ġn okki
Ġroh it
g al
ul anni
anu sh
Ġop tim
Ġma adhyam
Ġrang ulu
Ġchad ivi
aksh i
Ġviluv alu
Ġassoci ation
ak atanu
ust er
Ġipp ude
Ġvad ili
Ġparyat ana
1 4
f an
ag ari
uv unu
Ġsinim alaku
Ġchitr alanu
Ġbhagaswam y
ed adi
Ġabh in
in ta
m ath
th er
eri es
Ġmark adaniki
c ling
Ġk em
Ġant aga
Ġdh arala
atla ite
Ġerpad ina
Ġkl up
Ġg ontu
Ġswat antra
Ġanuk ula
Ġn as
Ġdep os
Ġong inelo
Ġa as
Ġh ollywood
em iti
Ġpamp in
Ġsund ay
uk ok
Ġr anj
Ġsun il
Ġart s
Ġsr eem
Ġt ollywood
Ġd esham
Ġpaddati lo
Ġoffic er
Ġnirdharimch ukondi
Ġna alu
Ġsulabh ataram
Ġsangath ana
Ġsam a
Ġas charyam
ad esh
Ġs rama
Ġgur ain
Ġkh are
Ġabhivrud di
am ulu
ak ulaku
Ġkada a
Ġinst it
adag ina
Ġb alu
ot la
p ada
Ġunn anduna
Ġmun upati
Ġadig adu
ev allu
Ġlo th
Ġvijj apti
Ġch alana
oc chi
Ġnam una
Ġputt inar
Ġgadi lo
Ġchait anya
Ġth eda
Ġteesuk ell
Ġjarug utunnayi
Ġamm ak
Ġnum chi
Ġcre ate
om ani
Ġund avu
Ġsamaj ik
Ġmarp ulanu
Ġye ar
Ġand am
Ġpanchay at
Ġal aya
Ġsam anya
Ġde al
u thundi
Ġj ud
Ġkot laku
Ġsrujan atmaka
m ed
Ġchat ur
Ġb et
Ġchepp anu
Ġmarg alanu
Ġvis ir
Ġprarambh amaindi
Ġru j
ak ash
ak aya
Ġsinim ani
un ika
Ġchey i
Ġnirvah inche
Ġsol ar
Ġmadr as
th ulu
Ġsam any
abh av
ivr itt
Ġprayatn inchandi
Ġbath uk
Ġg inn
Ġmat ti
Ġtidi p
Ġresp ons
Ġh at
Ġrach analu
Ġcre ed
Ġlop aliki
Ġaav ida
abh ivr
ost e
Ġadhik arikanga
Ġte chch
Ġtol isari
Ġkant ent
Ġvah an
enn o
Ġsanksh obh
Ġsp orts
Ġvif al
Ġprofession al
Ġf ail
Ġsank ranti
Ġvell indi
Ġvibh ed
Ġrashtr alu
Ġaf ric
atam e
atam ga
g ina
Ġman alni
op ic
poy ina
Ġdesh allo
Ġwh ite
Ġperson al
Ġbig g
Ġdish a
Ġlangu age
Ġk anu
Ġsth it
Ġash ray
Ġk amm
av athi
Ġmat ala
an ath
Ġkasht alu
Ġdies el
Ġw atch
Ġyuv atha
al eka
ek t
Ġmand u
Ġsiddh ant
Ġchitr ala
eel u
Ġkor ukuntunn
Ġb it
Ġf ar
arm aina
agalu g
Ġkaryach aran
Ġ iru
Ġnirm incharu
Ġsub ject
Ġkaryakalaap alanu
v in
Ġbjp k
Ġnimag nam
esh wari
Ġam ar
Ġsanvats araniki
Ġhrud ay
Ġp ib
Ġm ap
Ġpr o
Ġta x
Ġa ga
Ġal ane
Ġvr itt
ad ars
Ġj ai
Ġal ant
Ġchud avachchu
Ġnar esh
Ġing lish
Ġman aki
Ġrec y
Ġ19 3
Ġvari pai
Ġh ect
Ġ arug
Ġchey agalig
Ġchit toor
id er
unt adu
Ġg inj
agal adu
Ġpo ina
Ġpush kal
Ġjok yam
s k
id ani
Ġgur ich
Ġpram adas
Ġrup ayalu
Ġpranth alaku
ad ane
esh a
Ġam arch
Ġsa ar
ukunn anu
akap ovadanto
Ġandol analu
Ġvast uvula
Ġeg um
Ġsannih it
Ġah lad
Ġpilup uni
an ulu
ent a
Ġayy adu
Ġbayat apad
Ġpeop le
c om
Ġpadd aru
Ġsamp ada
Ġsamag ra
Ġneoj akavar
Ġma id
Ġkot tha
Ġsanketik at
Ġadh aralu
Ġred di
Ġprag athi
Ġpaday atra
Ġj abb
Ġno tices
Ġdhor ani
Ġvachch indani
Ġes py
Ġams anni
Ġbab a
Ġrakark ala
Ġl av
Ġant akante
Ġsat ur
Ġret urn
Ġasaktik aramaina
adh am
ev o
Ġw ash
Ġprarambh amlo
Ġnid arsh
Ġ alu
adh ikar
Ġyo ut
Ġd anik
Ġkor ata
Ġas am
Ġsahayapad e
Ġasup atr
Ġv em
akk ala
Ġnirm ananiki
Ġsari k
Ġsthir anga
Ġbhavodve ga
Ġkurag ayalu
Ġn ato
ag ali
Ġnews paper
Ġpond indi
Ġir avai
Ġkad apa
Ġthis ukunt
Ġa jay
and aram
Ġcommer cial
Ġt ok
Ġsth ananni
Ġmerugup arustundi
Ġ ara
Ġlop am
iv ar
Ġsaral amaina
Ġviluv anu
Ġpriy anka
Ġpras naku
Ġandh raj
a uk
Ġp ala
Ġm ang
ay e
Ġto uch
Ġnetiz ens
inch alan
id hy
Ġaloch analanu
Ġhakk ula
Ġess ie
v aram
Ġsth al
Ġpradhanam antri
Ġyes u
Ġy ap
Ġvif alam
Ġshubh ram
Ġil age
on om
Ġh ow
ast am
Ġsrujan atm
Ġvima anam
Ġprant alalo
r ayam
Ġsh anti
Ġyout ube
Ġd os
il s
Ġkav ith
utunn anu
Ġperag adam
Ġjournal ist
ag alam
Ġlek ka
Ġtay ar
Ġnished h
Ġlyn gic
Ġram arao
Ġrav alani
Ġchick en
Ġd u
Ġc e
Ġint aki
Ġsah ity
Ġcours e
v at
Ġn alla
Ġunn adu
Ġthappanis ari
Ġun iki
Ġvishayam pai
ad ing
Ġyajaman yam
Ġvyav adh
Ġr ama
ab atti
Ġsatur day
Ġs or
Ġokk ate
ani t
Ġer upu
Ġveer iki
avar ini
Ġdin ipai
Ġled ha
Ġmodala inavi
Ġshil aja
Ġprabh akar
Ġtar ap
Ġshash w
Ġd ina
ep a
m c
av adaniki
Ġmid uga
Ġsamaves alu
Ġchall ani
Ġpranal ikanu
Ġsaksh i
ar antu
Ġan tim
and ari
ok aru
Ġkut ur
Ġfil e
Ġtal ett
Ġl ib
na a
anubhut i
Ġkr man
Ġtr end
ki m
Ġeur ope
Ġpett adaniki
Ġram ana
Ġmarch adam
h e
Ġb act
Ġj or
r alo
Ġtel ik
Ġw rit
Ġsa w
Ġsag ar
Ġnird arinchadaniki
Ġanush ka
r ant
Ġbh arinch
Ġlop al
Ġunt oo
Ġavas aralaku
Ġvach an
Ġash a
Ġparidh iloni
Ġchandrabab uku
Ġroj ul
Ġde f
Ġadr ust
Ġdegr ees
Ġram akrishna
ir ek
Ġ200 7
Ġpur v
Ġthisuk urav
Ġcol po
Ġvyu ham
r r
Ġvr ay
an m
Ġav utundani
Ġnil abadi
Ġpakk ane
Ġsnehith udu
ul on
Ġc c
Ġpond avacchu
Ġloks abha
Ġt t
ant aru
ill anu
Ġkut ra
Ġdani to
Ġklup thanga
Ġk ey
Ġan ksh
Ġh od
Ġchepp adaniki
s n
Ġtees ukundi
Ġedi tor
Ġsahaj anga
Ġnachch ina
Ġper igi
Ġsav allanu
Ġkarmik ula
ind ante
Ġvish w
uni ga
Ġsp eed
Ġvip ula
Ġp v
ul ala
Ġl ike
Ġkort ulo
Ġbiy yam
ash ekar
Ġprath in
Ġvall aki
Ġyuddh a
Ġg adup
Ġind r
anas abh
Ġp ud
Ġr ating
Ġvell adu
Ġvah anala
Ġvyavasth alo
Ġmam ulu
Ġg upp
uv aina
Ġy er
Ġsec tion
Ġkrman lone
an atmaka
Ġsth alanni
Ġkshet r
m o
Ġr ish
Ġprotsah isthundi
Ġadig ithe
lo t
Ġutt ej
Ġlab di
Ġcon c
oth er
Ġpun arv
Ġmed adu
Ġcav alsin
Ġvidi ch
ot ti
Ġkn ow
Ġsant akam
Ġpal uk
Ġcheb utu
Ġchust unnaru
Ġs atta
ul anta
Ġdev alayam
Ġvidh analu
Ġmet ro
Ġpanchay ati
Ġf ast
Ġip udu
Ġcheya ga
ch ima
Ġan aly
ug uru
Ġmul t
Ġshil p
inch agala
Ġjan yu
Ġg att
Ġbh akti
ac y
Ġkur ip
agal aru
Ġsar panch
Ġram ach
Ġgh atan
apa iki
Ġkan apad
Ġdash alavariga
Ġdep uty
Ġm ito
th aru
Ġkr id
Ġuttam am
Ġfeat ure
al ini
Ġk upp
Ġparinam alu
v el
Ġh ayamlo
Ġparisth ithi
Ġakarshani yamaina
Ġgand arag
Ġviv aran
Ġadhik ara
Ġt ank
Ġch av
Ġdrush yam
Ġunt ayani
Ġprayoj anala
bad dh
Ġvayas ulo
Ġenj oy
Ġdig um
e ga
Ġse g
Ġsamav esh
Ġmodat isari
h ouse
Ġd anni
Ġot ami
Ġsom avaram
Ġbu ild
Ġvijay avanthanga
Ġnarasim h
Ġrajasth an
b u
an anda
Ġl ep
Ġdabb unu
Ġt avv
ett y
akul am
istunn adi
Ġbad ulu
Ġvinip istunnaayi
Ġmam ata
Ġgh ana
Ġveg avantamaina
Ġh on
Ġprer ana
Ġf ed
Ġen ergy
Ġas auk
Ġsand esam
Ġvari ga
Ġfr ench
y ark
al antu
Ġan uh
Ġj anta
it ic
Ġgur uvu
Ġdiv ision
Ġsrik anth
Ġs is
uk ont
Ġtapp aka
Ġmaj or
Ġmedh assu
Ġpary avaranam
Ġsit aram
ar ni
ind u
Ġbrah man
Ġtarap una
Ġnadu m
Ġcher aru
Ġprati chary
r at
Ġm it
Ġth ere
Ġven aka
Ġnil up
Ġsantr ipt
Ġprofess or
Ġupayog inchabadutundi
Ġniv asam
Ġlas chima
Ġadup uloki
end ram
Ġjod inchandi
Ġsoukary alu
al ine
Ġm ich
et ic
inchagal adu
Ġalav at
Ġaudi ence
Ġd eeksha
Ġpost er
Ġanubh avas
Ġip hone
as epu
hi ch
Ġudyog i
Ġs f
Ġg eetha
Ġko di
Ġfr ance
Ġlekap ovadanto
Ġg ra
Ġsand adi
Ġpoy i
j iv
Ġparip alana
Ġchow d
Ġkh ata
Ġfin ance
av ada
Ġas ia
Ġok adani
Ġbatt ala
ab abu
Ġ6 4
Ġvyat yas
Ġr eb
bh avam
app ude
Ġarud aina
p ri
Ġar ab
ipot undi
Ġnaipun yalanu
Ġches am
Ġravite ja
Ġekk ado
Ġn iss
Ġvar dh
Ġpett adu
Ġcheb utundi
s lo
av utondi
Ġcheb utunna
Ġkes unu
Ġmatlad ina
Ġkaryakram alanu
Ġma amsam
anal alo
Ġsangh am
lu ga
in unchi
ut ondani
Ġpari man
Ġutt ama
Ġkendr anga
Ġshail i
Ġch ukk
Ġkir anjanya
Ġrog anir
Ġf ash
Ġvel ig
Ġk ill
Ġunt und
Ġkal akalam
Ġe qu
Ġpushkal anga
er la
Ġj on
ah o
Ġrajyas abha
al ing
Ġokk ariki
Ġdocum ent
p un
Ġund annaru
Ġsharm ila
Ġn rit
Ġ unchi
Ġpari v
idd am
Ġpan ulaku
Ġpratyek ata
Ġsneh am
Ġnit in
Ġpe g
Ġmodat lo
Ġsy n
Ġfin anc
ak ri
Ġt ension
ap ada
Ġc ost
Ġsuk umar
Ġthagg inchadamlo
Ġann ad
Ġamm akalu
Ġter ich
Ġakup achcha
Ġse arch
Ġdon ga
on am
Ġmar ee
Ġarth ikanga
Ġsoc i
Ġbill ion
Ġpens ion
ik ata
Ġman oh
Ġpranth alu
Ġha ani
Ġadug upett
Ġsambandha anni
Ġpr op
il ato
Ġlev ani
Ġnirud yog
Ġm ol
Ġaadh aar
Ġk athi
Ġin ella
Ġlaksh ya
m ad
Ġem e
Ġmaga z
Ġnirlaksh yam
andh i
Ġrajakee yam
Ġpack age
Ġhir olu
Ġthomm idhi
Ġw icket
uc t
Ġpib adine
Ġdo ch
Ġsury udu
di t
Ġd ah
Ġdh anyam
Ġsen tim
Ġpat inch
Ġbhash allo
Ġbhavish yat
Ġvir at
ullo ki
Ġkanip inchadam
Ġad evidhanga
Ġpo ol
ikr ita
Ġches ukunnadu
Ġsam ikaran
ind er
Ġka avu
__ __
Ġupayogistam di
Ġbh eem
Ġsh op
Ġdor uk
Ġcomb ination
at ul
Ġtr ust
Ġcher uv
Ġmodala iah
Ġkeer thi
Ġn ity
Ġraj ashekhar
Ġvich innam
Ġwats ap
Ġv ata
ay annaru
uku ga
Ġrang allo
Ġdagg am
Ġchutt up
ukunn adi
Ġvall anu
adh ya
al ake
Ġsah aya
Ġr ap
Ġkal ash
Ġchay alsi
Ġvishvas ani
c es
Ġv unn
Ġmo ham
Ġtop ic
Ġdh yanam
Ġny aya
Ġs att
Ġt aram
Ġbrahm in
Ġva ip
Ġdh arinch
Ġtan ani
Ġgelich ina
Ġk analu
ari ch
Ġabhipr ayalu
aru di
Ġh o
Ġvin ay
Ġith arula
Ġbharat lo
ga p
Ġlabh alu
ukup ot
Ġf ib
Ġpo thu
ip ar
Ġmah ab
Ġsamip amloni
Ġm ok
Ġpaduth unnaru
Ġruch ik
it lo
Ġkal ag
Ġvish v
Ġchakr avarth
Ġva ir
Ġjeev an
Ġnaipun yalu
Ġkar t
Ġdes k
Ġmukhyam ainadi
Ġerp at
Ġbah ya
Ġvey yi
ches in
Ġkov v
Ġsens or
Ġj u
Ġgurtunch ukondi
Ġjeev anas
Ġpal analo
al yam
Ġt ake
Ġcolo ur
Ġpa wan
Ġpramadam lo
Ġkish an
Ġb id
Ġprapanch aniki
Ġuparit alam
avuth ondi
Ġran unna
2 2
Ġs ide
Ġg atam
Ġkad ul
arj un
utund aga
Ġchus anu
Ġparyat aka
Ġreserv ations
Ġr andi
Ġok ate
Ġass alu
Ġv enu
Ġpath akalu
o oth
Ġnat inat
Ġ100 0
Ġvilla in
sh a
Ġchitr ikarinch
Ġgod ava
Ġuts ava
Ġarm y
Ġoohimch ukondi
Ġivv ali
up athi
ug ulu
Ġsh ort
Ġrak alu
Ġsmartph one
Ġa har
Ġmir iy
Ġ ul
ers e
Ġter esa
Ġsrisht inchina
ur lu
ir uch
Ġel ections
Ġrog i
Ġsus th
ar ed
ik ini
ang ula
Ġek eral
Ġpush p
Ġdur m
Ġno tification
Ġwork ing
Ġmarik ondaru
kir anjanya
Ġh uz
oc chindi
Ġteer ch
Ġsrust istundi
Ġc ad
Ġkal anga
Ġsangh alu
Ġvig raham
r ishna
Ġsam ithi
ev ed
Ġne h
odh aka
Ġepp udo
Ġnad ap
Ġdis count
Ġvar ala
Ġshashw ath
w in
Ġr ich
od aniki
anam u
Ġsw ecch
Ġsw abhavam
imp unu
Ġparishkarinch adam
m as
Ġf ees
Ġtr y
Ġdar unanga
Ġh ack
Ġav utunna
Ġchadiv ina
er o
ud ha
Ġschedul ed
Ġg umm
Ġbr ows
k aramaina
Ġsansth alaku
Ġkarth ik
p s
Ġvist arinch
Ġgel ip
e arch
Ê ¹
al eru
Ġnirn ayanni
Ġkur r
Ġson ta
Ġedurkont unna
Ġvijay avantamaina
ist ondani
Ġsal man
Ġcr oss
inchabad atayi
Ġvelug uloki
Ġw arm
Ġw hich
g an
Ġs ava
ay at
on ani
Ġb ase
Ġvachch aka
Ġvyavasth alanu
Ġaav ishkarinch
Ġg ont
os o
Ġudrik t
w h
Ġb ott
Ġkav alante
Ġyuv akudu
Ġpramukh ulu
Ġnavv uthu
Ġgam es
Ġbidd a
Ġasupatri lo
Ġprak asam
Ġrahas ya
er ation
ud em
ubl ic
Ġgel upu
ikar anam
Ġcer tific
Ġsukr avaram
Ġsunnit maina
Ġb unny
Ġd ant
Ġam ayak
Ġves avi
Ġchad avadam
Ġdook udu
Ġing land
Ġstre el
Ġdrug s
Ġm ayam
Ġg ate
Ġw om
Ġsw ar
ivr ata
Ġprakat analu
Ġdur adr
Ġad aya
akk ada
as y
Ġraj asekhar
isht anga
Ġres earch
Ġkarm ika
Ġchanipoy ina
Ġregistr ation
Ġches ukuntu
Ġst eel
imch andi
iksh a
l em
av ish
Ġkor s
Ġuts aham
Ġches ukovalani
Ġman ast
Ġvish al
Ġret ri
Ġmatl ade
Ġte pp
Ġvir uch
Ġperk onna
Ġcy cle
Ġm aya
Ġmart ulaku
Ġchus indi
Ġvim arsh
Ġsc ore
Ġth im
Ġpand ug
Ġse qu
li esh
Ġprayog am
Ġkane esam
c il
iv aru
Ġme ch
evi ous
Ġsann ah
Ġvam shi
th ondi
Ġdur ga
Ġmandi r
Ġn inn
Ġenn ika
Ġkadu pu
Ġprashn alaku
Ġc up
ip ur
imch ina
Ġnind ina
alan opp
p t
Ġb anis
Ġpanichest unna
Ġviparit amaina
Ġpr ob
Ġgat edadi
Ġnak ili
Ġatmah aty
Ġpat el
Ġkh am
Ġray adam
av ay
ukunt anu
Ġpunar avar
und er
Ġpett andi
Ġviparit anga
m undu
ect ive
adani ke
Ġsamasy alaku
Ġfi eld
ag od
Ġma ari
Ġbhoom ipai
Ġbahir g
Ġvol unte
Ġpr evious
Ġadh isth
ipo indi
Ġsudhir la
ak ara
Ġnirm inch
eet a
Ġprant alanu
Ġsign al
Ġupp agr
Ġcharg e
d s
Ġsett ing
Ġd umm
Ġvis vasam
Ġraksh inchadaniki
Ġelectr onic
x y
ic in
Ġv ang
anu s
Ġragh av
Ġkal ch
Ġabh ish
Ġdig uva
Ġv ecchi
Ġis lam
Ġbe ach
Ġbhum ulu
pl ay
av acch
Ġm utt
Ġvar d
Ġchey alane
Ġtarun amlo
b adi
es in
ram e
Ġchest anani
Ġtan apai
Ġkalug utundi
ar allo
est unna
Ġang ikarinch
Ġr ee
el ato
Ġsh ri
ch esi
ric t
Ġach arya
Ġb ai
Ġb ord
Ġsand eep
Ġbudh avaram
y t
Ġcheyabad atayi
Ġp illa
Ġengine er
ar atri
Ġp it
Ġabh iruch
imch enduku
Ġemp e
Ġadig ina
Ġing liesh
Ġantar ayam
Ġthees ukondi
Ġprapancham loni
ar ah
Ġmukhyamantri ga
Ġkendr aniki
ev u
anal oni
ass unu
Ġvir g
Ġtan adaina
ayi ga
Ġkonasag utunna
Ġkot lu
Ġpatr alanu
m er
Ġmup pu
Ġm arug
Ġt atv
ist ara
Ġchlor op
Ġpond utaru
Ġanum analu
Ġnadu p
Ġchandr ashekar
Ġsap eksh
Ġmahill aku
Ġchowd ary
Ġbhag alu
are era
Ġjill aku
Ġmun ch
Ġp uni
Ġm aku
ak att
Ġl anch
ull i
Ġt ecchi
Ġpr iya
Ġsa il
2 4
Ġchend utunna
Ġchup utundi
inchuk oni
Ġgul abi
Ġvisip y
Ġb eema
ap anch
Ġmedi um
Ġnig ha
Ġceleb r
Ġkal ashala
Ġm aram
Ġasp atr
Ġneel am
Ġupash amanam
Ġprarambh inchadaniki
Ġmarch ip
Ġedur uga
apaduth unnaru
Ġprashans alu
Ġvy aty
Ġmarch e
ar nu
Ġar tificial
Ġem o
Ġnew yark
Ġret ail
g alu
Ġ20 00
Ġaarog yaniki
Ġpod avu
apt op
Ġdig gaz
Ġmadiriga ane
ath ula
Ġnamun alu
2 5
Ġchey ani
Ġdes alaku
Ġrun am
Ġsy areera
Ġkat ina
Ġvyaty asam
Ġsamvats ara
Ġmur ali
Ġgiri jana
Ġorig inal
Ġcolpo en
Ġlaksh yanni
Ġrag ane
Ġsty le
Ġmess age
1 3
Ġprash anth
Ġcheb ite
Ġvan ar
Ġnirnay incharu
Ġmay or
d ev
Ġs ulu
j ee
ak ulanu
Ġint ini
Ġnet a
s el
Ġvel adi
Ġkutumb alaku
udd in
Ġtim es
ma a
Ġsr idevi
Ġmam idi
Ġabhinand ana
Ġt att
Ġh ous
Ġcontra ct
ud di
iv er
Ġsaram s
avir us
Ġvast u
Ġ6 00
utunn ayani
Ġdig ina
Ġop tion
Ġsrik akulam
Ġsha ik
oso ft
at el
Ġbhag anni
inch evaru
Ġprash anthanga
Ġanubh ut
Ġst ambh
Ġh arik
all am
Ġash ir
Ġchestunn anu
Ġchey anunnaru
Ġut k
Ġth er
Ġpraj apr
Ġvim uk
Ġveed hi
Ġjav ab
b as
ches ina
Ġcham uru
Ġva ish
Ġner am
Ġpolic y
Ġsain yam
Ġkavit vam
k anga
Ġd eeksh
ag h
Ġpadh e
Ġunn attu
Ġvar anta
Ġsah od
Ġpan ula
Ġgant allo
Ġbab y
Ġrom antic
Ġyerp aduthundi
Ġk ula
Ġlo ad
Ġchepp u
Ġnamun alanu
Ġplatform s
Ġk itt
Ġchakk ani
Ġinstit ute
y ank
Ġp d
Ġsreem athi
Ġch h
abh ipr
Ġmar ayi
Ġcharg es
y alaku
Ġp ichi
ukunn appudu
Ġdaksh in
Ġchur ukuga
v ish
Ġsh ant
Ġves e
Ġsyareera aniki
w am
Ġk un
Ġt ask
Ġmah arshi
Ġvecch ani
Ġs ind
Ġcar on
Ġat l
Ġpo the
ik y
Ġves ukuni
Ġgandarag ol
av utunnayi
Ġpraj ekt
Ġist amani
laksh ala
or a
Ġvidh analanu
Ġvis m
Ġpod d
Ġtis uku
Ġtu fan
Ġviram am
Ġsoni a
e ela
t ing
ish th
Ġok kar
Ġcher i
ass ulo
Ġter a
ag ano
Ġpar oksh
ukov atam
Ġprem anu
Ġkem er
adh arit
alo k
poy aru
Ġadd ank
v alla
ag adda
Ġanus ar
Ġmarok ati
Ġvipl avam
Ġasaktik aranga
ag i
il onu
Ġl aptop
ey adaniki
Ġr en
Ġw r
Ġanuk oni
Ġbhaj pa
Ġh anum
Ġtagg ina
Ġthisuk occh
Ġunch adaniki
Ġkasht apadi
st ar
Ġsev ala
Ġbag und
Ġsamo oham
Ġdad ap
Ġcommunic ate
Ġo h
Ġgopp aga
Ġpant alu
Ġret ir
Ġhakk ulu
ist oo
Ġsh anthi
Ġto h
Ġsankl ishtamaina
et al
Ġretri eved
Ġav utunnayi
Ġvi ac
g aru
ak aran
ab andh
Ġil la
Ġmud ra
Ġnirnay inchindi
arim chi
j u
ar wal
ad evi
Ġvari ant
Ġrun alu
y ath
Ġgr uha
Ġentertain ment
Ġclo ud
o un
Ġlekap oyina
Ġgadu vu
ed kar
Ġbi opic
Ġj odi
ol p
Ġvid hi
Ġr adu
alam b
Ġspasht ata
Ġb ond
Ġc iv
Ġher ol
Ġpop ular
ok ati
Ġtar ang
Ġmadh yam
Ġela ga
Ġmoth anga
Ġarav ind
Ġple ase
Ġfash ion
Ġme h
Ġlaksh anam
Ġadhyaksh ulu
Ġtag s
Ġprati di
Ġclu b
Ġw est
Ġmadh yap
Ġikk ad
Ġpanich esaru
Ġtel ch
Ġnasht alu
at alaku
Ġunn adani
Ġram g
Ġchakk ati
Ġy ash
avan tham
Ġnamm ak
Ġprotsah incadaniki
Ġkhat alo
Ġkantent nu
Ġsava al
al aya
Ġay ur
Ġthapp adu
Ġkharch uto
Ġmarp ula
b c
Ġr ose
Ġchur ch
istunn am
Ġsub s
Ġart ist
Ġh ani
ukunn am
w aj
Ġsth anallo
Ġalo c
Ġprachur yam
ukunt ondi
Ġah med
Ġm inchina
Ġvast ava
Ġsir is
asthayi lo
Ġantim anga
Ġm ith
Ġt os
abh im
Ġraj esh
Ġchood alani
Ġlink s
Ġepis ode
Ġdadap uga
ul ap
and er
est o
Ġsel av
Ġsinim apai
Ġvenk ates
Ġbahir ang
Ġvine yog
Ġd avid
and ali
Ġag ent
Ġrav ali
Ġtan aki
Ġt ot
it ri
ag ad
Ġc ondi
Ġg rih
il on
Ġmark ulu
d ar
ist anani
ber t
anik anth
Ġmina ha
Ġa way
Ġbh ug
os is
Ġsw ath
Ġnep adhyam
n anni
Ġp ada
Ġa akulu
Ġkan uk
al and
Ġb ari
ed anni
Ġund evi
Ġint alo
Ġcongr es
inat le
Ġs ik
up t
Ġsh ani
Ġparisthit ula
Ġpedu th
Ġm umm
Ġa uth
Ġprat id
Ġvisw avidyalayam
Ġrajki yanga
Ġpell iki
Ġutpatt ula
Ġsig g
Ġed uc
Ġtagg adam
Ġperig e
w ala
Ġb ant
Ġsh ekhar
Ġo ly
Ġdr ess
Ġvis sar
Ġs ta
Ġpat ak
Ġcheb utondi
che pp
Ġs aruk
Ġb een
Ġvik as
ett a
Ġsr im
Ġench ukunna
Ġsep u
Ġshak thi
el t
ath anga
Ġdi ffer
um di
Ġadd am
ic tion
Ġsar asw
Ġshock ing
Ġabb ay
Ġsamvatsaralu ga
unn ar
ama ite
ush ti
Ġiv ey
Ġpariksh ala
arika ina
Ġjav abu
Ġg utt
Ġvad analu
Ġot la
ut anu
Ġh ung
Ġrel i
Ġarog yanga
Ġaty utt
Ġprem alo
Ġkul al
Ġanuvart anam
an ad
Ġv addu
Ġin j
Ġsth itini
Ġind ukosam
l en
ic es
ukunt a
akh and
Ġmottamod ati
Ġpuni chesin
ay ane
Ġint r
Ġnat istunnaru
Ġpatr ala
Ġtra c
Ġvyavasth ala
Ġsow m
Ġmus e
Ġ25 0
Ġaga in
Ġsr ikr
Ġsod ara
Ġd ati
Ġm avo
Ġt end
Ġche th
og en
Ġdig i
Ġsamaj aniki
Ġjeevit amlo
s is
Ġch ocol
aksh amlo
Ġte ka
Ġanubh uti
Ġmug icin
Ġprathip aksha
inapp ati
th y
Ġi b
aksh anga
v es
Ġe ar
Ġgud lu
Ġsalah alu
u x
Ġk oll
Ġy eh
Ġlo tu
Ġchitr allo
Ġasakt ikar
in attuga
Ġb ots
Ġcommun ity
Ġtt d
v o
Ġcher ukunna
Ġapp atiki
Ġvin na
Ġsod ari
Ġamb edkar
Ġt ish
Ġh um
Ġay ane
Ġaloch anal
Ġkshet ram
Ġunn ayi
Ġka abatti
Ġith arulaku
Ġtdp k
Ġbr o
Ġparishram ala
Ġmicr osoft
ec ut
Ġmo ola
Ġjarig i
Ġs age
en ni
Ġy antram
Ġnit ito
Ġdarakh ast
Ġhajar ayyaru
id aka
Ġ uth
Ġan ukunte
Ġniv aran
Ġor d
Ġin form
Ġpray ana
Ġadd e
Ġpatr allo
di k
Ġe ch
at alo
Ġsr av
Ġmantri ga
Ġparishram alu
Ġab d
Ġbom ma
achchi th
al amaina
Ġch alla
Ġchit kalu
Ġchesuk un
Ġtagg utundi
Ġdig aru
Ġraksh as
Ġn ill
Ġr asam
ana anni
im s
Ġrak ul
Ġupayogap aduthundi
Ġk omm
uk ain
Ġdiv y
Ġsend riya
Ġan the
our s
Ġhect ar
Ġp ok
Ġg ard
Ġco ach
Ġaav edana
Ġmi x
Ġrupakalp ana
Ġp am
Ġtaksh ana
Ġsh eet
ind ane
Ġpond andi
Ġ200 4
Ġpack ag
Ġb arilo
ukh i
int aga
Ġcheb utunnayi
Ġb ible
uk ogal
ut ta
Ġbhav alanu
Ġpond e
Ġcoron avirus
ur iki
Ġend aro
Ġag ra
Ġasakti ga
Ġnim itham
Ġv unnayi
av addani
Ġvyapar anni
Ġvest unnaru
Ġt urn
ic ations
Ġag ni
Ġchitr anto
Ġench ukovadam
Ġled annaru
asth alam
Ġr ub
Ġund adanto
Ġde ad
Ġsrin u
arap radesh
ai di
Ġmar ri
Ġbhav inchi
Ġap ar
Ġtelus ukondi
Ġoper ating
Ġb ali
ga j
ara ina
Ġman ak
Ġvish am
Ġconf erence
Ġindi alo
Ġveg avantam
Ġnaalu gu
Ġmandalam loni
ar adu
Ġlaksh yalu
Ġtr ade
ots av
alan ukunte
r ita
rap r
Ġdus uk
Ġvast und
Ġpadav iki
Ġmarok aru
Ġaah v
Ġatyadh ikanga
off ice
Ġto wn
Ġsangh ala
Ġvist arinchi
Ġadrust am
in att
Ġf arm
Ġgr up
Ġdeen ito
Ġchell impu
Ġadig aru
Ġrem ote
Ġavas aranni
Ġ8 5
Ġs andi
Ġk ra
Ġmar an
Ġviv idh
Ġsuch ana
Ġparinam alanu
Ġnor th
esw aram
Ġ imm
in ada
ath iki
Ġh all
Ġte en
Ġak ali
lon y
h ic
Ġthe ir
Ġvyakt ulanu
Ġsek arana
Ġchuttup akkala
Ġkonasag utondi
am ah
Ġag rah
Ġruchik armaina
av utunnaru
Ġpr inc
Ġad ayanni
Ġdi ab
Ġabhipray apaddaru
Ġfound ation
Ġcr ime
Ġvyaktig atamga
Ġpurog atini
Ġpary avas
m ission
Ġm onn
Ġadbhut a
Ġchey inch
Ġsag indi
agal ara
Ġkul am
Ġsambhash ana
Ġputtinar oju
r ess
Ġdi kk
Ġraj anikanth
Ġcheyadam e
Ġrashtr alaku
Ġkov vu
en ge
Ġc la
Ġches amani
ach e
Ġsr idhar
Ġvel ikit
Ġkutumb anni
Ġsarf ar
Ġsuraksh itamaina
Ġkh ani
Ġz one
Ġprajaswam ya
t v
Ġw ine
Ġmadh ur
Ġpol l
Ġap k
Ġparim ith
Ġaward s
a iki
b all
Ġm udu
Ġg ow
Ġche yamani
Ġkar unu
Ġpad ey
Ġvaik hari
c a
ap analu
Ġa ada
Ġvidh anamlo
tic y
tel ugu
Ġcle ar
Ġvidh ulu
Ġkendr alu
Ġsek arinchina
Ġavishk arana
Ġtelusuk undam
o ki
Ġad il
Ġsag utondi
Ġan ek
Ġsari r
Ġempical on
Ġgir l
Ġrespons e
adi lo
Ġcon tain
Ġkanug ont
Ġnidh ula
Ġbhash alo
Ġsamsk aran
ov a
Ġparish ubh
Ġmad yalo
Ġanand anni
Ġupayoga pad
Ġvyap t
Ġkan ab
Ġlekk alu
al amlo
Ġch app
Ġantek aka
Ġphotol on
Ġdesh anni
Ġsav e
c or
Ġgur u
Ġse at
Ġtatkal ika
Ġkor utu
ad ala
Ġj antu
Ġvaid yas
Ġfriend s
ik ato
arinch aru
Ġemp ele
Ġvey andi
Ġvaaram lo
Ġjarip ina
Ġt ene
Ġtelus ukunna
Ġcharch aniyam
Ġadhikar ulato
Ġsp r
Ġjan agan
Ġvil inam
Ġwash ing
Ġpariganimch andi
adh ip
Ġcom e
Ġd g
iti ga
Ġpraty arth
Ġterakekk ina
v v
av es
ya ga
Ġsamm el
Ġcheppukochch aru
b atu
an loni
Ġm ala
Ġch id
Ġacadem y
Ġsh iva
Ġav anni
Ġtagg inch
arup am
Ġoc t
inchin attu
en tha
Ġga p
Ġvil lu
Ġsrinivas arao
Ġan avas
Ġth em
Ġprem ium
Ġgamani st
Ġj irn
Ġchest undani
Ġunn avaru
Ġandist unnaru
Ġav utayi
Ġpranth aniki
uv ulaku
Ġan asu
Ġcharitr anu
Ġbact eria
Ġs er
Ġc pi
Ġay ipoyindi
Ġvijay alu
Ġsandarbh am
Ġrep ublic
Ġjanagan ana
g ant
Ġv antu
av all
Ġchepp avachchu
Ġunch am
ard r
Ġnalug o
l ak
ad dh
ul ake
Ġsabh yat
Ġlop ali
Ġsamp oor
ne ws
Ġreserv e
Ġsannivesh alu
Ġj h
Ġvad akam
Ġvist arana
Ġcharg ing
Ġsrik aram
Ġnished ham
an ula
Ġnirm ulan
Ġnan yamaina
un iti
Ġg erm
Ġpat anam
ukun ela
Ġchandrabab un
Ġpun arn
Ġest ate
Ġth om
ash akti
Ġenth agano
Ġtalu pu
Ġpatr aku
Ġdevelop ment
as m
Ġprath ipad
Ġshare era
ar h
Ġdi m
Ġvijay as
Ġnayak ula
ari es
Ġprabhutv ampai
Ġkalig indi
Ġchary ala
Ġjant uvulu
Ġnyayam urthy
Ġpanichey adaniki
Ġdi d
alas i
Ġpog ott
al enu
Ġk uch
Ġtel ga
Ġnad aka
Ġfit ness
el i
ach al
Ġcr ee
Ġades inchindi
Ġdat ing
anir d
Ġsut ram
Ġsentim ent
Ġsari pothundi
Ġanip inch
Ġbhav incharu
Ġpemp udu
Ġcal ories
Ġre ch
Ġkas epu
Ġch ar
unt u
Ġem b
Ġchup incharu
Ġadig indi
Ġphalit ala
Ġkudi r
Ġjeet am
Ġkar analanu
Ġmr ud
Ġbahirg atham
ud alla
ina gar
Ġash imchina
Ġelectr on
ipp ing
asth e
Ġp ind
at le
Ġg um
ill s
Ġsadh incharu
Ġpranth anni
Ġpradesh amlo
Ġvyat irek
and arini
Ġkud ur
Ġ200 6
ar angam
ukunn arani
Ġnetrit vam
Ġth o
Ġav ir
Ġabh iv
Ġtelus ukovadam
Ġkobb ari
Ġc ali
Ġc ake
Ġsar as
Ġind ex
Ġgram ala
alan ukune
Ġdist rict
Ġpilupuni charu
Ġnidarsh anam
Ġv eeksh
Ġsam aya
Ġbrah ma
ul es
Ġprat isari
Ġsthay ilanu
Ġperag adaniki
Ġright s
ind ra
ell e
Ġsams thaku
Ġha ir
Ġbhay ank
Ġneg ative
adi y
Ġbandh am
Ġnibandh analanu
Ġs odh
atr ika
ace ae
Ġnasht ap
Ġbutt on
esh wara
Ġmudd u
Ġs s
Ġme er
Ġsw as
Ġm onna
ev araku
Ġlek unte
Ġbl ag
Ġsoukary avantamaina
Ġshas n
ash akha
Ġve chi
Ġref r
6 0
Ġbus y
Ġghan ata
Ġr ut
Ġg ot
Ġsam ana
bh ag
Ġniv ed
Ġchel are
Ġt ivrata
Ġn ath
ir it
Ġcher ukundi
akal anga
Ġtw ist
Ġj y
Ġman assu
Ġprav esham
Ġrayalas eema
Ġshareera anni
Ġpr ang
Ġj ayal
Ġmanush ulu
in ate
Ġg st
Ġj og
ati ga
Ġf an
Ġf ut
Ġunit es
id s
lish ta
Ġroganir odhaka
ut ayani
Ġpad atam
Ġsudh eer
umb ers
Ġkan p
pri yamaina
2 3
Ġn ame
Ġr ow
ett ina
Ġsadh imchindi
Ġpench e
Ġbho ug
p adi
Ġw ell
alan ukuntunn
Ġsadup ayalu
Ġmanug ada
Ġch ill
Ġj c
Ġunn am
Ġnav een
Ġaash alu
ad ata
ul andariki
Ġsansth alo
Ġvenkat eshwar
Ġviniyogadar ulanu
Ġadhisth anam
Ġt arig
Ġbhav analu
imp aj
Ġkalp istundi
Ġvenk ata
Ġanubhav imch
Ġec onom
Ġreli ance
r athanu
Ġb ac
et e
Ġint egr
Ġnipun ula
Ġview s
Ġj ama
Ġshakti ga
Ġmanch am
Ġmantr itva
Ġtel ec
Ġnirvah inchi
Ġabhy asam
Ġs qu
Ġi as
Ġav aman
Ġw all
Ġma c
Ġsadh anam
Ġpond aru
Ġdani lo
Ġbharati y
Ġj osh
Ġsank lishta
Ġdir ection
ch andr
ti ga
apurv akanga
Ġann oun
rap arach
Ġrec ent
Ġpag es
Ġmaddat uga
Ġar ach
Ġok at
Ġenn adu
Ġac tor
ak alo
Ġraj eev
Ġpun ah
Ġlib r
Ġv adh
avas th
Ġtam anna
Ġdruv ikr
Ġsankshobh am
y alato
Ġv ina
Ġvel la
ag ue
ots ava
Ġvich aranaku
Ġtann ula
Ġgerm any
Ġh ist
Ġveg anto
adh anam
Ġw ave
inc ina
Ġmug is
Ġjaganmohan reddy
ur ance
Ġsam ayallo
att aru
Ġant ardr
Ġak asam
Ġpand u
Ġuttarv ulu
Ġsam r
Ġmadh av
Ġaty unn
er jee
Ġj io
Ġth ond
Ġrend usarlu
Ġbank ing
Ġvishlesh akulu
Ġdv ip
ag n
Ġkal aniki
Ġvell ipoth
Ġdash alu
Ġsam anam
Ġtel iste
Ġchepp alani
Ġvel lu
Ġro ut
Ġut c
Ġvah inchina
Ġvide on
Ġgan uka
Ġsabhy ulaku
Ġsach in
Ġvyarth alanu
Ġv uha
Ġn ayam
Ġo dish
Ġna at
Ġnirm istunnaru
Ġnibandh anal
Ġh ayiga
Ġsh ip
ev e
Ġad aran
Ġpo ota
Ġint avaraku
udd ini
Ġved ini
Ġgadi ch
Ġdiffer ent
Ġpatt ukoni
Ġmug imp
Ġudaharan alu
Ġvyuh alanu
Ġprastut aniki
Ġkutumb alu
Ġex press
Ġviruch ukup
Ġcheya alo
Ġkalap ali
Ġennik alu
Ġall ah
Ġparisodh akulu
Ġshasn asabha
id o
Ġer ra
Ġprogramm ing
an ki
Ġcher ukunnaru
Ġcont in
Ġhrud ayam
Ġanksh alu
Ġtel ev
Ġf oc
Ġte ja
Ġtelus ukov
Ġparidh i
Ġr ot
Ġthir manam
Ġpos i
Ġ aru
Ġn umbers
Ġsh ataniki
Ġnirvah istaru
Ġbag untundi
Ġconn ection
Ġmatch lo
Ġsw eet
Ġyu g
Ġchinn ari
Ġvyas alu
us thundi
Ġmam uluga
inchagal avu
es p
ud ram
ug ga
Ġudyam a
4 0
al ity
ad in
Ġsahay anto
Ġsat y
Ġnilich ina
Ġsamathul yatanu
Ġwarm ing
Ġd anam
Ġkar ulo
Ġang la
arik am
Ġt s
ig e
Ġlo cal
Ġnil uv
Ġ arik
Ġv itiki
Ġag arwal
lad esh
Ġdad iki
Ġl ee
annam ata
Ġbell am
Ġasantr ipti
ul andaru
Ġpad e
Ġtay arav
inchabad d
Ġmishram anni
Ġpariv art
Ġr al
esh adu
Ġvist rut
Ġabhiman ulaku
Ġradi o
Ġsecret ary
il alo
Ġl akk
Ġme th
Ġtisuk ochch
Ġpath akanni
v anni
Ġnaksh atr
Ġhani kar
Ġp ending
Ġch ap
iv et
Ġpett ukunna
Ġev arikaina
Ġtir askarinch
Ġkanip istunnaayi
Ġpurt isth
8 0
Ġp ump
im i
Ġantariksh a
Ġmadhyap radesh
Ġc et
Ġve th
Ġmarut unna
Ġnany atanu
Ġ9 5
Ġch eti
Ġpari haram
Ġak anksh
Ġvyaktig atic
g ur
ev ari
Ġint lone
Ġstart up
z z
Ġe ck
Ġmar intaga
imp ula
Ġdarsh akudiga
Ġsay s
Ġmrit ade
Ġnaga babu
Ġautom atic
Ġloth uga
Ġel ection
Ġnirm istunna
Ġvachch indi
Ġpaduth unna
Ġsudh akar
Ġh ol
abad da
inchuk un
Ġsath yam
m al
av yaptanga
Ġc ond
Ġsam e
Ġpat uga
Ġkaranam ani
atl edu
unna anu
Ġperug utayi
rah man
Ġpratyek inchi
Ġparam anu
k ort
Ġt one
and e
Ġgiri jan
Ġpla ce
Ġprajapr atin
Ġh em
ukunn atlu
Ġbuj ji
Ġmas ala
Ġsandes anni
Ġv asth
Ġpad ite
Ġwh en
Ġcam er
Ġna an
Ġdh arimchi
Ġapp ly
Ġs imp
Ġm uh
Ġchest une
Ġvidh vam
Ġpratinidh ulu
Ġaspatri lo
Ġpraj ad
Ġnirvah akulu
Ġtol iv
Ġret l
Ġcheyy i
Ġsannah alu
Ġb ra
ep ai
Ġnirm anamlo
Ġoff ers
Ġsaj eev
ak undane
Ġpat ram
Ġdialogu e
Ġhuz ur
ir y
Ġchary alaku
en es
im at
Ġprayog alu
Ġneojakavar ga
in ka
Ġs ell
all alo
ek unda
Ġreg ister
Ġvitt analu
an loki
Ġr abot
Ġvel upalli
Ġkanip inchadu
Ġrak tha
Ġrach a
Ġmug isindi
Ġhr s
Ġanduv alana
Ġkri th
Ġkr istu
Ġchend aru
ipot ayi
Ġvaiv idhy
Ġconc ept
v ir
Ġb old
Ġev ar
Ġsanket alu
Ġprarambham avuthundi
Ġasauk ary
ov adaniki
Ġabhyarth iga
Ġsarv is
Ġuddesh yam
Ġp ovadam
ik aram
oth u
Ġparisthit ulalo
Ġkall aku
ch al
ac tion
Ġtagg inche
Ġjo in
Ġfinanc ial
r ala
ant aga
Ġchatt alu
p alli
Ġv ery
ya an
iy ar
Ġkanip inchina
Ġkanugon andi
Ġinterview lo
ey alani
Ġvas ati
Ġgop yata
ti ck
Ġprabhav avantamaina
Ġokati ga
i er
Ġpett ukoni
Ġclass ic
v amlo
ey ali
Ġkath ala
Ġprakat analo
Ġha asan
Ġrajy angam
ak ta
Ġtel chi
Ġter ichi
Ġtom ato
Ġp ick
Ġt ut
Ġdi dd
Ġdin otsavam
Ġdat ab
Ġergat uku
v ed
Ġjarugut umdani
ella ga
Ġabhiman ula
ab les
Ġpray anist
Ġram akrishn
Ġtarag at
w ord
lo ga
ukov adanto
Ġkh and
Ġches evaru
end uke
Ġar ag
ain anta
Ġdash ala
Ġr abad
isth unnaru
ich and
Ġbox office
Ġb ash
Ġpad ma
Ġsang rah
yat m
Ġswag atham
Ġgener ate
Ġthrill er
uk undam
en ga
Ġchep alu
Ġneraver ch
ist onna
Ġsari pot
Ġjeevit aniki
Ġr s
Ġth an
Ġkut ami
Ġchad arapu
Ġyaj am
Ġum a
Ġd eh
il es
Ġnag arik
Ġsat yam
Ġrashtr anni
b ack
Ġc b
Ġj utt
Ġstor age
Ġmon ey
in undi
Ġnam asthe
imch e
Ġbull et
gap ore
Ġpar adars
Ġpat ti
Ġshastr avetta
av yam
int lo
Ġanch or
Ġnagar aniki
Ġmak ers
Ġsarih addu
Ġt eep
Ġdes alalo
bo ard
Ġo dd
onn ata
Ġgl ass
Ġjant uvula
Ġe etal
ap etti
Ġsam ikaranam
Ġbhav istaru
Ġoop iri
Ġsoci ety
Ġoly mp
Ġkaryakram ala
Ġpranal ikalu
Ġtoliv elugu
Ġg lam
Ġnir akarinch
Ġtar abadi
Ġtelug un
Ġot ing
Ġanuk ondi
Ġgala xy
Ġsif arus
Ġveed h
Ġkhare edaina
p m
Ġk atti
Ġk ej
Ġd eng
Ġviac esar
Ġr ekk
et ram
Ġped alaku
Ġgreen house
Ġsid dip
Ġcondi tion
iv ing
Ġsr iv
z e
od yam
Ġchus ukondi
Ġpravesh a
Ġcard s
Ġchain alo
Ġan ati
ag uji
Ġman oj
Ġsw alp
Ġtr e
Ġches ukunte
ee lo
Ġven na
Ġvyakt ulaku
Ġparisthiti lo
Ġgurth uku
Ġterkekk utunna
Ġtelik apati
Ġcomp let
Ġhe at
Ġrele as
Ġth es
Ġvell ada
Ġ8 00
Ġchet iki
Ġbang ladesh
Ġmoh amm
Ġm upp
aj iv
unt ai
Ġst adi
avas am
Ġvijay aniki
Ġvip u
Ġidd ariki
Ġperig ayi
uk und
Ġmari poyindi
Ġcomm on
Ġist u
Ġdriv ers
Ġfl ash
Ġksham apanalu
Ġal ex
Ġh et
Ġrak anga
Ġsam akshamlo
ev ar
Ġchepp inatlu
Ġdi p
Ġvidud al
n ala
Ġk odu
Ġsam me
Ġkh ari
Ġanum athulu
Ġvyathirek ata
Ġatyutt ama
Ġmat s
Ġlead ers
Ġant adu
Ġvish adam
Ġdh aralanu
Ġasth ulu
Ġm ondi
Ġm ade
ul ai
ab da
Ġg os
ann ing
Ġin jan
Ġon ly
Ġyo uth
Ġlakshm inar
Ġcommun ist
Ġaut on
Ġvistrut amaina
Ġch art
Ġbh ram
Ġchest amu
Ġraj ani
Ġkh achchith
Ġcharch aku
Ġtal ent
Ġvyaktigatic arinchina
Ġb ul
ana ina
Ġad igi
v alu
it u
ug aru
Ġnamm uth
ani p
inch alane
ik osam
Ġpurush ulu
Ġbh uvan
Ġanubhav alanu
Ġkaryakalap ala
Ġvai bhav
imp ulaku
Ġbots a
Ġpat an
Ġto ol
Ġvineyog anni
Ġs odhana
Ġre qu
Ġno ti
Ġex ecut
Ġeng land
Ġparikar alanu
Ġrek ett
Ġp ull
Ġvar aniki
Ġw ait
Ġpost s
Ġsav allu
Ġeng lish
Ġasup atriki
k at
Ġvast aru
tim p
Ġpariksh a
Ġrash mika
Ġb cc
Ġl ad
Ġat adini
Ġann ayya
istunn amu
Ġperug utondi
Ġnidh ulanu
Ġmett aga
Ġchest arani
Ġist unnaru
unn u
or i
Ġkort uku
Ġthatt ukol
d as
ik udu
Ġrend ent
Ġsin gapore
Ġvell anu
Ġmin or
Ġvarg ikarinch
Ġelaga ina
Ġkhani j
Ġfoc us
uk og
Ġkar un
ipp udu
Ġparish ad
Ġmerug ga
Ġgad di
Ġswat ant
Ġf iction
Ġjan vari
Ġaav iri
arl edu
Ġnar endram
Ġnadi che
Ġatag allu
al anga
Ġg ift
ah aram
Ġbr ath
Ġcher ukovadaniki
Ġneth alaku
Ġcommitt ees
h alo
id di
ka iah
Ġpond up
Ġsc enes
Ġk enn
ap ed
Ġram an
Ġswee y
ad ulu
Ġche k
Ġin sp
Ġbhar ata
Ġadr usht
lo ck
Ġbh ale
Ġev o
Ġvidh amaina
Ġher ole
Ġchestunn ama
Ġsambhav istundi
Ġmid aku
Ġparishkar alanu
Ġveduk alu
Ġm op
Ġt alam
att am
Ġkal akar
ast ri
Ġprarambh amaina
Ġvidy uttu
Ġyo ch
Ġdesam lone
Ġmunicipal ity
Ġkalay ika
Ġcoun cil
Ġhanikar mine
s m
u ce
Ġj im
Ġprakat inch
Ġsangh arsh
inchuk undi
Ġj ala
Ġsh am
Ġpad ala
Ġrecy cling
ag ol
Ġj arg
aduth unna
Ġmaru s
Ġalas yanga
Ġcp m
Ġpr ep
Ġpraj as
Ġsadh aranam
Ġlu ck
Ġpm k
Ġbhakt ula
Ġr ation
Ġvall ani
Ġbe g
Ġins urance
Ġloc ation
Ġkutumb amlo
Ġnid hi
Ġset s
Ġpaint ing
Ġdepos it
Ġvolunte ers
Ġprac tices
Ġpr ana
Ġgur inchina
Ġvijay avad
yal alo
Ġvima anas
Ġpaathasalas o
Ġkumbh ak
Ġghatan apai
j il
dh i
inchin appatiki
Ġprach ina
Ġbh eema
Ġpa ine
ipot unna
Ġr bi
Ġches inattu
Ġipp udi
Ġnat ural
Ġ6 7
Ġ19 0
Ġsc or
p adam
Ġd rama
Ġvid es
Ġrup ayala
Ġter m
inand una
Ġk ana
Ġch arma
Ġr oll
Ġsh asw
Ġvis ual
ardh an
Ġoptim ize
Ġs esh
Ġl ady
Ġot am
Ġavas arala
Ġsc ene
Ġact iv
Ġpariraksh ana
Ġjeev a
at ani
ad ik
Ġd an
sh am
em it
Ġsh uddhi
ig ur
Ġpadav ulu
Ġge or
Ġtaksh aname
olog ies
k ala
oth ondi
apr asad
Ġkaryad arsh
Ġmaranimch aru
Ġkish or
Ġme ede
ik ula
uv y
Ġav alamb
Ġvijay avantham
Ġ12 0
av alla
Ġsh it
Ġchey ali
Ġnirvah inchandi
mch aru
Ġpanichest ayi
Ġpedu thundi
Ġmuse um
Ġw o
Ġapp ulu
Ġkalis ina
Ġaid uguru
inchal edani
Ġboy apati
b el
f er
h anni
v eda
ch a
ath ala
Ġpad ardh
Ġviv arala
Ġvell andi
Ġkalu st
as ans
Ġayy aka
am am
Ġspo on
Ġs erial
Ġr atn
Ġbhag angane
e al
Ġp ata
Ġabhyarth ula
Ġsad al
Ġbrit on
Ġdigum ati
x ic
Ġem ina
Ġpur askar
anth udu
Ġlabh inche
Ġdemand s
Ġsabhy ulatho
ar ta
Ġe ast
Ġd alitha
Ġsp ain
Ġanuk okunda
Ġsav aran
Ġsahod yog
Ġp ong
Ġk anal
Ġman alo
Ġtayaru ch
Ġbhadr atanu
Ġchakravarth y
ol lu
Ġy ella
aksh ana
Ġupayog inchina
Ġmaj hi
Ġnirmana anni
Ġkri yash
Ġant akum
Ġcollector s
Ġshat abd
Ġksham inchandi
p att
th o
Ġc at
aku mar
Ġsamachar anto
Ġent ante
Ġpolch andi
Ġvag d
ch aran
Ġs itt
Ġs ivas
as nu
uk okunda
ov y
Ġchey ataniki
anth ara
Ġpatt anamlo
Ġ7 2
Ġcheyy adam
Ġm ast
Ġv ice
est ondi
Ġsadh imchi
als ind
Ġvah analanu
Ġnirnay aniki
Ġthis ukovachu
Ġbhash anu
Ġ asht
Ġk eep
Ġchest und
Ġsw arg
Ġis s
Ġudyog ala
Ġmodi ki
adar ula
Ġmanav ulu
Ġr ing
Ġbhav am
Ġbatt ing
Ġkri tham
Ġpic t
Ġdra w
Ġuppagr atalu
Ġan ur
Ġund evaru
Ġviv aha
Ġsag at
Ġsel avu
Ġhel ic
Ġyog i
ad anna
Ġc ra
aku diki
ip udi
Ġdi mp
Ġvach aru
Ġbari loki
Ġs atam
Ġmah an
Ġthisuk ondi
Ġabhipr ayalanu
Ġug rav
Ġnyay avadi
Ġs ani
ya c
Ġkor atala
Ġvay uvu
Ġnirodh aka
Ġparisodh analu
ak anna
Ġt and
Ġad ir
Ġstre am
Ġjamm u
Ġtel ep
Ġf a
ali lo
Ġar s
Ġkon am
iti ya
Ġsadh inchadam
Ġniz ayi
Ġpalg oni
Ġtrain ing
Ġrend avadi
g er
Ġk adh
inch ataniki
Ġbandh uvulu
Ġudd esham
Ġveld ulli
Ġfl at
Ġanubandh am
Ġvidich ipett
m it
Ġd uh
Ġcl ient
Ġhe g
Ġsthanik anga
ar ay
Ġk alanu
ag ra
Ġkar ona
Ġgod av
Ġtel upu
Ġbal avantanga
Ġcont est
od dani
ol lo
Ġnim dit
Ġnamm akanni
Ġkalap andi
Ġr ettu
Ġrup anni
Ġbag unt
Ġsc oot
Ġdar un
Ġveld e
Ġparv atrika
Ġdrisht ya
k r
Ġv iste
utv am
Ġkalig istayi
Ġnat imchindi
Ġanch analanu
Ġdamp atulu
Ġuddes inchi
Ġm ai
Ġpett alani
Ġekkad aina
Ġsanthosh anga
k ey
Ġd um
ish kar
Ġpand aga
Ġatt ack
Ġsah asam
Ġgo utham
Ġcr y
adhik arulu
Ġchor av
Ġvidud alaku
inch adani
Ġcr im
Ġvyavasth aku
Ġaloch imch
Ġmaatlaad atam
Ġbhay anto
Ġtaruv ati
Ġbog gu
y asam
ch arya
Ġtr avel
Ġprathi bha
Ġbo ot
Ġeurope an
Ġadil abad
Ġprajapratin idh
Ġm ama
Ġpa ik
Ġkarmik ulaku
Ġthees uk
Ġrog ue
Ġutsah amga
Ġanasu ya
ic y
Ġvall ane
Ġpil av
alap atu
Ġyuv akulu
Ġsarv as
Ġthol isariga
Ġpav itra
Ġpartil uk
m edi
ad atta
ach alam
Ġ6 6
Ġvaik apa
o i
Ġs akram
ik anth
Ġchamp ion
c omm
ek ha
arit anam
Ġvadil esi
Ġjat ulu
Ġaush adha
Ġp c
Ġk aram
ud ani
Ġher e
Ġdeep avali
Ġp adu
m en
Ġb etter
Ġsh asan
oni es
Ġpad ak
elo r
Ġnasht alanu
Ġkore a
Ġto ti
Ġnasht anni
Ġchocol ate
Ġev varu
Ġnat akam
Ġdharm am
Ġgu ide
Ġth od
Ġar d
Ġvay id
Ġgop ichand
Ġvinip istondi
Ġsthay ini
Ġbadhyat alanu
Ġdep artment
Ġgreat er
ud ra
Ġsangh arshana
Ġgar ishta
Ġtell avaru
Ġtech ina
Ġha z
Ġgod uma
Ġbhavishy att
ad ur
Ġpr yath
ash iksh
Ġparis odhana
Ġvidi p
Ġt alap
uv vu
ukunt am
akud ani
Ġfib re
Ġt adi
Ġlok am
Ġduk anam
Ġn on
is aru
Ġga aru
Ġnelak olp
Ġsamasyal apai
Ġsr ushti
Ġbayat apett
Ġgov ind
Ġmar adam
Ġad ivas
Ġpad alanu
amp alli
Ġvas an
Ġvey ali
Ġsanthosh am
adhik ari
Ġay id
Ġsw ay
Ġfix e
Ġm antram
Ġk ank
Ġunt arani
Ġte erp
Ġbhoj an
Ġrajakeey alloki
Ġkolp ovadam
ak at
it ene
ov ery
ers o
Ġsw ap
iti ons
anth o
Ġvil as
Ġvip aksh
Ġgurt inchina
Ġdar unam
Ġdush pr
al ekap
ud am
Ġparinam am
Ġjagann ath
Ġp acch
ap arust
ir oj
ang at
Ġpad akunda
Ġvad iki
Ġdirector s
Ġthallidandr ula
Ġspandist u
Ġk ari
ut untaru
Ġpen chi
al en
ag ulu
Ġit s
hy ata
Ġanuk unnaru
Ġkid nap
Ġvaividh yamaina
Ġsinim alato
Ġsams ung
Ġprob lem
n o
Ġanuv ad
Ġcall s
di r
Ġt okk
ov e
Ġvy dy
Ġkon ukk
Ġnij angane
Ġcorr ect
Ġemotion al
Ġneh ru
ara in
Ġf ish
Ġivv aledu
Ġchup istundi
ail am
Ġmil it
Ġstre ela
in antha
Ġunn avariki
Ġdon ald
Ġan ukuni
ag adu
Ġpett ali
Ġbhag alanu
Ġaloch analo
Ġdig uv
Ġperugud alaku
aru ch
ist undaga
ev varu
utv ak
Ġact ive
Ġsh ram
Ġnirm analu
Ġkum m
for man
Ġc a
Ġj varam
Ġroj uroj
n ath
Ġches edi
ug ani
Ġav utunnaru
Ġmah asam
Ġbjp lo
l as
er ga
Ġev en
Ġdy nam
Ġteep i
l eni
ch ait
Ġv s
Ġay annu
Ġsuch inchindi
Ġdrush ti
Ġc ast
et ers
im ir
Ġev ari
Ġtamil amlo
Ġparishkar anni
Ġj eb
Ġf est
Ġtelus a
poy adu
Ġchept unnaru
Ġdong il
Ġkathin anga
c in
at antra
ak ut
Ġph il
Ġtelip adu
Ġnagar allo
Ġkak inada
Ġ ubh
Ġm ust
Ġsh abd
Ġtal uk
at w
Ġsam ar
Ġparim it
po on
Ġpryath n
c on
Ġt ine
Ġr ik
Ġadbhut am
Ġansh al
Ġcap ital
Ġsuj atha
ann intini
Ġay idu
Ġprash ant
Ġnirmata ga
k alanu
ak elaku
Ġth ink
Ġtan ato
Ġanub andha
Ġparishil incharu
Ġparisram ik
Ġhelic op
j id
Ġbhar athi
Ġsa ik
Ġvin ayak
Ġkilo la
Ġasadh arana
Ġk andi
Ġk adha
ud adu
Ġin put
Ġhe chch
Ġinform ation
Ġp eel
Ġvad ini
tim e
Ġk ishtamaina
Ġg anga
Ġraj ender
Ġekk adiki
Ġanduk ani
Ġqu e
Ġpramani ka
tm l
c ine
ing e
Ġek er
Ġrang areddy
Ġvishay ala
it or
Ġkal v
Ġma ans
n an
in iki
Ġpradh an
Ġpil ichi
Ġp cc
Ġsam etha
Ġtagg inchavachchu
Ġmodal ett
n ic
Ġch en
ust u
isht am
Ġkor indi
pai ga
ich e
Ġmodati di
Ġbcc i
il ak
Ġa akh
Ġchin ese
Ġvall e
for ni
Ġpracre al
ar laku
Ġt alas
Ġo oru
Ġf rame
Ġunn ata
Ġhe art
ure a
Ġsamaves aniki
Ġparishil inchi
Ġpann ulu
Ġbhug arbh
Ġphot on
Ġparikar ala
Ġbeng alu
Ġbhoug olic
Ġnirvah inchalani
Ġabhivr uddini
Ġgadi china
w e
em u
Ġvidy anu
Ġh av
Ġbh a
Ġraj inam
Ġnirvah istunnaru
Ġvinod am
Ġm ini
Ġd ak
ram am
Ġnirm inchadaniki
Ġsec ons
Ġsek arinchi
Ġaksh ay
Ġand ala
m on
Ġn r
ip y
Ġmarg allo
Ġett aina
Ġpramad akaramaina
Ġlic ense
Ġt iger
it ramaina
Ġpad anni
Ġte ach
Ġvim ana
Ġcricket er
Ġrachayit alu
end la
abad dam
Ġnish k
Ġvacc ination
Ġvyadh ulu
Ġsiddip et
ul abh
adh ana
Ġsand arb
Ġvivadas pada
am eric
Ġt itt
Ġpa ul
Ġkind aku
Ġdravy ol
g ing
Ġs akalamlo
aph is
Ġrek h
Ġteliv aina
Ġt eda
aga ane
Ġund adani
Ġcher uvu
Ġtisuk uv
inchuk ol
Ġroopond incharu
Ġroy al
Ġhaty aku
Ġtelev ision
alu g
id ev
Ġtr ading
Ġapp u
Ġabhy antaram
Ġuddesh anto
Ġbhinn amaina
Ġpravarth ananu
Ġgr eek
Ġjan ata
Ġ7 7
Ġvin tha
iz ha
ay as
ta ct
Ġsadh analu
Ġnij ay
Ġyuv ath
Ġnivas inche
Ġinter f
Ġviram ana
at ito
Ġprem isth
Ġasp atriki
s oni
is ing
Ġg ayalu
Ġsan h
Ġas aktini
Ġgo ud
Ġspand inchina
Ġjat ula
Ġvaividh yam
Ġann attu
Ġtr ag
Ġcre am
Ġkas ar
Ġr us
Ġman age
Ġpedd ala
Ġ6 8
Ġarth ik
Ġabhipr ayanni
Ġsanuk ulanga
Ġvasth unnaru
m od
an unnatlu
Ġad o
Ġkotl atho
o ha
y udu
Ġt av
Ġpr a
ate g
Ġgr adu
Ġrang ulo
Ġerpad atayi
Ġsach ival
Ġyeh ov
k onda
o int
at ar
Ġan agane
ab ility
Ġunn ath
onn ayi
Ġsamaj anni
avad ulu
Ġatyunn ata
Ġpur vam
Ġavasaram ani
Ġaloch inchandi
Ġgod a
Ġthisukuv achch
ari che
Ġth ivr
Ġkal as
Ġw arning
Ġas ale
Ġpo w
Ġvat ito
Ġchatt anni
Ġkasht apad
Ġsel ect
Ġitr ulato
Ġbuild ing
Ġav utaru
Ġchest unte
Ġandol anku
Ġvuha alu
unn aro
Ġidi var
Ġ6 3
Ġdina chary
av atam
Ġex t
Ġmaranimch ina
Ġcraz y
Ġdag ara
Ġdav akh
Ġsamyuk tanga
Ġm d
Ġo ther
Ġth alap
Ġvidh aluga
Ġprapancham lone
Ġswachch anda
Ġinch arge
Ġb ach
Ġo ur
Ġw alk
Ġsidd eva
Ġkalp ulu
Ġakarshani yanga
Ġchalla ga
Ġin co
00 0
ans am
Ġmed ad
Ġjam es
al aloni
in ad
Ġtelug uv
Ġvast ayani
Ġdas ari
Ġà¤ ķ
Ġmas jid
Ġshirsh ika
Ġmarus ati
av utundani
Ġpat ala
Ġb atch
ti es
Ġve et
Ġvin ooth
Ġith ivritt
Ġ'' '
ikr itam
ut undo
Ġc op
Ġram udu
asag ar
Ġmaru m
Ġvers us
Ġces indani
l ess
Ġtarv ate
r ag
Ġp anth
Ġsar ve
Ġbadh yatanu
Ġro b
Ġpust akanni
Ġsm ith
Ġduradr usht
j agan
Ġsinim alanu
Ġamm ai
Ġqu arant
Ġm idi
en th
utunna ayi
Ġgani ta
Ġmot ors
Ġdub ai
ap aranga
Ġbhav inchina
Ġvan aru
Ġsulbh amaina
Ġkeer th
Ġnetritvam loni
Ġp ati
el an
oc china
enc es
Ġblu e
aj u
Ġth amm
Ġen count
