{"<pad>":0,"<unk>":1,"<s>":2,"</s>":3,"!":4,"\"":5,"#":6,"$":7,"%":8,"&":9,"'":10,"(":11,")":12,"*":13,"+":14,",":15,"-":16,".":17,"/":18,"0":19,"1":20,"2":21,"3":22,"4":23,"5":24,"6":25,"7":26,"8":27,"9":28,":":29,";":30,"<":31,"=":32,">":33,"?":34,"@":35,"A":36,"B":37,"C":38,"D":39,"E":40,"F":41,"G":42,"H":43,"I":44,"J":45,"K":46,"L":47,"M":48,"N":49,"O":50,"P":51,"Q":52,"R":53,"S":54,"T":55,"U":56,"V":57,"W":58,"X":59,"Y":60,"Z":61,"[":62,"\\":63,"]":64,"^":65,"_":66,"`":67,"a":68,"b":69,"c":70,"d":71,"e":72,"f":73,"g":74,"h":75,"i":76,"j":77,"k":78,"l":79,"m":80,"n":81,"o":82,"p":83,"q":84,"r":85,"s":86,"t":87,"u":88,"v":89,"w":90,"x":91,"y":92,"z":93,"{":94,"|":95,"}":96,"~":97,"¡":98,"¢":99,"£":100,"¤":101,"¥":102,"¦":103,"§":104,"¨":105,"©":106,"ª":107,"«":108,"¬":109,"®":110,"¯":111,"°":112,"±":113,"²":114,"³":115,"´":116,"µ":117,"¶":118,"·":119,"¸":120,"¹":121,"º":122,"»":123,"¼":124,"½":125,"¾":126,"¿":127,"À":128,"Á":129,"Â":130,"Ã":131,"Ä":132,"Å":133,"Æ":134,"Ç":135,"È":136,"É":137,"Ê":138,"Ë":139,"Ì":140,"Í":141,"Î":142,"Ï":143,"Ð":144,"Ñ":145,"Ò":146,"Ó":147,"Ô":148,"Õ":149,"Ö":150,"×":151,"Ø":152,"Ù":153,"Ú":154,"Û":155,"Ü":156,"Ý":157,"Þ":158,"ß":159,"à":160,"á":161,"â":162,"ã":163,"ä":164,"å":165,"æ":166,"ç":167,"è":168,"é":169,"ê":170,"ë":171,"ì":172,"í":173,"î":174,"ï":175,"ð":176,"ñ":177,"ò":178,"ó":179,"ô":180,"õ":181,"ö":182,"÷":183,"ø":184,"ù":185,"ú":186,"û":187,"ü":188,"ý":189,"þ":190,"ÿ":191,"Ā":192,"ā":193,"Ă":194,"ă":195,"Ą":196,"ą":197,"Ć":198,"ć":199,"Ĉ":200,"ĉ":201,"Ċ":202,"ċ":203,"Č":204,"č":205,"Ď":206,"ď":207,"Đ":208,"đ":209,"Ē":210,"ē":211,"Ĕ":212,"ĕ":213,"Ė":214,"ė":215,"Ę":216,"ę":217,"Ě":218,"ě":219,"Ĝ":220,"ĝ":221,"Ğ":222,"ğ":223,"Ġ":224,"ġ":225,"Ģ":226,"ģ":227,"Ĥ":228,"ĥ":229,"Ħ":230,"ħ":231,"Ĩ":232,"ĩ":233,"Ī":234,"ī":235,"Ĭ":236,"ĭ":237,"Į":238,"į":239,"İ":240,"ı":241,"Ĳ":242,"ĳ":243,"Ĵ":244,"ĵ":245,"Ķ":246,"ķ":247,"ĸ":248,"Ĺ":249,"ĺ":250,"Ļ":251,"ļ":252,"Ľ":253,"ľ":254,"Ŀ":255,"ŀ":256,"Ł":257,"ł":258,"Ń":259,"an":260,"ar":261,"am":262,"ch":263,"al":264,"in":265,"Ġp":266,"at":267,"ad":268,"Ġs":269,"Ġm":270,"un":271,"Ġv":272,"Ġk":273,"ak":274,"di":275,"Ġt":276,"Ġch":277,"Ġn":278,"as":279,"ay":280,"ani":281,"es":282,"av":283,"ul":284,"on":285,"th":286,"is":287,"Ġe":288,"Ġr":289,"Ġb":290,"ga":291,"er":292,"Ġpr":293,"Ġd":294,"aru":295,"ari":296,"uk":297,"inch":298,"lo":299,"en":300,"ap":301,"Ġan":302,"el":303,"it":304,"ud":305,"ik":306,"unn":307,"alu":308,"ina":309,"ut":310,"ab":311,"Ġg":312,"ag":313,"ant":314,"ur":315,"anu":316,"Ġc":317,"ed":318,"ir":319,"sh":320,"il":321,"Ġl":322,"ana":323,"ala":324,"Ġj":325,"Ġa":326,"ki":327,"et":328,"id":329,"aku":330,"and":331,"ah":332,"Ġo":333,"undi":334,"adh":335,"ip":336,"ann":337,"or":338,"und":339,"iv":340,"Ġches":341,"ath":342,"Ġsam":343,"adu":344,"Ġche":345,"ka":346,"anga":347,"yu":348,"Ġmari":349,"ee":350,"ulu":351,"Ġh":352,"ti":353,"ist":354,"ish":355,"aniki":356,"Ġmariyu":357,"aj":358,"aram":359,"indi":360,"Ġbh":361,"up":362,"im":363,"od":364,"ach":365,"ol":366,"us":367,"abh":368,"unna":369,"ya":370,"la":371,"ram":372,"Ġth":373,"ati":374,"adam":375,"em":376,"ash":377,"unt":378,"alo":379,"ot":380,"ic":381,"Ġtel":382,"ai":383,"Ġ1":384,"Ġ2":385,"anni":386,"andi":387,"ata":388,"ara":389,"anam":390,"end":391,"ug":392,"uv":393,"Ġsh":394,"Ġpar":395,"yam":396,"Ġmar":397,"om":398,"ig":399,"os":400,"ayi":401,"ini":402,"aina":403,"Ġf":404,"ov":405,"um":406,"ra":407,"all":408,"ang":409,"adi":410,"Ġin":411,"Ġy":412,"alanu":413,"bh":414,"Ġi":415,"Ġand":416,"udu":417,"Ġvy":418,"app":419,"og":420,"att":421,"ayam":422,"ing":423,"Ġen":424,"Ġkal":425,"Ġchey":426,"ev":427,"chi":428,"Ġnir":429,"pp":430,"ek":431,"ast":432,"ok":433,"Ġav":434,"aksh":435,"tha":436,"adaniki":437,"Ġva":438,"ula":439,"esh":440,"ika":441,"Ġkud":442,"Ġlo":443,"ri":444,"Ġad":445,"Ġam":446,"ali":447,"ec":448,"aga":449,"Ġar":450,"iki":451,"Ġkuda":452,"Ġvid":453,"Ġay":454,"amlo":455,"Ġled":456,"unnaru":457,"lu":458,"Ġ'":459,"ett":460,"oj":461,"Ġvar":462,"ni":463,"Ġw":464,"Ġkar":465,"Ġne":466,"Ġoka":467,"Ġman":468,"Ġant":469,"Ġund":470,"Ġme":471,"Ġkon":472,"ind":473,"uku":474,"ell":475,"ent":476,"Ġadh":477,"Ġsan":478,"ato":479,"Ġ20":480,"Ġunna":481,"dh":482,"Ġgur":483,"Ġchest":484,"Ġunt":485,"ada":486,"na":487,"Ġani":488,"Ġat":489,"inchi":490,"Ġpat":491,"ane":492,"anti":493,"ust":494,"Ġvi":495,"Ġchepp":496,"Ġmee":497,"oni":498,"Ġup":499,"allo":500,"Ġaa":501,"Ġdi":502,"Ġprabh":503,"Ġper":504,"ine":505,"asht":506,"Ġpad":507,"Ġmat":508,"ith":509,"akk":510,"ondi":511,"op":512,"ukov":513,"Ġma":514,"edd":515,"alaku":516,"arinch":517,"Ġidi":518,"abad":519,"anto":520,"Ġas":521,"ill":522,"Ġkani":523,"oy":524,"Ġvish":525,"Ġok":526,"ey":527,"Ġ3":528,"Ġmo":529,"ub":530,"ta":531,"ulo":532,"okka":533,"Ġraj":534,"ond":535,"osam":536,"Ġst":537,"aka":538,"ac":539,"Ġtar":540,"est":541,"st":542,"ha":543,"Ġyokka":544,"Ġcom":545,"one":546,"amaina":547,"tham":548,"edi":549,"ipp":550,"enu":551,"Ġna":552,"Ġem":553,"andh":554,"achch":555,"Ġni":556,"alani":557,"to":558,"Ġed":559,"inchina":560,"ulanu":561,"Ġkosam":562,"ukunt":563,"Ġpari":564,"unda":565,"Ġsah":566,"arsh":567,"Ġleda":568,"ama":569,"Ġud":570,"Ġsth":571,"incharu":572,"Ġabh":573,"ma":574,"atam":575,"Ġviv":576,"eev":577,"unchi":578,"aran":579,"le":580,"Ġ5":581,"arth":582,"ation":583,"Ġek":584,"ers":585,"Ġsr":586,"athi":587,"Ġsw":588,"Ġtana":589,"ukh":590,"ante":591,"Ġtelug":592,"oc":593,"eru":594,"Ġdh":595,"Ġvyak":596,"Ġprat":597,"ary":598,"add":599,"ess":600,"utv":601,"iti":602,"Ġbhav":603,"Ġipp":604,"agg":605,"uni":606,"Ġpur":607,"ush":608,"Ġnunchi":609,"Ġte":610,"Ġprak":611,"Ġchand":612,"Ġthe":613,"alam":614,"Ġchit":615,"Ġto":616,"Ġrend":617,"ulaku":618,"Ġprabhutv":619,"analu":620,"Ġroj":621,"utt":622,"uch":623,"Ġvast":624,"Ġ4":625,"Ġchala":626,"Ġnundi":627,"Ġga":628,"Ġbhar":629,"anch":630,"appudu":631,"een":632,"Ġpo":633,"Ġko":634,"vata":635,"ank":636,"ep":637,"unu":638,"apai":639,"Ġpray":640,"Ġkh":641,"Ġvundi":642,"Ġpett":643,"Ġmah":644,"ema":645,"Ġpol":646,"Ġkr":647,"Ġpraj":648,"Ġpani":649,"Ġcon":650,"edu":651,"Ġmod":652,"Ġal":653,"Ġnenu":654,"Ġvad":655,"Ġsar":656,"Ġsp":657,"ava":658,"Ġekk":659,"ame":660,"wara":661,"ect":662,"isth":663,"uga":664,"Ġane":665,"ariki":666,"Ġvel":667,"Ġph":668,"Ġjari":669,"Ġdr":670,"Ġann":671,"anta":672,"amp":673,"ate":674,"Ġ201":675,"ithe":676,"uva":677,"alla":678,"anth":679,"Ġtelugu":680,"Ġmadh":681,"Ġmund":682,"udi":683,"00":684,"Ġmukh":685,"Ġrasht":686,"Ġaithe":687,"Ġlaksh":688,"Ġsin":689,"Ġve":690,"atlu":691,"Ġint":692,"atha":693,"Ġayana":694,"Ġsank":695,"chch":696,"aya":697,"Ġsadh":698,"Ġenn":699,"ku":700,"Ġvell":701,"atti":702,"avas":703,"ite":704,"arana":705,"Ġev":706,"Ġdwara":707,"arani":708,"Ġkalig":709,"Ġunn":710,"Ġupay":711,"Ġsang":712,"istundi":713,"asam":714,"inchadam":715,"inche":716,"Ġsinim":717,"Ġcin":718,"Ġgr":719,"Ġtr":720,"yog":721,"hi":722,"als":723,"Ġiv":724,"Ġel":725,"ce":726,"utundi":727,"Ġap":728,"Ġpradh":729,"Ġcinema":730,"yak":731,"idd":732,"Ġkot":733,"Ġchesaru":734,"Ġbr":735,"Ġmatram":736,"isuk":737,"hu":738,"Ġnirv":739,"Ġcher":740,"eddy":741,"Ġparish":742,"Ġupayog":743,"ela":744,"Ġjeev":745,"amani":746,"bandh":747,"Ġit":748,"Ġdes":749,"isht":750,"age":751,"Ġvidh":752,"Ġnam":753,"Ġpal":754,"Ġmandi":755,"Ġavas":756,"Ġda":757,"Ġak":758,"inchadaniki":759,"apad":760,"ty":761,"Ġjag":762,"Ġgurinchi":763,"Ġnirm":764,"Ġuntundi":765,"Ġvat":766,"akunda":767,"arch":768,"Ġkav":769,"Ġlek":770,"Ġchesina":771,"pu":772,"eb":773,"Ġrendu":774,"anna":775,"Ġnat":776,"une":777,"ion":778,"atu":779,"Ġra":780,"ow":781,"ber":782,"Ġil":783,"Ġjarig":784,"Ġpedd":785,"eda":786,"Ġapp":787,"ost":788,"Ġvij":789,"Ġsand":790,"any":791,"int":792,"Ġnirvah":793,"eni":794,"Ġend":795,"tion":796,"Ġtarvata":797,"Ġram":798,"Ġcor":799,"Ġer":800,"iru":801,"Ġsa":802,"Ġvac":803,"inchindi":804,"uddh":805,"inchandi":806,"Ġkend":807,"ck":808,"avi":809,"Ġven":810,"alli":811,"abu":812,"antr":813,"Ġut":814,"Ġpatt":815,"gr":816,"Ġnil":817,"ita":818,"Ġnew":819,"ard":820,"antri":821,"Ġ6":822,"Ġkotha":823,"Ġnaa":824,"arit":825,"arambh":826,"imch":827,"aki":828,"Ġkor":829,"Ġvishayam":830,"Ġtir":831,"Ġtelang":832,"Ġvaraku":833,"una":834,"Ġlow":835,"Ġchin":836,"iy":837,"enduku":838,"Ġsamayam":839,"Ġvaari":840,"Ġre":841,"thundi":842,"Ġchend":843,"Ġsambandh":844,"Ġjan":845,"Ġon":846,"ubh":847,"Ġvis":848,"Ġpram":849,"Ġvanti":850,"ikk":851,"utunn":852,"Ġtagg":853,"Ġmeeru":854,"avar":855,"Ġkonni":856,"Ġprarambh":857,"Ġbhag":858,"Ġun":859,"anal":860,"allu":861,"akam":862,"Ġdin":863,"Ġnag":864,"Ġkut":865,"odu":866,"Ġunnaayi":867,"atiki":868,"Ġmadhya":869,"itam":870,"Ġhy":871,"ars":872,"arulu":873,"Ġparty":874,"Ġadhik":875,"Ġadi":876,"Ġnu":877,"Ġag":878,"Ġcomm":879,"Ġela":880,"oh":881,"Ġvaaru":882,"ket":883,"Ġpraty":884,"ilo":885,"Ġ19":886,"pad":887,"ukunn":888,"Ġprabhutvam":889,"Ġrav":890,"Ġthapp":891,"Ġavasaram":892,"are":893,"Ġcomp":894,"Ġichch":895,"Ġist":896,"Ġtam":897,"Ġbal":898,"Ġala":899,"Ġprap":900,"Ġ0":901,"Ġvir":902,"Ġmanchi":903,"umb":904,"ats":905,"akt":906,"ff":907,"Ġavak":908,"Ġdev":909,"Ġco":910,"ukunna":911,"ie":912,"Ġaame":913,"Ġka":914,"Ġ7":915,"Ġgo":916,"Ġ10":917,"yat":918,"Ġvalla":919,"Ġante":920,"Ġvidy":921,"oll":922,"kar":923,"adanto":924,"arug":925,"ice":926,"re":927,"Ġsari":928,"Ġmukhyam":929,"pai":930,"apu":931,"Ġsamas":932,"ito":933,"ullo":934,"Ġso":935,"der":936,"Ġher":937,"Ġippudu":938,"uru":939,"Ġkadu":940,"Ġru":941,"Ġtama":942,"Ġanni":943,"nam":944,"ipoy":945,"ayak":946,"ich":947,"Ġivv":948,"utunna":949,"Ġledhu":950,"Ġtelangana":951,"Ġpa":952,"Ġchandr":953,"Ġkanip":954,"adani":955,"Ġchandra":956,"ass":957,"Ġpond":958,"Ġvyakt":959,"Ġakk":960,"Ġnirn":961,"Ġprapanch":962,"Ġmer":963,"Ġkaryak":964,"Ġind":965,"Ġnel":966,"Ġrang":967,"Ġpurti":968,"Ġmarin":969,"pr":970,"Ġmiru":971,"Ġ8":972,"alato":973,"Ġparisth":974,"nu":975,"Ġvyavas":976,"cr":977,"Ġvin":978,"Ġdeen":979,"ort":980,"Ġnews":981,"Ġgram":982,"Ġkath":983,"ity":984,"aledu":985,"Ġmaa":986,"art":987,"Ġkur":988,"Ġprathi":989,"yanga":990,"Ġmana":991,"Ġprast":992,"Ġmaro":993,"Ġcheyadam":994,"ananga":995,"Ġcheyadaniki":996,"Ġbadh":997,"Ġennik":998,"aralu":999,"oth":1000,"undani":1001,"eka":1002,"Ġchesi":1003,"Ġmand":1004,"ivr":1005,"loni":1006,"avam":1007,"itt":1008,"achu":1009,"ukuni":1010,"eet":1011,"Ġprash":1012,"man":1013,"Ġpen":1014,"Ġchitr":1015,"esi":1016,"utu":1017,"Ġtan":1018,"Ġtelip":1019,"Ġsur":1020,"Ġsans":1021,"ial":1022,"Ġpl":1023,"illa":1024,"Ġid":1025,"udala":1026,"hy":1027,"eem":1028,"Ġprakat":1029,"Ġrup":1030,"avachch":1031,"Ġ202":1032,"uth":1033,"Ġtelus":1034,"Ġpatu":1035,"Ġcongr":1036,"odh":1037,"alas":1038,"Ġjagan":1039,"Ġvachch":1040,"Ġrak":1041,"acharam":1042,"Ġalo":1043,"ksh":1044,"Ġdur":1045,"Ġpatr":1046,"gu":1047,"Ġvyap":1048,"tu":1049,"Ġprad":1050,"Ġ9":1051,"Ġvijay":1052,"atv":1053,"annaru":1054,"Ġsag":1055,"ade":1056,"Ġkaligi":1057,"Ġvach":1058,"Ġprabhutva":1059,"Ġsabh":1060,"Ġikk":1061,"Ġcho":1062,"chu":1063,"onn":1064,"Ġmeeda":1065,"arbh":1066,"ike":1067,"amu":1068,"Ġvyakti":1069,"vats":1070,"attu":1071,"ona":1072,"Ġmarinta":1073,"idh":1074,"ans":1075,"ikaa":1076,"atr":1077,"Ġmedi":1078,"Ġmem":1079,"Ġro":1080,"Ġcongress":1081,"Ġikaa":1082,"Ġutp":1083,"Ġprastut":1084,"Ġtaru":1085,"Ġthisuk":1086,"Ġpedda":1087,"akti":1088,"ib":1089,"avan":1090,"ain":1091,"ive":1092,"ukovadam":1093,"agal":1094,"Ġsuch":1095,"uto":1096,"Ġchup":1097,"Ġkalis":1098,"Ġpras":1099,"Ġgh":1100,"Ġaloch":1101,"analanu":1102,"yal":1103,"Ġhero":1104,"istunn":1105,"Ġchandrab":1106,"rap":1107,"Ġkutumb":1108,"Ġpun":1109,"Ġcheyandi":1110,"eti":1111,"ayani":1112,"Ġchitram":1113,"ayy":1114,"Ġvari":1115,"idi":1116,"ayalu":1117,"thalu":1118,"iksh":1119,"Ġvil":1120,"Ġpan":1121,"arm":1122,"uj":1123,"Ġvr":1124,"Ġmundu":1125,"Ġniv":1126,"Ġpill":1127,"Ġpanich":1128,"Ġadhika":1129,"imp":1130,"Ġchus":1131,"abb":1132,"Ġerp":1133,"Ġekkuva":1134,"ulato":1135,"Ġith":1136,"Ġamm":1137,"Ġdarsh":1138,"avachchu":1139,"akh":1140,"Ġkan":1141,"Ġarth":1142,"Ġvim":1143,"ull":1144,"udd":1145,"Ġannaru":1146,"Ġprav":1147,"eel":1148,"igh":1149,"akee":1150,"Ġaty":1151,"mch":1152,"derabad":1153,"avant":1154,"Ġjarug":1155,"eh":1156,"Ġmatrame":1157,"Ġmarch":1158,"ase":1159,"Ġanum":1160,"Ġac":1161,"Ġtelis":1162,"avu":1163,"Ġrajakee":1164,"Ġvacch":1165,"Ġsamayamlo":1166,"ail":1167,"Ġash":1168,"Ġot":1169,"Ġhyderabad":1170,"aranga":1171,"Ġtag":1172,"atm":1173,"jp":1174,"Ġkum":1175,"Ġmeeku":1176,"Ġdig":1177,"Ġfor":1178,"amm":1179,"ote":1180,"analo":1181,"Ġayina":1182,"Ġter":1183,"ome":1184,"Ġvidudala":1185,"Ġandh":1186,"ly":1187,"Ġdaani":1188,"Ġayy":1189,"Ġpench":1190,"qu":1191,"Ġabhivr":1192,"iga":1193,"Ġbjp":1194,"Ġnaku":1195,"onu":1196,"anani":1197,"Ġbah":1198,"atn":1199,"Ġemp":1200,"Ġsamaj":1201,"Ġkab":1202,"uddhi":1203,"Ġtaruvata":1204,"Ġpost":1205,"ember":1206,"Ġbay":1207,"Ġchepparu":1208,"Ġaneka":1209,"Ġ12":1210,"Ġmanam":1211,"Ġutt":1212,"Ġcorona":1213,"Ġtay":1214,"Ġedur":1215,"Ġchesindi":1216,"Ġcr":1217,"Ġle":1218,"yalu":1219,"Ġmotham":1220,"Ġdagg":1221,"Ġchiv":1222,"yan":1223,"Ġchinna":1224,"Ġavakasam":1225,"Ġvay":1226,"annu":1227,"Ġokk":1228,"ataniki":1229,"Ġpor":1230,"ena":1231,"Ġvivarinch":1232,"Ġchendina":1233,"Ġade":1234,"Ġdo":1235,"va":1236,"Ġbo":1237,"Ġmantri":1238,"lad":1239,"te":1240,"Ġchep":1241,"ern":1242,"Ġ15":1243,"inc":1244,"Ġmarg":1245,"Ġchud":1246,"iniyog":1247,"Ġvip":1248,"ack":1249,"igi":1250,"ots":1251,"Ġvibh":1252,"Ġpradhana":1253,"asag":1254,"Ġis":1255,"Ġcheb":1256,"Ġchese":1257,"atiya":1258,"Ġsandarbh":1259,"Ġpot":1260,"tor":1261,"Ġikkada":1262,"low":1263,"Ġila":1264,"eric":1265,"Ġadhy":1266,"Ġsahay":1267,"Ġgurt":1268,"Ġyu":1269,"asth":1270,"Ġantu":1271,"Ġreddy":1272,"ake":1273,"istunnaru":1274,"istunna":1275,"Ġippat":1276,"Ġmoodu":1277,"anic":1278,"inatlu":1279,"Ġtakk":1280,"Ġchesuk":1281,"Ġepp":1282,"Ġchet":1283,"Ġtol":1284,"Ġchust":1285,"Ġkaryakram":1286,"Ġudyog":1287,"Ġtanu":1288,"vu":1289,"Ġanubh":1290,"Ġteliparu":1291,"ale":1292,"alan":1293,"Ġse":1294,"tr":1295,"Ġnav":1296,"Ġcharch":1297,"erv":1298,"Ġla":1299,"asw":1300,"Ġlabh":1301,"ore":1302,"eksh":1303,"Ġsev":1304,"Ġyo":1305,"Ġno":1306,"aro":1307,"Ġchandrababu":1308,"tic":1309,"poy":1310,"Ġvah":1311,"alalo":1312,"arg":1313,"Ġprath":1314,"Ġrashtra":1315,"Ġnayak":1316,"Ġmarket":1317,"Ġjilla":1318,"Ġnim":1319,"Ġfr":1320,"Ġpamp":1321,"inchadu":1322,"Ġsup":1323,"Ġbaga":1324,"Ġuntayi":1325,"unte":1326,"eri":1327,"Ġnar":1328,"Ġchestundi":1329,"atla":1330,"Ġindi":1331,"aduthundi":1332,"anaku":1333,"Ġnalu":1334,"Ġjill":1335,"Ġandi":1336,"akap":1337,"anik":1338,"bhav":1339,"Ġanedi":1340,"Ġkes":1341,"ayanni":1342,"iste":1343,"Ġanduk":1344,"ubl":1345,"Ġksh":1346,"okk":1347,"Ġner":1348,"ayana":1349,"Ġprastutam":1350,"du":1351,"utondi":1352,"Ġmemu":1353,"Ġrach":1354,"ery":1355,"Ġkalisi":1356,"karinch":1357,"adr":1358,"Ġanch":1359,"indani":1360,"Ġkod":1361,"Ġmerug":1362,"alni":1363,"Ġviniyog":1364,"Ġdad":1365,"Ġkad":1366,"Ġpadd":1367,"arog":1368,"ukk":1369,"Ġperug":1370,"Ġteliy":1371,"Ġprabhav":1372,"path":1373,"inchabad":1374,"Ġpalu":1375,"Ġvariki":1376,"Ġameric":1377,"Ġ11":1378,"Ġkol":1379,"Ġnamm":1380,"unnayi":1381,"aramaina":1382,"if":1383,"arala":1384,"Ġbhavani":1385,"Ġvachchina":1386,"Ġthis":1387,"thi":1388,"Ġenduk":1389,"Ġras":1390,"ila":1391,"Ġmalli":1392,"anj":1393,"rad":1394,"Ġchary":1395,"oom":1396,"Ġarthika":1397,"Ġsidd":1398,"Ġcha":1399,"Ġpand":1400,"Ġvas":1401,"Ġmug":1402,"Ġcar":1403,"Ġves":1404,"Ġanuk":1405,"ical":1406,"Ġass":1407,"Ġprayatn":1408,"Ġinka":1409,"Ġkatt":1410,"Ġkrish":1411,"atho":1412,"Ġniz":1413,"utunnaru":1414,"yanni":1415,"Ġperu":1416,"Ġvall":1417,"Ġtisuk":1418,"Ġvent":1419,"Ġsn":1420,"Ġsat":1421,"uka":1422,"Ġkonasag":1423,"bb":1424,"inde":1425,"Ġtaj":1426,"Ġparisthit":1427,"anala":1428,"Ġcl":1429,"Ġperk":1430,"Ġfir":1431,"istaru":1432,"akar":1433,"Ġmin":1434,"inappudu":1435,"Ġithara":1436,"rit":1437,"aksha":1438,"Ġdinto":1439,"Ġof":1440,"ecch":1441,"ont":1442,"yav":1443,"thu":1444,"Ġabhy":1445,"rah":1446,"alapai":1447,"Ġpak":1448,"ign":1449,"riya":1450,"Ġved":1451,"ong":1452,"Ġhe":1453,"apur":1454,"Ġpil":1455,"Ġhome":1456,"uc":1457,"Ġmodati":1458,"Ġdir":1459,"Ġidd":1460,"arj":1461,"Ġmus":1462,"aiah":1463,"Ġbhari":1464,"kur":1465,"esham":1466,"Ġsrisht":1467,"Ġseem":1468,"akha":1469,"Ġpolic":1470,"Ġkond":1471,"Ġdarshak":1472,"avah":1473,"Ġrah":1474,"Ġ''":1475,"Ġabhivruddhi":1476,"ella":1477,"Ġentha":1478,"Ġadu":1479,"ord":1480,"har":1481,"Ġchad":1482,"var":1483,"Ġandist":1484,"Ġvey":1485,"inda":1486,"ukondi":1487,"iss":1488,"Ġkcr":1489,"Ġalaage":1490,"ott":1491,"uvaga":1492,"tim":1493,"Ġpubl":1494,"Ġsams":1495,"Ġerpatu":1496,"loki":1497,"Ġrashtram":1498,"Ġop":1499,"ashtam":1500,"Ġsamvats":1501,"Ġkalu":1502,"Ġlakshm":1503,"Ġphal":1504,"Ġnad":1505,"ector":1506,"Ġkabatti":1507,"Ġsangh":1508,"Ġgant":1509,"Ġthir":1510,"Ġnet":1511,"ens":1512,"Ġex":1513,"antu":1514,"lone":1515,"Ġsho":1516,"Ġkharch":1517,"dp":1518,"Ġvaid":1519,"idha":1520,"Ġprayoj":1521,"Ġtirigi":1522,"Ġrec":1523,"udh":1524,"Ġkendram":1525,"Ġkaranam":1526,"Ġlekunda":1527,"akulu":1528,"Ġatani":1529,"Ġatanu":1530,"Ġmanas":1531,"Ġkante":1532,"Ġday":1533,"adhi":1534,"akal":1535,"Ġ200":1536,"ananni":1537,"Ġpolice":1538,"Ġrashtr":1539,"Ġbe":1540,"che":1541,"ipai":1542,"ished":1543,"Ġ18":1544,"Ġres":1545,"Ġmig":1546,"ananu":1547,"Ġprem":1548,"Ġvich":1549,"Ġpell":1550,"Ġjarigina":1551,"Ġvividha":1552,"appatiki":1553,"be":1554,"eep":1555,"Ġchestunn":1556,"Ġvidyarth":1557,"atri":1558,"esam":1559,"Ġsamacharam":1560,"iri":1561,"Ġvan":1562,"Ġpalg":1563,"akr":1564,"anug":1565,"ikr":1566,"Ġbag":1567,"Ġsoc":1568,"inchuk":1569,"Ġprajalu":1570,"aduth":1571,"Ġor":1572,"Ġunch":1573,"Ġsamav":1574,"Ġunnaru":1575,"yata":1576,"Ġmud":1577,"achar":1578,"Ġet":1579,"alsina":1580,"Ġvatini":1581,"ight":1582,"inchalani":1583,"Ġmad":1584,"Ġtw":1585,"Ġtdp":1586,"Ġtra":1587,"Ġfil":1588,"Ġnirnay":1589,"ance":1590,"Ġadd":1591,"Ġutpatti":1592,"aman":1593,"Ġkalp":1594,"Ġunte":1595,"ations":1596,"Ġvadla":1597,"alana":1598,"uvu":1599,"Ġoff":1600,"Ġir":1601,"Ġendukante":1602,"Ġpanch":1603,"Ġartham":1604,"ene":1605,"Ġvaj":1606,"ve":1607,"inn":1608,"Ġ30":1609,"yamlo":1610,"Ġpratyeka":1611,"Ġvist":1612,"olo":1613,"Ġsamasy":1614,"Ġvide":1615,"Ġgata":1616,"Ġtees":1617,"Ġpavan":1618,"ovadam":1619,"Ġavi":1620,"Ġokati":1621,"sam":1622,"ents":1623,"uluga":1624,"avari":1625,"ous":1626,"Ġparti":1627,"Ġang":1628,"Ġvyavah":1629,"istu":1630,"Ġtakkuva":1631,"Ġvati":1632,"Ġdesh":1633,"Ġde":1634,"Ġmaru":1635,"Ġippatike":1636,"Ġkatha":1637,"Ġprakaram":1638,"Ġsy":1639,"uh":1640,"Ġdabb":1641,"itr":1642,"Ġmukhyamantri":1643,"Ġroju":1644,"istayi":1645,"ood":1646,"war":1647,"avaram":1648,"Ġgopp":1649,"Ġenduku":1650,"onnaru":1651,"Ġgod":1652,"Ġ2020":1653,"Ġprashn":1654,"Ġperig":1655,"ekk":1656,"ide":1657,"akalu":1658,"Ġnepath":1659,"era":1660,"Ġphot":1661,"aswam":1662,"Ġchell":1663,"Ġmodi":1664,"Ġsav":1665,"Ġrep":1666,"Ġakkada":1667,"Ġchir":1668,"Ġmatlad":1669,"itanga":1670,"Ġnee":1671,"Ġmadd":1672,"iddh":1673,"Ġsec":1674,"Ġpolices":1675,"Ġsc":1676,"ukovadaniki":1677,"li":1678,"Ġchatt":1679,"Ġ14":1680,"Ġ2019":1681,"Ġ00":1682,"adar":1683,"olu":1684,"tanga":1685,"Ġgel":1686,"Ġraksh":1687,"Ġbayat":1688,"Ġhal":1689,"Ġbad":1690,"Ġmay":1691,"Ġshakti":1692,"ipr":1693,"Ġkev":1694,"Ġlu":1695,"Ġnij":1696,"alap":1697,"arag":1698,"andr":1699,"Ġadhikar":1700,"Ġmul":1701,"Ġthees":1702,"Ġray":1703,"ies":1704,"Ġbhash":1705,"inchali":1706,"arao":1707,"anamlo":1708,"Ġaarog":1709,"Ġmov":1710,"Ġide":1711,"athu":1712,"ter":1713,"Ġundani":1714,"Ġdas":1715,"Ġvidhanga":1716,"Ġpath":1717,"ipu":1718,"Ġall":1719,"aluga":1720,"Ġ-":1721,"Ġpratyek":1722,"ru":1723,"inam":1724,"its":1725,"Ġisht":1726,"Ġmaatla":1727,"atana":1728,"kurma":1729,"ock":1730,"Ġkendra":1731,"Ġvenk":1732,"ere":1733,"Ġbharat":1734,"Ġbank":1735,"antha":1736,"Ġwh":1737,"ork":1738,"Ġshatam":1739,"Ġveg":1740,"Ġproj":1741,"Ġ25":1742,"Ġanduke":1743,"Ġmed":1744,"yamaina":1745,"Ġparim":1746,"atalu":1747,"eta":1748,"elo":1749,"angal":1750,"Ġmun":1751,"Ġchutt":1752,"Ġkevalam":1753,"dam":1754,"Ġennikala":1755,"Ġchestunnaru":1756,"lanu":1757,"Ġsocial":1758,"Ġaah":1759,"Ġped":1760,"Ġsanstha":1761,"Ġproject":1762,"Ġgat":1763,"Ġlop":1764,"onna":1765,"Ġrajakeeya":1766,"Ġkada":1767,"Ġath":1768,"eat":1769,"aloni":1770,"ustom":1771,"Ġmaatlaad":1772,"Ġ13":1773,"oga":1774,"Ġdoc":1775,"anas":1776,"Ġindulo":1777,"Ġyuv":1778,"Ġekkuvaga":1779,"Ġvedi":1780,"Ġtelust":1781,"Ġny":1782,"Ġmedia":1783,"Ġedi":1784,"istondi":1785,"Ġkakunda":1786,"Ġchinn":1787,"athir":1788,"ipun":1789,"Ġvyavasth":1790,"Ġrel":1791,"Ġcharit":1792,"ukune":1793,"acchu":1794,"Ġpranth":1795,"evi":1796,"Ġvajbe":1797,"Ġ16":1798,"Ġrait":1799,"Ġputt":1800,"Ġtal":1801,"Ġandol":1802,"Ġsai":1803,"Ġparis":1804,"Ġsch":1805,"araku":1806,"Ġparyav":1807,"uri":1808,"inadi":1809,"Ġab":1810,"araj":1811,"ry":1812,"Ġsthayi":1813,"Ġpust":1814,"cy":1815,"Ġgad":1816,"arn":1817,"Ġams":1818,"Ġweb":1819,"Ġteev":1820,"vam":1821,"avad":1822,"Ġabhim":1823,"Ġprant":1824,"bhut":1825,"Ġvivarinchandi":1826,"Ġdar":1827,"Ġsneh":1828,"ro":1829,"yas":1830,"ugu":1831,"Ġpreksh":1832,"anini":1833,"Ġsamarth":1834,"Ġpettub":1835,"Ġadhikaarulu":1836,"omm":1837,"Ġsing":1838,"Ġdem":1839,"Ġavakas":1840,"Ġtayaru":1841,"ukoni":1842,"arach":1843,"icket":1844,"Ġsampr":1845,"Ġpublished":1846,"Ġpm":1847,"alante":1848,"Ġ17":1849,"Ġkanug":1850,"ure":1851,"ukundi":1852,"Ġpariksh":1853,"Ġdec":1854,"evaru":1855,"alsi":1856,"elu":1857,"Ġmarp":1858,"Ġah":1859,"Ġson":1860,"Ġcustom":1861,"Ġanand":1862,"Ġsambhav":1863,"Ġjab":1864,"atanu":1865,"Ġà":1866,"Ġasalu":1867,"Ġpradarsh":1868,"Ġiddaru":1869,"ukunte":1870,"Ġvimars":1871,"avachu":1872,"atvam":1873,"Ġanip":1874,"own":1875,"Ġsm":1876,"ivas":1877,"Ġvacchi":1878,"Ġtad":1879,"arik":1880,"Ġchot":1881,"ob":1882,"Ġparisthiti":1883,"Ġhalf":1884,"ampai":1885,"utaru":1886,"Ġrev":1887,"ick":1888,"ili":1889,"Ġatyanta":1890,"Ġposh":1891,"Ġsandarbhanga":1892,"lalo":1893,"upu":1894,"yulu":1895,"Ġventane":1896,"ude":1897,"Ġsum":1898,"Ġamalu":1899,"otsah":1900,"Ġdel":1901,"yap":1902,"Ġvyaktig":1903,"hya":1904,"vara":1905,"Ġkarananga":1906,"Ġes":1907,"Ġlekap":1908,"Ġsanket":1909,"Ġnid":1910,"Ġnadu":1911,"Ġprati":1912,"ates":1913,"Ġgrah":1914,"Ġbabu":1915,"enn":1916,"oda":1917,"areddy":1918,"Ġstar":1919,"Ġcol":1920,"Ġcheya":1921,"Ġedurk":1922,"Ġsul":1923,"Ġroop":1924,"arav":1925,"Ġvyathir":1926,"Ġpai":1927,"isthundi":1928,"Ġprotsah":1929,"radesh":1930,"Ġtim":1931,"Ġby":1932,"Ġibb":1933,"Ġunde":1934,"ile":1935,"Ġkotla":1936,"ubat":1937,"Ġvaru":1938,"ukunnaru":1939,"Ġledani":1940,"our":1941,"Ġbhoom":1942,"Ġkonug":1943,"Ġarog":1944,"Ġsambandhinchina":1945,"Ġcompany":1946,"ule":1947,"Ġvyaktam":1948,"Ġcheyalani":1949,"aralanu":1950,"ection":1951,"Ġtech":1952,"Ġudah":1953,"Ġmani":1954,"ilu":1955,"ment":1956,"Ġanna":1957,"Ġsamprad":1958,"Ġjarigindi":1959,"Ġleni":1960,"gh":1961,"edani":1962,"ivi":1963,"diga":1964,"Ġphone":1965,"ukuntunn":1966,"Ġshiksh":1967,"amga":1968,"Ġha":1969,"Ġchadu":1970,"Ġilanti":1971,"pi":1972,"Ġkaani":1973,"Ġvant":1974,"aji":1975,"ukovali":1976,"ave":1977,"Ġeppudu":1978,"Ġkam":1979,"utunnayi":1980,"uvanti":1981,"akala":1982,"Ġanuv":1983,"Ġpatra":1984,"addu":1985,"Ġvarsh":1986,"Ġvand":1987,"arini":1988,"arup":1989,"Ġdash":1990,"ulalo":1991,"Ġaid":1992,"Ġlok":1993,"Ġbi":1994,"Ġbharatha":1995,"Ġkil":1996,"Ġench":1997,"Ġpanichest":1998,"karam":1999,"Ġchik":2000,"Ġsara":2001,"Ġnepathyamlo":2002,"ello":2003,"Ġkumar":2004,"Ġsep":2005,"riti":2006,"ham":2007,"undo":2008,"Ġcharyalu":2009,"Ġtelisinde":2010,"Ġread":2011,"ima":2012,"apr":2013,"Ġqu":2014,"inand":2015,"Ġelanti":2016,"Ġsrin":2017,"arananga":2018,"imm":2019,"agam":2020,"apaduthundi":2021,"Ġvyakhy":2022,"Ġeng":2023,"etti":2024,"Ġvarg":2025,"Ġnirnayam":2026,"Ġopp":2027,"Ġtajaga":2028,"ananiki":2029,"Ġpap":2030,"inchavachchu":2031,"Ġki":2032,"Ġdis":2033,"ariga":2034,"Ġvacchindi":2035,"ft":2036,"Ġdani":2037,"Ġcov":2038,"Ġanubhav":2039,"Ġroja":2040,"Ġadig":2041,"Ġpurtiga":2042,"Ġpracharam":2043,"Ġlev":2044,"Ġmaatlaadutu":2045,"Ġdarit":2046,"Ġmoth":2047,"Ġmunduku":2048,"Ġveer":2049,"Ġago":2050,"Ġabhipr":2051,"Ġdadapu":2052,"Ġkott":2053,"Ġever":2054,"Ġabhyarth":2055,"usht":2056,"Ġkasht":2057,"ge":2058,"ric":2059,"emp":2060,"Ġento":2061,"Ġmerugup":2062,"oju":2063,"Ġtamil":2064,"Ġsaha":2065,"mine":2066,"Ġokka":2067,"Ġsay":2068,"Ġsankhya":2069,"Ġ50":2070,"Ġkendr":2071,"Ġdaggara":2072,"Ġvallu":2073,"ikar":2074,"Ġadug":2075,"impu":2076,"Ġdoctor":2077,"Ġchestunna":2078,"Ġrash":2079,"Ġkalyan":2080,"co":2081,"Ġdemand":2082,"Ġpod":2083,"ons":2084,"avacchu":2085,"ence":2086,"raj":2087,"emb":2088,"Ġfilm":2089,"ami":2090,"Ġennikallo":2091,"Ġedaina":2092,"Ġ24":2093,"Ġcheyabad":2094,"Ġprapancha":2095,"abha":2096,"ukuntu":2097,"Ġnov":2098,"Ġstr":2099,"Ġutpatt":2100,"yad":2101,"avaaram":2102,"olly":2103,"Ġret":2104,"ida":2105,"atmaka":2106,"Ġsri":2107,"Ġgaru":2108,"iva":2109,"laku":2110,"Ġbus":2111,"Ġone":2112,"Ġphalit":2113,"Ġpakk":2114,"avantamaina":2115,"Ġgoppa":2116,"Ġniy":2117,"umm":2118,"alane":2119,"Ġsadharananga":2120,"adas":2121,"Ġbhay":2122,"Ġsakha":2123,"Ġvarini":2124,"Ġniyam":2125,"Ġsthir":2126,"gy":2127,"Ġdor":2128,"Ġbhadr":2129,"Ġ2021":2130,"ink":2131,"Ġandubat":2132,"get":2133,"Ġantha":2134,"Ġus":2135,"uvulu":2136,"Ġur":2137,"Ġchusi":2138,"Ġindia":2139,"Ġ2018":2140,"Ġdesam":2141,"Ġgov":2142,"Ġjeevith":2143,"Ġnannu":2144,"Ġsanksh":2145,"ated":2146,"raksh":2147,"ikanga":2148,"Ġsanch":2149,"Ġandubatulo":2150,"Ġparich":2151,"iz":2152,"da":2153,"Ġdeb":2154,"Ġdata":2155,"Ġviluv":2156,"urt":2157,"Ġmukhyanga":2158,"Ġrag":2159,"way":2160,"Ġprekshak":2161,"Ġpoy":2162,"Ġkarm":2163,"Ġappudu":2164,"Ġivi":2165,"Ġsanvats":2166,"Ġempic":2167,"ukunnadu":2168,"asta":2169,"Ġchoos":2170,"onda":2171,"Ġamerica":2172,"Ġpelli":2173,"ulapai":2174,"ishy":2175,"Ġmal":2176,"Ġjagr":2177,"Ġsahayapaduthundi":2178,"ission":2179,"Ġsadharana":2180,"Ġsahaj":2181,"Ġmovie":2182,"Ġsampad":2183,"Ġades":2184,"iah":2185,"eer":2186,"line":2187,"Ġvideo":2188,"Ġmam":2189,"Ġichchina":2190,"Ġniyantr":2191,"Ġsel":2192,"ump":2193,"Ġparig":2194,"ekap":2195,"agala":2196,"Ġsann":2197,"lesh":2198,"Ġspand":2199,"Ġapr":2200,"wood":2201,"Ġanus":2202,"Ġandulo":2203,"Ġkonta":2204,"Ġabhiman":2205,"arlu":2206,"Ġlakshala":2207,"Ġoc":2208,"arv":2209,"Ġcoll":2210,"Ġchesadu":2211,"Ġsinimalo":2212,"Ġbandh":2213,"Ġkram":2214,"asi":2215,"ics":2216,"Ġadbhut":2217,"Ġparishram":2218,"oor":2219,"ipot":2220,"Ġrod":2221,"Ġdeeni":2222,"oka":2223,"adup":2224,"Ġnamod":2225,"avaranam":2226,"Ġdeeniki":2227,"Ġsub":2228,"Ġchestu":2229,"akanga":2230,"gah":2231,"utayi":2232,"Ġmahesh":2233,"Ġ21":2234,"ishti":2235,"Ġpos":2236,"eval":2237,"day":2238,"ikarinch":2239,"Ġvadd":2240,"Ġvyathirek":2241,"Ġvishay":2242,"china":2243,"Ġvet":2244,"Ġupd":2245,"les":2246,"Ġdiv":2247,"mi":2248,"Ġundali":2249,"Ġroopond":2250,"Ġmanch":2251,"Ġedadi":2252,"Ġsansth":2253,"Ġedo":2254,"ipad":2255,"ukun":2256,"eak":2257,"ese":2258,"Ġpas":2259,"Ġgan":2260,"Ġvirus":2261,"eyadam":2262,"inna":2263,"Ġvatav":2264,"Ġevaru":2265,"imcharu":2266,"ji":2267,"tt":2268,"Ġcommun":2269,"ines":2270,"Ġlanti":2271,"Ġsamasya":2272,"apa":2273,"Ġsthanic":2274,"Ġjul":2275,"Ġnalugu":2276,"sip":2277,"Ġtanaku":2278,"Ġnuv":2279,"eng":2280,"ollywood":2281,"Ġsamadh":2282,"able":2283,"Ġmokk":2284,"arp":2285,"Ġpaigah":2286,"Ġchaduv":2287,"anc":2288,"Ġudaharan":2289,"ors":2290,"Ġsamajic":2291,"ool":2292,"india":2293,"Ġsek":2294,"Ġudd":2295,"Ġmaaji":2296,"Ġrail":2297,"Ġardh":2298,"Ġmahil":2299,"Ġkul":2300,"Ġchikits":2301,"Ġpradesh":2302,"Ġundhi":2303,"Ġcompani":2304,"Ġjeevit":2305,"yalanu":2306,"Ġprajala":2307,"Ġsamip":2308,"Ġandaru":2309,"rapradesh":2310,"osari":2311,"Ġstor":2312,"ark":2313,"inchin":2314,"ees":2315,"Ġaadh":2316,"urav":2317,"Ġiteval":2318,"Ġjatiya":2319,"arud":2320,"alue":2321,"Ġtop":2322,"anya":2323,"Ġatt":2324,"Ġparyat":2325,"Ġsom":2326,"Ġkir":2327,"Ġmet":2328,"itha":2329,"ardh":2330,"Ġbab":2331,"Ġcont":2332,"Ġnot":2333,"Ġsamachar":2334,"Ġkann":2335,"Ġenth":2336,"Ġparishkarinch":2337,"oo":2338,"Ġtelustondi":2339,"Ġvyaktigata":2340,"andri":2341,"Ġ22":2342,"Ġenno":2343,"Ġtest":2344,"atya":2345,"Ġyuddh":2346,"Ġdanini":2347,"arap":2348,"Ġmla":2349,"Ġry":2350,"Ġrog":2351,"Ġprakri":2352,"Ġsrinivas":2353,"Ġvishlesh":2354,"Ġtrs":2355,"Ġnit":2356,"out":2357,"Ġbang":2358,"Ġgatamlo":2359,"Ġshoot":2360,"Ġtall":2361,"adanni":2362,"Ġanchana":2363,"Ġprabhavam":2364,"Ġntr":2365,"Ġkonugolu":2366,"for":2367,"Ġcase":2368,"arim":2369,"Ġbharath":2370,"Ġmigil":2371,"unnadu":2372,"Ġprach":2373,"etini":2374,"alone":2375,"Ġdat":2376,"Ġmoh":2377,"uda":2378,"Ġcustomer":2379,"Ġcheyaali":2380,"iew":2381,"andam":2382,"ital":2383,"ung":2384,"Ġdirector":2385,"ia":2386,"aktini":2387,"Ġneeti":2388,"eral":2389,"Ġdesamlo":2390,"ukha":2391,"ado":2392,"Ġtis":2393,"Ġ100":2394,"Ġsib":2395,"Ġrele":2396,"Ġjarag":2397,"Ġsamp":2398,"Ġbill":2399,"Ġcheste":2400,"Ġsarain":2401,"Ġmy":2402,"Ġaug":2403,"Ġandhrapradesh":2404,"Ġvenkat":2405,"atayi":2406,"alah":2407,"20":2408,"Ġkondaru":2409,"arula":2410,"Ġnethalu":2411,"Ġmanav":2412,"abadi":2413,"eeksh":2414,"Ġrun":2415,"inchal":2416,"Ġassemb":2417,"Ġsuper":2418,"''":2419,"akrish":2420,"Ġbrah":2421,"Ġatm":2422,"osh":2423,"Ġkalam":2424,"Ġpramukh":2425,"Ġà¤":2426,"upai":2427,"Ġpart":2428,"Ġkaga":2429,"Ġvidya":2430,"Ġekkada":2431,"Ġnagar":2432,"Ġdrishti":2433,"ukovalani":2434,"itilo":2435,"atnam":2436,"Ġpravesh":2437,"Ġnadi":2438,"ukovachu":2439,"Ġim":2440,"Ġmur":2441,"ipi":2442,"odi":2443,"Ġemm":2444,"Ġrojula":2445,"Ġcheyy":2446,"Ġyou":2447,"Ġcompanies":2448,"Ġ23":2449,"Ġgund":2450,"Ġkaru":2451,"Ġbud":2452,"Ġgandh":2453,"Ġassembly":2454,"Ġneeru":2455,"Ġakarsh":2456,"Ġrecord":2457,"Ġalanti":2458,"agar":2459,"Ġmanish":2460,"ace":2461,"Ġdebb":2462,"ukuntaru":2463,"Ġsiddam":2464,"Ġmukhyamaina":2465,"uki":2466,"Ġaav":2467,"Ġansh":2468,"Ġvik":2469,"Ġmark":2470,"Ġsamaves":2471,"Ġach":2472,"Ġset":2473,"Ġsouk":2474,"Ġink":2475,"Ġudyam":2476,"Ġadhyaksha":2477,"Ġkaryakramam":2478,"Ġinti":2479,"Ġadharanga":2480,"analaku":2481,"Ġparam":2482,"Ġpatla":2483,"atch":2484,"Ġrachay":2485,"ura":2486,"Ġpriv":2487,"Ġemi":2488,"Ġpranal":2489,"ct":2490,"Ġwork":2491,"Ġbig":2492,"Ġmodal":2493,"pa":2494,"unch":2495,"Ġscr":2496,"Ġkutumba":2497,"Ġnimish":2498,"Ġted":2499,"Ġsangathi":2500,"Ġapril":2501,"agane":2502,"Ġswee":2503,"Ġoke":2504,"Ġperkonnaru":2505,"akram":2506,"uta":2507,"Ġnasht":2508,"Ġare":2509,"Ġuttam":2510,"dish":2511,"Ġpradhani":2512,"atl":2513,"adiki":2514,"Ġmi":2515,"anda":2516,"atta":2517,"bi":2518,"unanga":2519,"Ġavaga":2520,"Ġnalug":2521,"Ġintlo":2522,"Ġip":2523,"Ġmanaku":2524,"Ġsinimalu":2525,"Ġba":2526,"adhyam":2527,"Ġmas":2528,"Ġrem":2529,"Ġgn":2530,"Ġsahayapad":2531,"Ġnilich":2532,"the":2533,"Ġarr":2534,"idu":2535,"akalam":2536,"Ġadhikaram":2537,"ipoyindi":2538,"Ġvastundi":2539,"amika":2540,"anny":2541,"aniv":2542,"Ġblo":2543,"Ġsamud":2544,"Ġchuttu":2545,"Ġrao":2546,"Ġhind":2547,"Ġtit":2548,"ication":2549,"Ġtoli":2550,"akaram":2551,"Ġcheyavachu":2552,"Ġavasaramaina":2553,"undam":2554,"antram":2555,"Ġyaj":2556,"Ġpaksh":2557,"Ġanumat":2558,"Ġvsip":2559,"Ġreg":2560,"Ġudh":2561,"Ġcav":2562,"Ġpanulu":2563,"Ġvyapar":2564,"Ġsambandham":2565,"Ġloni":2566,"Ġsarv":2567,"untaru":2568,"Ġveld":2569,"utund":2570,"atra":2571,"charu":2572,"Ġnum":2573,"Ġundatam":2574,"Ġelect":2575,"me":2576,"Ġpran":2577,"Ġnird":2578,"ement":2579,"Ġvest":2580,"esaru":2581,"Ġparishil":2582,"Ġkinda":2583,"Ġonline":2584,"Ġbhavishy":2585,"inappatiki":2586,"Ġbharatad":2587,"Ġeg":2588,"gam":2589,"Ġdarshakudu":2590,"Ġdecember":2591,"Ġpet":2592,"Ġavagaah":2593,"ja":2594,"Ġcomput":2595,"Ġjillalo":2596,"Ġparichayam":2597,"Ġprajalaku":2598,"Ġmeraku":2599,"Ġemiti":2600,"tember":2601,"tain":2602,"Ġkesulu":2603,"Ġkilaka":2604,"Ġkaryal":2605,"Ġchestaru":2606,"Ġeth":2607,"Ġnagaram":2608,"anyata":2609,"anis":2610,"ayal":2611,"Ġhr":2612,"Ġcheppina":2613,"Ġmodalu":2614,"animch":2615,"ayanga":2616,"emo":2617,"diki":2618,"Ġchat":2619,"Ġhakk":2620,"avaru":2621,"ettu":2622,"ton":2623,"tie":2624,"Ġbatt":2625,"Ġitara":2626,"Ġthol":2627,"Ġtime":2628,"Ġbayataku":2629,"Ġundi":2630,"Ġtechn":2631,"Ġananth":2632,"Ġintern":2633,"Ġvibhaj":2634,"Ġdhara":2635,"Ġrelease":2636,"iya":2637,"Ġjune":2638,"Ġunit":2639,"ational":2640,"ings":2641,"Ġledu":2642,"Ġdil":2643,"angam":2644,"Ġandistundi":2645,"Ġseptember":2646,"Ġmaddathu":2647,"inavi":2648,"ver":2649,"Ġparidh":2650,"Ġmahila":2651,"Ġvatavaranam":2652,"cort":2653,"Ġocto":2654,"Ġaugust":2655,"esindi":2656,"aty":2657,"yatanu":2658,"kal":2659,"Ġavutundi":2660,"Ġtapp":2661,"Ġmp":2662,"Ġarop":2663,"Ġkanugon":2664,"Ġbhaganga":2665,"asan":2666,"Ġgop":2667,"Ġkrishna":2668,"Ġannadu":2669,"Ġnati":2670,"Ġsubh":2671,"ranga":2672,"Ġandariki":2673,"Ġpramadam":2674,"Ġmantr":2675,"Ġanta":2676,"Ġkarn":2677,"Ġaarogya":2678,"Ġprakriya":2679,"Ġvastav":2680,"Ġtv":2681,"Ġvinip":2682,"aham":2683,"of":2684,"reddy":2685,"Ġvadil":2686,"Ġlock":2687,"oz":2688,"Ġchamp":2689,"Ġ000":2690,"Ġfeb":2691,"Ġame":2692,"Ġdrush":2693,"ankar":2694,"bandi":2695,"Ġamma":2696,"urs":2697,"Ġwith":2698,"Ġuntaru":2699,"Ġchina":2700,"Ġbhum":2701,"Ġjuly":2702,"Ġengine":2703,"Ġrakala":2704,"Ġhit":2705,"Ġvarthalu":2706,"Ġsain":2707,"Ġtamu":2708,"Ġdharm":2709,"Ġmandal":2710,"wer":2711,"Ġpramukha":2712,"Ġcent":2713,"ose":2714,"Ġprivate":2715,"ling":2716,"iloni":2717,"avadam":2718,"ne":2719,"Ġbar":2720,"Ġteevra":2721,"akud":2722,"Ġthappa":2723,"oss":2724,"lato":2725,"avalas":2726,"Ġduram":2727,"Ġandolan":2728,"Ġleka":2729,"Ġoctober":2730,"Ġpolit":2731,"Ġvyavastha":2732,"Ġnavv":2733,"'s":2734,"asari":2735,"Ġchivari":2736,"Ġgamani":2737,"Ġpack":2738,"Ġswam":2739,"Ġaad":2740,"Ġsaitham":2741,"aa":2742,"Ġsankhy":2743,"ue":2744,"ction":2745,"Ġchood":2746,"adiga":2747,"Ġvaste":2748,"Ġtaral":2749,"Ġkall":2750,"arudu":2751,"Ġfirst":2752,"ondani":2753,"Ġprarambham":2754,"ira":2755,"Ġcommitt":2756,"Ġdelhi":2757,"athulu":2758,"Ġsthayilo":2759,"unnatlu":2760,"Ġmodala":2761,"Ġcovid":2762,"tif":2763,"Ġmarov":2764,"Ġvaidya":2765,"Ġvidi":2766,"avid":2767,"anjeev":2768,"Ġdaksh":2769,"ellu":2770,"Ġappat":2771,"Ġtvar":2772,"Ġsingh":2773,"Ġvidhanam":2774,"ukol":2775,"Ġantunnaru":2776,"atanto":2777,"Ġshooting":2778,"angane":2779,"Ġsal":2780,"Ġtalli":2781,"endra":2782,"Ġpottie":2783,"eed":2784,"Ġprema":2785,"ochch":2786,"Ġkhachch":2787,"Ġvishayanni":2788,"Ġsahayam":2789,"Ġcre":2790,"ode":2791,"Ġtedi":2792,"chary":2793,"Ġchakk":2794,"Ġcourt":2795,"ology":2796,"Ġjant":2797,"ole":2798,"Ġbhakt":2799,"was":2800,"Ġrojulu":2801,"arya":2802,"Ġsad":2803,"Ġanukul":2804,"Ġkotte":2805,"addaru":2806,"Ġ26":2807,"Ġtarach":2808,"Ġmimm":2809,"Ġdaaniki":2810,"Ġnidh":2811,"Ġsant":2812,"Ġantarj":2813,"esharu":2814,"Ġpettubad":2815,"adhy":2816,"Ġkasta":2817,"inattu":2818,"ise":2819,"Ġsnehit":2820,"Ġsumaru":2821,"Ġfin":2822,"Ġmarovipu":2823,"Ġjat":2824,"Ġanantharam":2825,"unnadi":2826,"Ġ28":2827,"assu":2828,"erp":2829,"Ġ40":2830,"Ġtecch":2831,"arma":2832,"alanni":2833,"akka":2834,"Ġnayakulu":2835,"Ġsamasyalu":2836,"ph":2837,"Ġchiranjeev":2838,"Ġty":2839,"Ġooh":2840,"lon":2841,"Ġtarachuga":2842,"ukuntunnaru":2843,"abot":2844,"Ġkharchu":2845,"asu":2846,"Ġbhagaswam":2847,"po":2848,"Ġ27":2849,"Ġdesign":2850,"Ġtarag":2851,"Ġsambhavya":2852,"Ġchall":2853,"Ġjagrath":2854,"Ġalochana":2855,"Ġniras":2856,"ily":2857,"atham":2858,"Ġgen":2859,"Ġback":2860,"19":2861,"Ġnivas":2862,"Ġplan":2863,"Ġavagaahana":2864,"Ġcharitr":2865,"Ġbhoomi":2866,"Ġsambandhinchi":2867,"gaa":2868,"Ġdanny":2869,"Ġevery":2870,"eku":2871,"ukova":2872,"Ġmanava":2873,"Ġchikitsa":2874,"ukup":2875,"rama":2876,"amma":2877,"Ġparv":2878,"urth":2879,"Ġaf":2880,"Ġpurt":2881,"Ġmargam":2882,"Ġadbhutamaina":2883,"jay":2884,"Ġarrest":2885,"Ġpillalu":2886,"Ġdriv":2887,"Ġkanipinch":2888,"Ġchani":2889,"Ġaut":2890,"ayanam":2891,"erg":2892,"Ġgandhi":2893,"Ġsign":2894,"Ġvarus":2895,"Ġantek":2896,"ipoth":2897,"Ġvyayam":2898,"Ġshaktini":2899,"Ġthat":2900,"Ġmach":2901,"Ġperuto":2902,"Ġnish":2903,"Ġdinini":2904,"Ġbaru":2905,"Ġcheyal":2906,"Ġdvara":2907,"Ġhigh":2908,"antosh":2909,"Ġvidyut":2910,"Ġmir":2911,"utundani":2912,"Ġmanu":2913,"Ġlat":2914,"Ġvalue":2915,"Ġsuk":2916,"Ġichcharu":2917,"Ġvund":2918,"ipo":2919,"arust":2920,"Ġkottu":2921,"Ġthall":2922,"Ġnibandh":2923,"akudu":2924,"Ġspashtam":2925,"Ġmimmalni":2926,"Ġinter":2927,"Ġheroin":2928,"Ġudhayam":2929,"por":2930,"Ġotti":2931,"Ġseni":2932,"Ġout":2933,"Ġkonn":2934,"Ġtandri":2935,"Ġrailway":2936,"ayyaru":2937,"Ġdoor":2938,"Ġdown":2939,"Ġanug":2940,"Ġneoz":2941,"py":2942,"Ġparinam":2943,"Ġbhadrata":2944,"Ġvesi":2945,"Ġaksh":2946,"Ġandhra":2947,"Ġprapancham":2948,"yaniki":2949,"Ġnovember":2950,"Ġsthay":2951,"etappudu":2952,"odhana":2953,"Ġpratin":2954,"Ġtelusu":2955,"Ġsariram":2956,"Ġdhany":2957,"Ġmall":2958,"Ġsibbandi":2959,"Ġrendo":2960,"Ġshikshana":2961,"emi":2962,"umar":2963,"Ġprashna":2964,"Ġgramam":2965,"Ġchair":2966,"Ġsantosh":2967,"Ġhar":2968,"Ġparyavaran":2969,"Ġmag":2970,"Ġpant":2971,"Ġuch":2972,"ruary":2973,"Ġkalamlo":2974,"arika":2975,"stem":2976,"tilo":2977,"Ġintiki":2978,"Ġviniyogadar":2979,"uvula":2980,"Ġvenuka":2981,"Ġcarb":2982,"Ġmaata":2983,"Ġsamraksh":2984,"Ġjanu":2985,"Ġport":2986,"eetham":2987,"Ġkarmik":2988,"Ġvalana":2989,"Ġbharya":2990,"Ġuts":2991,"Ġaidhu":2992,"Ġbadhyat":2993,"son":2994,"Ġshiv":2995,"Ġgani":2996,"Ġgala":2997,"Ġfebruary":2998,"thaku":2999,"Ġjanas":3000,"Ġbut":3001,"untundi":3002,"Ġsamb":3003,"iny":3004,"chindi":3005,"Ġtaja":3006,"Ġarj":3007,"Ġseri":3008,"ipt":3009,"Ġaaharam":3010,"Ġpe":3011,"Ġoneindia":3012,"akapote":3013,"Ġ29":3014,"Ġasakti":3015,"Ġmore":3016,"Ġprodu":3017,"Ġsamard":3018,"Ġinst":3019,"Ġcap":3020,"Ġdeenni":3021,"inchagal":3022,"Ġraju":3023,"Ġair":3024,"Ġpemp":3025,"Ġindh":3026,"Ġsystem":3027,"ayaniki":3028,"oyina":3029,"ano":3030,"Ġsun":3031,"Ġgam":3032,"Ġran":3033,"arshi":3034,"Ġnaipun":3035,"Ġkilo":3036,"Ġsanghatana":3037,"Ġprastuta":3038,"Ġsansk":3039,"Ġsamiksh":3040,"ukuntunna":3041,"cess":3042,"Ġintha":3043,"Ġsamadhanam":3044,"Ġkapad":3045,"apett":3046,"alatho":3047,"Ġ2017":3048,"Ġkap":3049,"Ġrojullo":3050,"Ġcommission":3051,"Ġnipun":3052,"Ġsanvatsaram":3053,"Ġsupr":3054,"abd":3055,"Ġchepatt":3056,"Ġpadarth":3057,"ramaina":3058,"ke":3059,"Ġhot":3060,"aryam":3061,"Ġmaj":3062,"Ġaayana":3063,"aha":3064,"ohan":3065,"Ġz":3066,"Ġprabhavitam":3067,"dd":3068,"atan":3069,"Ġkas":3070,"Ġdish":3071,"Ġdesha":3072,"Ġkaadu":3073,"Ġdabbu":3074,"Ġkudin":3075,"astu":3076,"Ġmill":3077,"Ġdeep":3078,"Ġlekk":3079,"yalo":3080,"Ġtap":3081,"Ġjanuary":3082,"Ġjanm":3083,"Ġx":3084,"Ġbhoj":3085,"arinchina":3086,"itamaina":3087,"Ġnirdish":3088,"Ġdakk":3089,"upp":3090,"lonu":3091,"Ġchesth":3092,"Ġprachur":3093,"ament":3094,"ayan":3095,"amb":3096,"Ġsanketika":3097,"Ġsoft":3098,"Ġmarosari":3099,"Ġhim":3100,"Ġviniyogad":3101,"Ġmeruguparach":3102,"Ġmedialo":3103,"akalanu":3104,"Ġsahit":3105,"Ġvatavarana":3106,"Ġganani":3107,"Ġdaritistundi":3108,"alp":3109,"Ġkaligina":3110,"Ġsakt":3111,"ions":3112,"ism":3113,"Ġpooj":3114,"Ġibband":3115,"inchayi":3116,"ason":3117,"Ġhas":3118,"Ġast":3119,"Ġbatti":3120,"Ġippatiki":3121,"Ġline":3122,"enani":3123,"Ġdep":3124,"mar":3125,"Ġviluva":3126,"vi":3127,"inchenduku":3128,"apati":3129,"Ġlab":3130,"avett":3131,"els":3132,"Ġug":3133,"ins":3134,"Ġja":3135,"Ġgantala":3136,"avantanga":3137,"ayya":3138,"Ġdal":3139,"Ġspasht":3140,"Ġchadiv":3141,"Ġconn":3142,"dr":3143,"Ġpanit":3144,"Ġcorr":3145,"Ġnuvvu":3146,"yala":3147,"ekhar":3148,"Ġnamodhu":3149,"Ġguruv":3150,"ulni":3151,"Ġjay":3152,"eek":3153,"ouse":3154,"Ġgurth":3155,"Ġparikar":3156,"Ġgreen":3157,"Ġchestayi":3158,"Ġpav":3159,"Ġgal":3160,"Ġparties":3161,"Ġvyakhyalu":3162,"incadaniki":3163,"Ġmugg":3164,"Ġprasad":3165,"Ġkrishn":3166,"Ġratri":3167,"Ġmob":3168,"Ġgadi":3169,"Ġpadav":3170,"idandr":3171,"Ġbudget":3172,"Ġkoth":3173,"Ġravana":3174,"arut":3175,"ota":3176,"Ġpaduth":3177,"aut":3178,"Ġgol":3179,"amaindi":3180,"Ġteam":3181,"Ġkoraku":3182,"cal":3183,"Ġsandarsh":3184,"timpu":3185,"uloki":3186,"Ġasup":3187,"Ġprakatana":3188,"anist":3189,"Ġsamacharanni":3190,"lan":3191,"Ġsarf":3192,"Ġvyas":3193,"Ġshock":3194,"ipal":3195,"Ġrangamlo":3196,"Ġmandiki":3197,"Ġbas":3198,"Ġcard":3199,"sr":3200,"Ġduramlo":3201,"Ġcharitra":3202,"Ġkanisam":3203,"anku":3204,"Ġsamajam":3205,"Ġsmart":3206,"Ġlen":3207,"Ġmukk":3208,"oye":3209,"Ġserv":3210,"arimch":3211,"pur":3212,"Ġanduv":3213,"Ġpaina":3214,"ayala":3215,"Ġkrm":3216,"atram":3217,"Ġveldi":3218,"Ġabout":3219,"Ġsenior":3220,"anyam":3221,"Ġvyathirekanga":3222,"Ġupayoginchadam":3223,"Ġuntundani":3224,"Ġantaru":3225,"Ġmarpulu":3226,"akanni":3227,"Ġdadi":3228,"ovadanto":3229,"arat":3230,"Ġvani":3231,"Ġbhagam":3232,"istan":3233,"Ġprog":3234,"Ġtolag":3235,"xt":3236,"Ġull":3237,"Ġmanasika":3238,"Ġantarjatiya":3239,"Ġchiranjeevi":3240,"unnarani":3241,"adha":3242,"Ġnivedi":3243,"Ġnak":3244,"Ġnijam":3245,"Ġell":3246,"Ġnelak":3247,"Ġbhasha":3248,"anapu":3249,"Ġpul":3250,"akrishna":3251,"Ġfl":3252,"Ġtitle":3253,"Ġkutumbam":3254,"Ġamarav":3255,"Ġnirdishta":3256,"Ġcare":3257,"atic":3258,"Ġchuste":3259,"Ġupayoginch":3260,"liament":3261,"ward":3262,"Ġnirmanam":3263,"Ġsabhyulu":3264,"acu":3265,"Ġvijayam":3266,"Ġbahir":3267,"sa":3268,"ches":3269,"okunda":3270,"so":3271,"Ġtin":3272,"Ġcy":3273,"ikaran":3274,"ireddy":3275,"udini":3276,"Ġsir":3277,"Ġprayog":3278,"Ġgovern":3279,"Ġcorpor":3280,"antaram":3281,"Ġtagina":3282,"ikarana":3283,"Ġnyayam":3284,"Ġsit":3285,"Ġkadani":3286,"Ġpag":3287,"ived":3288,"Ġbalmine":3289,"Ġsiddh":3290,"Ġkapp":3291,"Ġrahul":3292,"pe":3293,"ikalu":3294,"Ġkrmamlo":3295,"Ġmaaku":3296,"Ġtod":3297,"Ġsod":3298,"Ġcine":3299,"Ġprac":3300,"Ġpower":3301,"Ġparliament":3302,"Ġpall":3303,"Ġpush":3304,"Ġmaroka":3305,"abham":3306,"Ġkanti":3307,"Ġgu":3308,"Ġupayoginchi":3309,"Ġver":3310,"atvamlo":3311,"Ġchaala":3312,"inat":3313,"Ġmodata":3314,"Ġneth":3315,"ox":3316,"ound":3317,"Ġnal":3318,"Ġett":3319,"Ġmangal":3320,"Ġalav":3321,"Ġupp":3322,"alloki":3323,"Ġsabhy":3324,"Ġform":3325,"Ġdanto":3326,"Ġsamvatsarala":3327,"Ġadananga":3328,"Ġjabit":3329,"Ġprof":3330,"Ġparug":3331,"Ġkant":3332,"Ġella":3333,"Ġmarkets":3334,"Ġviral":3335,"Ġmumb":3336,"vas":3337,"Ġcheppadu":3338,"Ġasp":3339,"Ġtat":3340,"lam":3341,"Ġpadi":3342,"Ġkonch":3343,"Ġvig":3344,"Ġupdated":3345,"Ġkavadam":3346,"Ġlatest":3347,"hil":3348,"Ġvivaralu":3349,"Ġmon":3350,"Ġchebutunnaru":3351,"attuga":3352,"Ġart":3353,"Ġsare":3354,"Ġaudi":3355,"Ġplay":3356,"Ġvipe":3357,"count":3358,"Ġjod":3359,"Ġadhyaksh":3360,"arinchadaniki":3361,"Ġpratik":3362,"Ġpaath":3363,"Ġsthanam":3364,"Ġwebs":3365,"ichi":3366,"Ġchalam":3367,"Ġottidi":3368,"Ġkashtam":3369,"Ġibbandi":3370,"istadu":3371,"Ġvyavahar":3372,"utr":3373,"eema":3374,"Ġprathamika":3375,"Ġvellad":3376,"Ġlanu":3377,"Ġtagginchadaniki":3378,"pot":3379,"Ġbadhyata":3380,"Ġsambh":3381,"Ġbollywood":3382,"Ġcollector":3383,"act":3384,"iram":3385,"Ġtheesukovadam":3386,"Ġproc":3387,"Ġdoll":3388,"Ġcarbon":3389,"Ġcal":3390,"Ġ31":3391,"Ġmatalu":3392,"arindi":3393,"Ġjeevitam":3394,"undaga":3395,"Ġchandrabab":3396,"Ġmigilin":3397,"Ġnirdh":3398,"Ġparigan":3399,"Ġox":3400,"Ġprogram":3401,"Ġrasina":3402,"raham":3403,"Ġbrahm":3404,"Ġavakasalu":3405,"Ġpoint":3406,"Ġchur":3407,"Ġbat":3408,"ony":3409,"Ġvivar":3410,"Ġsast":3411,"Ġ199":3412,"Ġush":3413,"Ġshare":3414,"Ġwill":3415,"Ġmott":3416,"yoga":3417,"Ġsab":3418,"Ġinn":3419,"Ġcommittee":3420,"ering":3421,"anundi":3422,"Ġvam":3423,"Ġsoukary":3424,"Ġkash":3425,"Ġravadam":3426,"Ġjarugut":3427,"Ġlakshmi":3428,"laksh":3429,"Ġprayath":3430,"Ġtelugud":3431,"Ġcharcha":3432,"idhi":3433,"undane":3434,"yanu":3435,"Ġye":3436,"Ġnatinchina":3437,"Ġtweet":3438,"form":3439,"res":3440,"Ġmartu":3441,"bal":3442,"Ġbharatiya":3443,"araga":3444,"ition":3445,"land":3446,"Ġill":3447,"Ġsched":3448,"met":3449,"anallo":3450,"Ġu":3451,"Ġippati":3452,"Ġadanapu":3453,"Ġkaryad":3454,"Ġtholag":3455,"Ġardam":3456,"inanta":3457,"Ġneti":3458,"Ġayanaku":3459,"Ġbreak":3460,"oru":3461,"Ġkritam":3462,"Ġfri":3463,"Ġkurma":3464,"Ġchitra":3465,"Ġmid":3466,"rata":3467,"Ġthagg":3468,"Ġspec":3469,"Ġvishayalu":3470,"Ġinterv":3471,"Ġkala":3472,"Ġcricket":3473,"Ġkallu":3474,"Ġ35":3475,"ely":3476,"Ġcharg":3477,"Ġpettubadi":3478,"Ġraddu":3479,"Ġnumber":3480,"Ġhycort":3481,"Ġjail":3482,"Ġsamsk":3483,"amo":3484,"Ġadhun":3485,"Ġchitranni":3486,"Ġmobile":3487,"Ġopen":3488,"Ġamb":3489,"ular":3490,"Ġvela":3491,"Ġmohan":3492,"Ġnindi":3493,"Ġmanag":3494,"Ġvacc":3495,"Ġoper":3496,"Ġ2014":3497,"Ġcomments":3498,"Ġvisw":3499,"anir":3500,"Ġbook":3501,"Ġthallidandr":3502,"Ġgari":3503,"rak":3504,"Ġbath":3505,"Ġdhar":3506,"Ġraitulu":3507,"ones":3508,"avutundi":3509,"Ġenter":3510,"Ġkov":3511,"Ġmaarindi":3512,"ushi":3513,"Ġparishkar":3514,"Ġnirmata":3515,"Ġtisukuni":3516,"Ġundadu":3517,"Ġjap":3518,"Ġkooda":3519,"Ġpraja":3520,"ayo":3521,"Ġkanna":3522,"Ġjabita":3523,"imchi":3524,"Ġswat":3525,"Ġuddesh":3526,"Ġmarik":3527,"Ġsangeet":3528,"Ġtayari":3529,"incham":3530,"asala":3531,"Ġlif":3532,"anunnaru":3533,"alayam":3534,"Ġtamaku":3535,"Ġakatt":3536,"lish":3537,"Ġakkadi":3538,"ayalanu":3539,"Ġabb":3540,"lim":3541,"Ġkothaga":3542,"Ġjarugutundi":3543,"Ġemit":3544,"Ġkalipi":3545,"Ġkeel":3546,"Ġpodi":3547,"Ġvyavasaya":3548,"Ġsunn":3549,"Ġketa":3550,"Ġsim":3551,"Ġnin":3552,"Ġseva":3553,"jan":3554,"Ġsulbh":3555,"ency":3556,"Ġsinimacu":3557,"ench":3558,"Ġsk":3559,"itive":3560,"adda":3561,"asanam":3562,"Ġvyu":3563,"Ġmunde":3564,"Ġjarup":3565,"eto":3566,"dip":3567,"Ġtechnology":3568,"Ġmanchidi":3569,"Ġschool":3570,"incadam":3571,"Ġatyadh":3572,"Ġany":3573,"urn":3574,"undhi":3575,"Ġprasiddh":3576,"Ġjanasena":3577,"ian":3578,"Ġveganga":3579,"Ġanduku":3580,"Ġvijaya":3581,"uloni":3582,"apaduth":3583,"abadd":3584,"Ġcharm":3585,"acch":3586,"Ġlevu":3587,"udaina":3588,"Ġanugunanga":3589,"Ġnut":3590,"Ġchivariki":3591,"Ġkudi":3592,"Ġunnappudu":3593,"andra":3594,"Ġshil":3595,"Ġfam":3596,"Ġtelipindi":3597,"Ġdayton":3598,"Ġpalgonnaru":3599,"istam":3600,"Ġjarige":3601,"ipe":3602,"Ġgramamlo":3603,"Ġbudh":3604,"Ġeveraina":3605,"Ġticket":3606,"Ġcall":3607,"Ġsiniman":3608,"Ġmot":3609,"Ġcur":3610,"ayina":3611,"Ġaaru":3612,"Ġvenak":3613,"Ġanumatistundi":3614,"Ġyad":3615,"ranti":3616,"Ġvart":3617,"Ġsanth":3618,"Ġmerugine":3619,"Ġchesenduku":3620,"Ġrab":3621,"Ġthappakunda":3622,"Ġgurthu":3623,"Ġindust":3624,"rut":3625,"Ġnamun":3626,"Ġokaru":3627,"Ġvyaktulu":3628,"Ġcheppindi":3629,"Ġpratipad":3630,"eeksha":3631,"Ġnyay":3632,"indo":3633,"arata":3634,"ister":3635,"Ġbadhit":3636,"Ġmriti":3637,"Ġvicharana":3638,"Ġsayantram":3639,"Ġscreen":3640,"Ġpadam":3641,"asa":3642,"Ġcolle":3643,"Ġhel":3644,"Ġillu":3645,"Ġing":3646,"Ġsamarp":3647,"evadu":3648,"port":3649,"Ġsif":3650,"adaalu":3651,"Ġinternet":3652,"Ġragh":3653,"Ġkurch":3654,"Ġbrand":3655,"Ġgunt":3656,"alem":3657,"abadindi":3658,"Ġmel":3659,"Ġprocess":3660,"Ġpatha":3661,"avya":3662,"Ġnirvahana":3663,"Ġbla":3664,"babu":3665,"Ġpurush":3666,"Ġsamsthalu":3667,"Ġprayanam":3668,"ola":3669,"Ġtelugudesam":3670,"eshwar":3671,"agalig":3672,"Ġsett":3673,"Ġvidyarthulu":3674,"yadu":3675,"Ġmatch":3676,"Ġkarnat":3677,"Ġgud":3678,"Ġshat":3679,"Ġoffice":3680,"Ġlag":3681,"Ġroddu":3682,"Ġveru":3683,"Ġgar":3684,"anato":3685,"Ġivvandi":3686,"Ġchadav":3687,"vad":3688,"Ġpratyekanga":3689,"Ġperag":3690,"mp":3691,"ections":3692,"Ġdon":3693,"Ġkavachu":3694,"Ġmudd":3695,"Ġgurtimpu":3696,"Ġarjun":3697,"ating":3698,"Ġhrud":3699,"andist":3700,"undu":3701,"Ġayindi":3702,"itter":3703,"Ġasakt":3704,"dani":3705,"Ġishtam":3706,"Ġmodel":3707,"anthanga":3708,"ran":3709,"ult":3710,"Ġvelli":3711,"Ġfrom":3712,"az":3713,"Ġpartick":3714,"Ġmunduga":3715,"ld":3716,"hair":3717,"Ġnun":3718,"isari":3719,"Ġvastuv":3720,"akavar":3721,"Ġpres":3722,"Ġnirodh":3723,"yanto":3724,"Ġedem":3725,"Ġ2016":3726,"Ġupa":3727,"thamandi":3728,"Ġdv":3729,"enc":3730,"Ġvyadh":3731,"Ġteevranga":3732,"Ġchikk":3733,"ivers":3734,"Ġkalush":3735,"Ġnetha":3736,"opatu":3737,"Ġpakistan":3738,"Ġchesukunna":3739,"Ġvaik":3740,"ware":3741,"Ġvak":3742,"ator":3743,"Ġlink":3744,"Ġmarketing":3745,"Ġsambandhita":3746,"Ġvaaram":3747,"Ġati":3748,"Ġkurs":3749,"Ġchairman":3750,"Ġsus":3751,"Ġbhartha":3752,"work":3753,"Ġtanik":3754,"avaraku":3755,"avv":3756,"adincharu":3757,"ural":3758,"ief":3759,"Ġ45":3760,"Ġprayathnam":3761,"Ġameku":3762,"Ġprakatincharu":3763,"Ġteliyadu":3764,"Ġmodat":3765,"Ġtheer":3766,"Ġsangga":3767,"unnam":3768,"Ġwor":3769,"Ġrythu":3770,"Ġandhr":3771,"atini":3772,"aph":3773,"Ġivvadam":3774,"Ġnerch":3775,"Ġsahaja":3776,"occh":3777,"inanduku":3778,"Ġswamy":3779,"Ġkonchem":3780,"ataku":3781,"Ġband":3782,"Ġcheppi":3783,"Ġseason":3784,"Ġamod":3785,"let":3786,"sp":3787,"Ġvunna":3788,"Ġsrik":3789,"Ġpakala":3790,"Ġnay":3791,"Ġundaga":3792,"ally":3793,"Ġlon":3794,"Ġhecch":3795,"Ġvarl":3796,"ineni":3797,"Ġtananu":3798,"Ġtidi":3799,"Ġdhanyava":3800,"avy":3801,"alaki":3802,"Ġheroga":3803,"Ġpadhi":3804,"Ġsangeetham":3805,"Ġerpad":3806,"Ġtwara":3807,"Ġchudandi":3808,"Ġrahas":3809,"Ġprabhavanni":3810,"Ġdoh":3811,"Ġnaaku":3812,"Ġchattam":3813,"Ġnirmana":3814,"eme":3815,"Ġfol":3816,"Ġcharan":3817,"unnanu":3818,"Ġamericas":3819,"Ġpaddati":3820,"ute":3821,"Ġkhachchitanga":3822,"Ġmanishi":3823,"bad":3824,"Ġnaidu":3825,"Ġadr":3826,"uli":3827,"Ġsamasyalanu":3828,"unam":3829,"Ġvachayi":3830,"Ġtwaraga":3831,"Ġai":3832,"Ġkrindi":3833,"Ġthisukunna":3834,"Ġnem":3835,"Ġbala":3836,"uss":3837,"Ġadhine":3838,"Ġshow":3839,"Ġsanuk":3840,"aja":3841,"Ġnirup":3842,"Ġteer":3843,"Ġreal":3844,"Ġpann":3845,"Ġduk":3846,"Ġandari":3847,"Ġpaddath":3848,"Ġnani":3849,"Ġbir":3850,"Ġsuchisthundi":3851,"Ġdarshakatvamlo":3852,"ities":3853,"Ġdhanyavaadaalu":3854,"Ġetuvanti":3855,"Ġred":3856,"Ġkrushi":3857,"Ġmumbai":3858,"Ġont":3859,"Ġcomputer":3860,"Ġep":3861,"Ġcey":3862,"Ġpadavi":3863,"Ġwe":3864,"Ġvyaparam":3865,"arulanu":3866,"Ġudaharanaku":3867,"uram":3868,"Ġjal":3869,"pand":3870,"Ġfiryadu":3871,"bo":3872,"Ġchept":3873,"Ġdigital":3874,"Ġchanipoy":3875,"Ġvimarsalu":3876,"Ġrupamlo":3877,"Ġsund":3878,"arane":3879,"uralu":3880,"chchi":3881,"Ġparyaveksh":3882,"andha":3883,"Ġchil":3884,"apt":3885,"ex":3886,"Ġprathip":3887,"amainadi":3888,"odve":3889,"Ġtwitter":3890,"Ġreserv":3891,"Ġsambhash":3892,"Ġ60":3893,"Ġayinappatiki":3894,"Ġmarok":3895,"Ġpunarut":3896,"Ġchalamandi":3897,"Ġput":3898,"Ġishtapad":3899,"Ġkathalu":3900,"Ġnachch":3901,"Ġrakshana":3902,"Ġmangalavaram":3903,"Ġjati":3904,"Ġpriy":3905,"Ġinterview":3906,"Ġkalap":3907,"tific":3908,"esa":3909,"Ġatu":3910,"eg":3911,"Ġakram":3912,"uz":3913,"Ġvias":3914,"otu":3915,"ayudu":3916,"ujan":3917,"Ġguruvaram":3918,"Ġinf":3919,"Ġghat":3920,"Ġchal":3921,"Ġpog":3922,"Ġvedika":3923,"Ġjoh":3924,"ogle":3925,"antam":3926,"Ġsudh":3927,"Ġthappu":3928,"aledani":3929,"Ġthad":3930,"imchindi":3931,"Ġjeevithamlo":3932,"Ġshir":3933,"Ġbrit":3934,"Ġpanichey":3935,"Ġnedu":3936,"Ġkaryalayam":3937,"ukon":3938,"Ġsamavesham":3939,"Ġpondina":3940,"Ġod":3941,"Ġwar":3942,"Ġtu":3943,"Ġsard":3944,"Ġdarakh":3945,"Ġmil":3946,"Ġsanniv":3947,"Ġprantham":3948,"Ġvipl":3949,"ilanu":3950,"Ġappati":3951,"avani":3952,"Ġrajakeey":3953,"Ġtelugulo":3954,"Ġmuslim":3955,"Ġmrit":3956,"Ġvere":3957,"Ġchesukuni":3958,"anksh":3959,"Ġidhi":3960,"Ġbhavodve":3961,"Ġphoto":3962,"lor":3963,"Ġity":3964,"thamga":3965,"Ġparisthitulu":3966,"Ġdegr":3967,"Ġphali":3968,"Ġ500":3969,"Ġmos":3970,"Ġindian":3971,"Ġaropanal":3972,"Ġpurog":3973,"Ġundedi":3974,"apuram":3975,"Ġmedh":3976,"Ġavut":3977,"Ġpranthamlo":3978,"arning":3979,"Ġsiddanga":3980,"Ġsampradaya":3981,"ew":3982,"abadina":3983,"agaa":3984,"ajj":3985,"Ġamenu":3986,"inchabadutundi":3987,"Ġpaluv":3988,"Ġtadvara":3989,"Ġpositive":3990,"tar":3991,"Ġyantr":3992,"cle":3993,"Ġstre":3994,"mir":3995,"Ġover":3996,"Ġparishkaram":3997,"Ġpark":3998,"ochu":3999,"uttu":4000,"Ġveldadincharu":4001,"Ġkanuka":4002,"ivaraku":4003,"Ġpakkana":4004,"Ġmanth":4005,"Ġvais":4006,"Ġarch":4007,"Ġnilva":4008,"Ġsamarthyam":4009,"oot":4010,"Ġsarlu":4011,"anici":4012,"Ġpramad":4013,"Ġbahum":4014,"Ġprantallo":4015,"Ġneetini":4016,"Ġnelala":4017,"ows":4018,"Ġnirvahincharu":4019,"Ġshast":4020,"Ġnerp":4021,"Ġprer":4022,"Ġvif":4023,"onic":4024,"anivaram":4025,"Ġpatralo":4026,"ukr":4027,"Ġtalk":4028,"avut":4029,"Ġhead":4030,"Ġhouse":4031,"Ġupadhy":4032,"Ġprabhas":4033,"Ġada":4034,"Ġrakt":4035,"Ġnan":4036,"Ġdooramga":4037,"Ġataniki":4038,"ater":4039,"aindi":4040,"Ġmaranimch":4041,"Ġblack":4042,"Ġpampini":4043,"arl":4044,"Ġksham":4045,"otion":4046,"Ġgay":4047,"Ġdrisht":4048,"Ġgoogle":4049,"inchaledu":4050,"esday":4051,"Ġadhinetha":4052,"Ġrendava":4053,"Ġrachayita":4054,"Ġbhinn":4055,"Ġdars":4056,"Ġavv":4057,"Ġathi":4058,"Ġdong":4059,"Ġunnatlu":4060,"Ġbaruvu":4061,"Ġkritr":4062,"mohan":4063,"Ġphalithamga":4064,"yamani":4065,"Ġsamvatsaram":4066,"Ġunivers":4067,"Ġsuraksh":4068,"Ġlakshmanalu":4069,"Ġprayojanalu":4070,"eth":4071,"icipal":4072,"yamn":4073,"Ġpustakam":4074,"askar":4075,"Ġmugguru":4076,"Ġclass":4077,"kot":4078,"Ġkaryakalap":4079,"Ġsury":4080,"Ġchesthondi":4081,"Ġcount":4082,"Ġker":4083,"anum":4084,"Ġloki":4085,"Ġsantr":4086,"Ġjeevitha":4087,"Ġsaman":4088,"Ġkhan":4089,"nadu":4090,"nal":4091,"upati":4092,"ession":4093,"avela":4094,"Ġnell":4095,"Ġchait":4096,"ivaaram":4097,"udiga":4098,"Ġrangu":4099,"daniki":4100,"itiki":4101,"arulaku":4102,"abett":4103,"Ġkri":4104,"Ġsamavesamlo":4105,"gen":4106,"adarsh":4107,"Ġsamardyanni":4108,"Ġveduk":4109,"Ġmunicipal":4110,"Ġshanivaram":4111,"Ġadv":4112,"Ġprastav":4113,"ination":4114,"Ġgatti":4115,"Ġravi":4116,"Ġblog":4117,"Ġprom":4118,"ender":4119,"Ġta":4120,"Ġbidd":4121,"anthi":4122,"Ġik":4123,"Ġaaya":4124,"Ġact":4125,"Ġvivarincharu":4126,"Ġdhair":4127,"Ġlead":4128,"Ġanduvalla":4129,"Ġspecial":4130,"Ġkort":4131,"ttp":4132,"apadi":4133,"zar":4134,"Ġgurl":4135,"Ġval":4136,"Ġpravarth":4137,"Ġpetty":4138,"Ġkhat":4139,"Ġmr":4140,"inar":4141,"Ġdill":4142,"Ġrek":4143,"arinchi":4144,"Ġpratyamn":4145,"Ġekkad":4146,"Ġboss":4147,"inchinatlu":4148,"Ġvaras":4149,"Ġsuc":4150,"ident":4151,"ipoyina":4152,"Ġpratinidh":4153,"atanga":4154,"Ġaadivaaram":4155,"ithi":4156,"akarinch":4157,"Ġhatya":4158,"Ġlog":4159,"Ġpeddaga":4160,"vesh":4161,"Ġneru":4162,"Ġmuk":4163,"Ġdirgh":4164,"agalu":4165,"Ġpradhanyata":4166,"analoki":4167,"inchadamlo":4168,"Ġtrump":4169,"Ġakkad":4170,"Ġemitante":4171,"ures":4172,"Ġnadip":4173,"Ġcab":4174,"Ġprakriyanu":4175,"enti":4176,"Ġpillala":4177,"Ġfi":4178,"Ġgang":4179,"Ġrajin":4180,"eena":4181,"akul":4182,"Ġstart":4183,"Ġvibhagam":4184,"Ġaward":4185,"Ġgamanimch":4186,"Ġadav":4187,"Ġpass":4188,"Ġvikr":4189,"Ġmukhya":4190,"Ġsthap":4191,"Ġpaiki":4192,"Ġchitraniki":4193,"evaro":4194,"Ġveed":4195,"Ġsarfara":4196,"cc":4197,"inav":4198,"Ġsuchincharu":4199,"Ġmandalam":4200,"ekapoy":4201,"Ġpaata":4202,"Ġhttp":4203,"Ġmanush":4204,"aranni":4205,"ograp":4206,"Ġoffic":4207,"ubb":4208,"Ġseet":4209,"asim":4210,"tc":4211,"Ġudyogam":4212,"Ġvaadu":4213,"Ġsens":4214,"Ġphotos":4215,"Ġnizaniki":4216,"Ġsrishtinchandi":4217,"arasht":4218,"Ġnaga":4219,"padaka":4220,"Ġennical":4221,"Ġbhayam":4222,"thula":4223,"ralu":4224,"Ġchenn":4225,"wada":4226,"Ġaar":4227,"Ġamy":4228,"ikanu":4229,"inchabadindi":4230,"artham":4231,"amloni":4232,"Ġnashtam":4233,"Ġunnaayani":4234,"andu":4235,"Ġwind":4236,"Ġchief":4237,"Ġkritrima":4238,"Ġnational":4239,"ukuntundi":4240,"Ġnopp":4241,"Ġkop":4242,"Ġsamasyanu":4243,"arilo":4244,"apudu":4245,"Ġprapanchamlo":4246,"Ġ198":4247,"Ġsiv":4248,"Ġnagarj":4249,"ainadi":4250,"Ġyajaman":4251,"Ġyuddham":4252,"Ġamit":4253,"yaptanga":4254,"Ġprabhutvaaniki":4255,"Ġconf":4256,"Ġteas":4257,"Ġammay":4258,"atik":4259,"apy":4260,"Ġott":4261,"Ġceyadam":4262,"Ġchush":4263,"Ġtaragati":4264,"Ġalayam":4265,"Ġdirghakal":4266,"Ġsainik":4267,"Ġodi":4268,"Ġjarip":4269,"Ġupayoginche":4270,"anka":4271,"akkuva":4272,"Ġabhivrud":4273,"Ġkind":4274,"Ġandinch":4275,"Ġvastunna":4276,"Ġnetwork":4277,"raz":4278,"Ġelectr":4279,"Ġangikr":4280,"wal":4281,"abade":4282,"Ġ2011":4283,"Ġchesukovadam":4284,"ask":4285,"edy":4286,"Ġnizam":4287,"Ġcam":4288,"Ġent":4289,"Ġlot":4290,"Ġshubh":4291,"Ġkary":4292,"Ġdakshina":4293,"Ġsol":4294,"Ġstation":4295,"Ġboard":4296,"Ġsulbhamga":4297,"Ġvaiv":4298,"Ġtallived":4299,"ej":4300,"Ġshr":4301,"Ġaag":4302,"Ġrajadh":4303,"ral":4304,"Ġteliya":4305,"annam":4306,"Ġlakshyam":4307,"nagar":4308,"istanu":4309,"Ġkaryadarshi":4310,"Ġref":4311,"Ġkesulo":4312,"raddh":4313,"Ġedurkont":4314,"achchu":4315,"Ġhindu":4316,"Ġumm":4317,"Ġsen":4318,"Ġabhimanulu":4319,"Ġramesh":4320,"Ġfriend":4321,"ffic":4322,"Ġnerugaa":4323,"akamaina":4324,"Ġnella":4325,"Ġrom":4326,"isindi":4327,"Ġaust":4328,"Ġkanipistundi":4329,"epu":4330,"ishk":4331,"Ġvers":4332,"Ġallu":4333,"Ġadhyayanam":4334,"elli":4335,"Ġsandeh":4336,"Ġtala":4337,"Ġrate":4338,"Ġkonthamandi":4339,"Ġchakr":4340,"Ġgaj":4341,"ray":4342,"Ġokasari":4343,"Ġneeku":4344,"Ġmatl":4345,"Ġellappudu":4346,"Ġcheptt":4347,"alak":4348,"Ġmatt":4349,"atala":4350,"Ġannie":4351,"Ġpanchay":4352,"unde":4353,"andariki":4354,"antra":4355,"Ġtrack":4356,"Ġjam":4357,"Ġhindi":4358,"Ġkont":4359,"araju":4360,"Ġshankar":4361,"Ġbangal":4362,"Ġhir":4363,"Ġenti":4364,"Ġconnect":4365,"Ġmak":4366,"Ġsthanamlo":4367,"Ġmigata":4368,"Ġbalah":4369,"ivey":4370,"imb":4371,"Ġprajalanu":4372,"Ġnirnayalu":4373,"Ġtak":4374,"Ġjarugutunna":4375,"aly":4376,"anunna":4377,"Ġpublic":4378,"Ġchett":4379,"Ġmokkalu":4380,"Ġnirvahinchadaniki":4381,"mika":4382,"ative":4383,"varyam":4384,"Ġchesukunn":4385,"Ġthisukuv":4386,"tel":4387,"Ġbur":4388,"anamaina":4389,"ists":4390,"Ġpaper":4391,"andaru":4392,"Ġparip":4393,"Ġtelisina":4394,"Ġkane":4395,"Ġvelt":4396,"Ġthisukov":4397,"Ġjagrathaga":4398,"Ġbeng":4399,"inet":4400,"Ġfilmib":4401,"akur":4402,"Ġkaryakarth":4403,"Ġveetini":4404,"Ġcareer":4405,"och":4406,"Ġket":4407,"Ġgaman":4408,"Ġlas":4409,"Ġguntur":4410,"Ġnen":4411,"Ġpi":4412,"Ġjour":4413,"aster":4414,"oomi":4415,"Ġsabha":4416,"Ġtisukoni":4417,"Ġsamvatsaralu":4418,"Ġfilmibeat":4419,"ory":4420,"Ġic":4421,"apari":4422,"Ġandy":4423,"Ġmog":4424,"Ġterak":4425,"Ġemail":4426,"pett":4427,"Ġsigns":4428,"ild":4429,"aranaku":4430,"yana":4431,"Ġundataniki":4432,"Ġspashtanga":4433,"Ġkramam":4434,"Ġess":4435,"Ġannadi":4436,"Ġlakshman":4437,"Ġprayatnalu":4438,"Ġupayoga":4439,"Ġpradhananga":4440,"Ġsl":4441,"yoth":4442,"Ġswantha":4443,"Ġlook":4444,"Ġvanij":4445,"Ġhami":4446,"Ġichche":4447,"analato":4448,"Ġautom":4449,"Ġokavela":4450,"Ġunnaa":4451,"Ġalas":4452,"Ġvijayayam":4453,"Ġfac":4454,"Ġtelanganalo":4455,"kh":4456,"Ġcode":4457,"edda":4458,"Ġteliyaj":4459,"obh":4460,"Ġlekapote":4461,"arig":4462,"Ġjanam":4463,"Ġviram":4464,"chandra":4465,"Ġapple":4466,"rav":4467,"Ġpaluvuru":4468,"Ġundalani":4469,"Ġkadal":4470,"antamaina":4471,"Ġcheppadam":4472,"achesi":4473,"Ġgattiga":4474,"ubatu":4475,"Ġnaatiki":4476,"Ġvayas":4477,"arapadi":4478,"Ġibbandulu":4479,"fi":4480,"yakaramaina":4481,"Ġprayojanam":4482,"Ġmic":4483,"Ġshail":4484,"Ġkoduku":4485,"Ġnimp":4486,"Ġ36":4487,"Ġstock":4488,"Ġteem":4489,"Ġ2015":4490,"akriya":4491,"Ġgul":4492,"Ġsamrakshana":4493,"Ġgodavari":4494,"Ġprashans":4495,"isi":4496,"oledu":4497,"Ġbhariga":4498,"alsinde":4499,"akshmi":4500,"Ġpalgon":4501,"Ġswayanga":4502,"Ġperigina":4503,"Ġdharalu":4504,"Ġ32":4505,"Ġathadu":4506,"air":4507,"Ġvivaham":4508,"Ġagn":4509,"Ġabhinand":4510,"Ġnammakam":4511,"Ġbhary":4512,"Ġclick":4513,"Ġchain":4514,"Ġsahakar":4515,"Ġsamm":4516,"Ġchann":4517,"aptanga":4518,"Ġcontent":4519,"Ġbalam":4520,"Ġshash":4521,"Ġol":4522,"Ġtom":4523,"Ġfeat":4524,"Ġunnappatiki":4525,"Ġpratyekamaina":4526,"Ġmen":4527,"Ġgelich":4528,"Ġmaddat":4529,"akula":4530,"Ġshraddh":4531,"Ġarh":4532,"loy":4533,"Ġtvaralo":4534,"Ġmega":4535,"aloki":4536,"utam":4537,"down":4538,"Ġichchi":4539,"Ġchotu":4540,"Ġkilomet":4541,"Ġsadhinch":4542,"Ġparikshalu":4543,"__":4544,"ayye":4545,"urthy":4546,"Ġkalige":4547,"Ġpatralu":4548,"arapad":4549,"Ġprayan":4550,"Ġpettina":4551,"avyaaptanga":4552,"Ġtadit":4553,"iness":4554,"ipti":4555,"Ġparij":4556,"Ġgun":4557,"ulan":4558,"Ġmarut":4559,"Ġvarilo":4560,"ret":4561,"Ġglo":4562,"Ġthirug":4563,"Ġsthirmine":4564,"Ġlokesh":4565,"Ġruch":4566,"Ġpoth":4567,"Ġsil":4568,"ium":4569,"Ġpel":4570,"annadi":4571,"inal":4572,"ataram":4573,"Ġbl":4574,"Ġly":4575,"Ġsevalu":4576,"Ġjohn":4577,"Ġdust":4578,"kam":4579,"agan":4580,"haa":4581,"Ġdebbat":4582,"Ġprachar":4583,"ipett":4584,"Ġnizanga":4585,"Ġdorik":4586,"Ġivanni":4587,"araniki":4588,"Ġsadup":4589,"Ġraitulaku":4590,"Ġsaksh":4591,"anne":4592,"ivv":4593,"Ġprakrithi":4594,"atte":4595,"Ġsifars":4596,"Ġchesukovadaniki":4597,"Ġlakshyanga":4598,"athul":4599,"Ġhom":4600,"Ġnik":4601,"eva":4602,"alle":4603,"Ġnind":4604,"Ġchetilo":4605,"Ġartic":4606,"uck":4607,"Ġwas":4608,"Ġsaadhyam":4609,"Ġkalug":4610,"uvari":4611,"Ġteesuk":4612,"Ġpandi":4613,"Ġvill":4614,"untayi":4615,"Ġpannu":4616,"Ġshukr":4617,"Ġ2013":4618,"alanna":4619,"alloni":4620,"Ġkavadanto":4621,"ision":4622,"kk":4623,"Ġtur":4624,"itini":4625,"Ġbom":4626,"Ġappag":4627,"Ġadaim":4628,"ih":4629,"Ġsannivesh":4630,"Ġichchindi":4631,"Ġchudali":4632,"Ġniyantrana":4633,"Ġdollars":4634,"Ġanumath":4635,"itra":4636,"abhoomi":4637,"Ġkand":4638,"Ġsrujan":4639,"Ġelectric":4640,"Ġcle":4641,"Ġcheppuk":4642,"rao":4643,"Ġporad":4644,"Ġmitr":4645,"Ġprashnincharu":4646,"ugane":4647,"Ġprapanchavyaaptanga":4648,"Ġadharapadi":4649,"Ġjanabha":4650,"adupari":4651,"Ġkavali":4652,"Ġvyaptanga":4653,"pl":4654,"Ġsekarinch":4655,"Ġvachindi":4656,"inchukov":4657,"Ġvellina":4658,"Ġmahilalu":4659,"Ġsangam":4660,"Ġpatalu":4661,"Ġteemramaina":4662,"uvv":4663,"Ġsomavaaram":4664,"incharani":4665,"Ġmeet":4666,"udiki":4667,"Ġperkondi":4668,"Ġmanthr":4669,"Ġnait":4670,"Ġmarinni":4671,"Ġoxy":4672,"Ġshah":4673,"Ġdary":4674,"Ġyerp":4675,"Ġseries":4676,"uti":4677,"antara":4678,"Ġ01":4679,"Ġlight":4680,"Ġworld":4681,"alth":4682,"Ġchettu":4683,"impulu":4684,"ody":4685,"pet":4686,"Ġahara":4687,"Ġsayam":4688,"Ġbharatades":4689,"akudadu":4690,"Ġtirig":4691,"Ġysr":4692,"attulo":4693,"Ġrachayit":4694,"Ġvaddi":4695,"Ġupayoginchavachchu":4696,"Ġali":4697,"Ġsamarthavantanga":4698,"Ġemmely":4699,"Ġsuccess":4700,"aras":4701,"Ġnor":4702,"Ġaatm":4703,"Ġparanga":4704,"Ġneet":4705,"Ġanarog":4706,"Ġaction":4707,"Ġamsalanu":4708,"Ġpop":4709,"Ġpolitical":4710,"Ġmudi":4711,"Ġcheck":4712,"Ġbayal":4713,"Ġpakka":4714,"Ġnall":4715,"Ġayyindi":4716,"Ġpettaru":4717,"Ġbrundam":4718,"idhanga":4719,"Ġandinche":4720,"Ġnatudu":4721,"Ġsaaksh":4722,"Ġ2012":4723,"Ġsakh":4724,"overg":4725,"Ġprayojanalanu":4726,"Ġnarendra":4727,"Ġorder":4728,"Ġhaj":4729,"uches":4730,"Ġvedh":4731,"utti":4732,"ataru":4733,"Ġneozec":4734,"Ġanukulanga":4735,"Ġavunu":4736,"Ġmachine":4737,"Ġpathakam":4738,"Ġthappanis":4739,"Ġmarie":4740,"apalli":4741,"Ġgarbh":4742,"aleni":4743,"Ġvint":4744,"nog":4745,"Ġsite":4746,"Ġvelug":4747,"Ġgro":4748,"Ġparisodh":4749,"Ġkl":4750,"Ġvidesi":4751,"Ġjeevitanni":4752,"Ġgadd":4753,"Ġmart":4754,"aite":4755,"Ġbodh":4756,"Ġham":4757,"Ġmahamm":4758,"avadi":4759,"Ġippativaraku":4760,"Ġkshet":4761,"Ġasth":4762,"Ġrajdh":4763,"aswamy":4764,"Ġ80":4765,"Ġden":4766,"Ġsthalam":4767,"akata":4768,"Ġabhiprayam":4769,"Ġthadit":4770,"Ġtakkuvaga":4771,"Ġeen":4772,"Ġparigananaloki":4773,"adini":4774,"Ġank":4775,"ulik":4776,"Ġreview":4777,"Ġstory":4778,"Ġundavachchu":4779,"Ġappude":4780,"elop":4781,"10":4782,"Ġprakatinchindi":4783,"Ġjarugutondi":4784,"ukunenduku":4785,"inchani":4786,"arshana":4787,"Ġcheyab":4788,"vey":4789,"Ġpary":4790,"anapai":4791,"Ġanti":4792,"Ġmeant":4793,"Ġghatana":4794,"Ġlopala":4795,"Ġparidhilo":4796,"Ġdabbulu":4797,"'t":4798,"anlo":4799,"Ġbedi":4800,"Ġum":4801,"Ġpartilo":4802,"Ġoxygen":4803,"abdam":4804,"agiri":4805,"Ġshukravaaram":4806,"Ġjo":4807,"Ġokari":4808,"Ġinc":4809,"Ġantar":4810,"Ġnidra":4811,"ukovaali":4812,"Ġhis":4813,"anduna":4814,"erm":4815,"Ġpage":4816,"Ġinv":4817,"Ġaarop":4818,"Ġmaharasht":4819,"Ġengineering":4820,"allanu":4821,"Ġgeneral":4822,"Ġtej":4823,"Ġsangeeta":4824,"Ġnunche":4825,"50":4826,"Ġapello":4827,"ugh":4828,"Ġprag":4829,"Ġedemaina":4830,"Ġentr":4831,"Ġphalitam":4832,"apurv":4833,"Ġkathan":4834,"Ġanub":4835,"Ġkaryakramalu":4836,"Ġgananiyamaina":4837,"Ġteg":4838,"etha":4839,"Ġsaral":4840,"Ġtaggistundi":4841,"Ġ37":4842,"ikam":4843,"igam":4844,"Ġvinod":4845,"Ġreport":4846,"Ġtrans":4847,"akaramaina":4848,"Ġgaali":4849,"Ġvisesh":4850,"Ġtrail":4851,"Ġsalah":4852,"Ġmodaline":4853,"Ġchitralu":4854,"Ġavine":4855,"ority":4856,"Ġgood":4857,"Ġgor":4858,"avidyal":4859,"Ġaap":4860,"Ġsu":4861,"Ġcan":4862,"Ġayyaru":4863,"Ġvatilo":4864,"Ġphalitalu":4865,"Ġvenakki":4866,"Ġmeg":4867,"avalasina":4868,"Ġ2009":4869,"wari":4870,"Ġcheppali":4871,"ait":4872,"inapp":4873,"Ġgaani":4874,"Ġdesala":4875,"Ġpattinchuk":4876,"Ġushnog":4877,"Ġvalas":4878,"Ġadhikari":4879,"Ġemploy":4880,"illo":4881,"Ġvarma":4882,"Ġnanna":4883,"ky":4884,"Ġanusarinch":4885,"ipoyaru":4886,"Ġpunj":4887,"Ġparisram":4888,"Ġentho":4889,"Ġtri":4890,"Ġdate":4891,"Ġneozecoverg":4892,"Ġpilust":4893,"Ġdayachesi":4894,"Ġundandi":4895,"Ġtvaralone":4896,"Ġec":4897,"edia":4898,"Ġrajinama":4899,"Ġgunde":4900,"Ġpravah":4901,"Ġtamilnadu":4902,"Ġkalasala":4903,"put":4904,"aruga":4905,"Ġspusht":4906,"Ġcommunication":4907,"Ġkrit":4908,"unaku":4909,"Ġadag":4910,"atmakanga":4911,"Ġesari":4912,"ucch":4913,"ulaina":4914,"Ġkarnataka":4915,"Ġsamayanni":4916,"Ġshar":4917,"Ġteliyaz":4918,"Ġdevelop":4919,"Ġrodd":4920,"Ġbhojanam":4921,"ubali":4922,"van":4923,"Ġunnadi":4924,"Ġporatam":4925,"Ġcheyabadina":4926,"Ġsweekarinch":4927,"Ġalg":4928,"Ġgovernor":4929,"akudiga":4930,"Ġtaditara":4931,"Ġ70":4932,"ullu":4933,"avuthundi":4934,"aver":4935,"Ġuttar":4936,"Ġguj":4937,"Ġvaipu":4938,"Ġcontr":4939,"Ġistundi":4940,"astic":4941,"estundi":4942,"Ġhave":4943,"Ġyog":4944,"Ġhari":4945,"kalu":4946,"Ġvenn":4947,"ayyayi":4948,"Ġaash":4949,"istunnayi":4950,"Ġktar":4951,"Ġnutan":4952,"Ġdakh":4953,"Ġudg":4954,"za":4955,"load":4956,"iriga":4957,"gane":4958,"Ġchetulu":4959,"Ġest":4960,"Ġempical":4961,"aliki":4962,"Ġnished":4963,"Ġkukk":4964,"Ġprekshakula":4965,"Ġnellie":4966,"istr":4967,"Ġlearning":4968,"Ġvivarana":4969,"Ġlife":4970,"Ġandamaina":4971,"ipov":4972,"Ġsty":4973,"angh":4974,"Ġ197":4975,"ulla":4976,"Ġviluvaina":4977,"Ġsuresh":4978,"Ġtelisindi":4979,"Ġready":4980,"Ġnillu":4981,"Ġperigindi":4982,"Ġparimitam":4983,"Ġtanikhi":4984,"Ġkat":4985,"rali":4986,"Ġpergu":4987,"Ġsoftware":4988,"Ġnagarjuna":4989,"ispand":4990,"Ġayye":4991,"Ġkavit":4992,"Ġkish":4993,"Ġtem":4994,"Ġmanj":4995,"Ġrakamaina":4996,"Ġland":4997,"Ġshak":4998,"illu":4999,"Ġbox":5000,"Ġarogyakaramaina":5001,"Ġthaditarulu":5002,"Ġvitt":5003,"ba":5004,"Ġplat":5005,"Ġfans":5006,"Ġmanchu":5007,"Ġjattu":5008,"adame":5009,"Ġandinchandi":5010,"Ġbrind":5011,"Ġudyoga":5012,"ries":5013,"Ġbij":5014,"Ġekanga":5015,"Ġsound":5016,"inchanu":5017,"anaga":5018,"Ġvyasam":5019,"Ġyevaro":5020,"Ġperugutunna":5021,"Ġupayoginchandi":5022,"Ġakkade":5023,"amandi":5024,"Ġrahad":5025,"Ġsamantha":5026,"Ġdesalu":5027,"Ġchr":5028,"Ġkak":5029,"Ġgiri":5030,"Ġnemm":5031,"esadu":5032,"Ġthr":5033,"Ġandaj":5034,"Ġjournal":5035,"Ġchopp":5036,"Ġchesarani":5037,"Ġgreat":5038,"agu":5039,"Ġeduru":5040,"Ġ33":5041,"Ġthakkuva":5042,"Ġvaccharu":5043,"Ġprarambha":5044,"Ġcanc":5045,"Ġteliyani":5046,"Ġterakekk":5047,"Ġvayida":5048,"Ġchaalaa":5049,"Ġfull":5050,"Ġsaari":5051,"Ġpadindi":5052,"Ġsarkar":5053,"Ġummadi":5054,"Ġtalu":5055,"Ġindhan":5056,"Ġsanukula":5057,"uke":5058,"Ġ2010":5059,"Ġbalahin":5060,"Ġantekadu":5061,"ady":5062,"Ġitu":5063,"Ġvatiki":5064,"tice":5065,"Ġbusiness":5066,"Ġdirghakalika":5067,"Ġsecond":5068,"Ġball":5069,"Ġdus":5070,"agalanu":5071,"Ġpareeksha":5072,"Ġvind":5073,"akudi":5074,"aste":5075,"Ġsach":5076,"Ġakhil":5077,"Ġcharya":5078,"Ġvantivi":5079,"Ġaadhvaryam":5080,"Ġvidhananni":5081,"Ġfollow":5082,"Ġhealth":5083,"Ġanandam":5084,"Ġvaram":5085,"inchu":5086,"avasara":5087,"Ġpolch":5088,"Ġamsalu":5089,"alonu":5090,"Ġfamily":5091,"Ġnayakudu":5092,"inchabadina":5093,"Ġcenter":5094,"osp":5095,"Ġprarambhincharu":5096,"Ġvyavaharam":5097,"ede":5098,"Ġchesukunnaru":5099,"roid":5100,"Ġasupatri":5101,"Ġcham":5102,"Ġsontha":5103,"inchadanto":5104,"Ġschedule":5105,"Ġpanulanu":5106,"Ġnipunulu":5107,"arac":5108,"Ġmass":5109,"Ġtraffic":5110,"oku":5111,"ruth":5112,"Ġvyuh":5113,"Ġnidhulu":5114,"Ġvecch":5115,"Ġpanitir":5116,"Ġsanthosh":5117,"su":5118,"Ġlove":5119,"Ġviniyogadarulu":5120,"Ġvaccine":5121,"Ġdevudu":5122,"Ġdhor":5123,"Ġservice":5124,"Ġbho":5125,"istamani":5126,"Ġcurr":5127,"Ġvijayawada":5128,"Ġvatavaran":5129,"arinchadam":5130,"osa":5131,"Ġansham":5132,"Ġbed":5133,"Ġmaat":5134,"adhik":5135,"Ġgantalu":5136,"Ġaaropincharu":5137,"Ġcheta":5138,"Ġpuj":5139,"Ġvol":5140,"Ġparsh":5141,"allone":5142,"opp":5143,"Ġmaha":5144,"Ġvisakh":5145,"Ġneel":5146,"eeth":5147,"Ġalochanalu":5148,"ici":5149,"eeda":5150,"Ġchesanu":5151,"Ġveluv":5152,"Ġseen":5153,"Ġbudhavaaram":5154,"Ġandinchadam":5155,"Ġadhikanga":5156,"Ġdohadam":5157,"Ġchivaraku":5158,"Ġpunarutpadaka":5159,"Ġaustrali":5160,"Ġmina":5161,"Ġmanasu":5162,"gani":5163,"Ġharish":5164,"Ġvisesham":5165,"Ġanubhava":5166,"ire":5167,"Ġrajdhani":5168,"Ġdist":5169,"Ġcherch":5170,"ananto":5171,"Ġmadhyaah":5172,"Ġadhigam":5173,"kekk":5174,"Ġmath":5175,"Ġekkuv":5176,"apadd":5177,"Ġanvesh":5178,"akapov":5179,"Ġnadust":5180,"Ġanuvarth":5181,"iday":5182,"Ġnirvahinchina":5183,"Ġ2022":5184,"Ġlekapovadam":5185,"Ġnann":5186,"arak":5187,"Ġspushtamaina":5188,"Ġasaktik":5189,"uddam":5190,"Ġperugutundi":5191,"Ġgramanici":5192,"Ġpraveshapett":5193,"Ġins":5194,"atma":5195,"Ġvyadhi":5196,"Ġdruk":5197,"Ġpaathas":5198,"Ġvima":5199,"Ġanumati":5200,"Ġbritish":5201,"Ġakas":5202,"dy":5203,"Ġvarn":5204,"Ġrythula":5205,"usha":5206,"Ġenim":5207,"meeru":5208,"de":5209,"Ġsarirak":5210,"Ġjav":5211,"Ġ05":5212,"ww":5213,"Ġraledu":5214,"Ġprajaswam":5215,"Ġsankhyalo":5216,"Ġchesukov":5217,"Ġlockdown":5218,"Ġpadh":5219,"old":5220,"Ġokko":5221,"Ġbomm":5222,"arus":5223,"Ġandhrabhoomi":5224,"avulu":5225,"Ġivvadaniki":5226,"Ġpillalaku":5227,"Ġanukunna":5228,"Ġpratikula":5229,"Ġnis":5230,"Ġprabhutvaalu":5231,"oli":5232,"Ġpaint":5233,"Ġemployees":5234,"hari":5235,"Ġmess":5236,"Ġrakam":5237,"Ġcarl":5238,"Ġjok":5239,"Ġspeak":5240,"Ġsurvey":5241,"Ġtaginanta":5242,"Ġsinimallo":5243,"Ġvinn":5244,"Ġswag":5245,"ekar":5246,"poyindi":5247,"Ġkathin":5248,"ishn":5249,"Ġsug":5250,"ondaru":5251,"Ġbalanga":5252,"Ġoffer":5253,"apaddaru":5254,"Ġparishodhana":5255,"Ġvastavaniki":5256,"Ġledo":5257,"endr":5258,"Ġchantr":5259,"Ġsadhinchina":5260,"adalu":5261,"Ġnars":5262,"ashala":5263,"Ġnimishalu":5264,"Ġchennai":5265,"Ġinduku":5266,"Ġvitilo":5267,"Ġtarget":5268,"Ġedu":5269,"Ġbangaru":5270,"Ġsulabham":5271,"Ġbharatadesam":5272,"arayana":5273,"Ġhad":5274,"Ġdanipai":5275,"se":5276,"Ġammayi":5277,"Ġkolp":5278,"edo":5279,"Ġvyavasthanu":5280,"thanga":5281,"Ġpoliste":5282,"Ġintell":5283,"Ġveeru":5284,"Ġokkaru":5285,"Ġbu":5286,"Ġentertain":5287,"ishtamaina":5288,"Ġnindit":5289,"Ġ04":5290,"Ġoor":5291,"Ġpenchadaniki":5292,"iroju":5293,"Ġsark":5294,"Ġpay":5295,"Ġrashtrala":5296,"Ġtara":5297,"Ġteliv":5298,"Ġkaledu":5299,"Ġchesukundi":5300,"esina":5301,"Ġtell":5302,"Ġparisthitullo":5303,"ikram":5304,"Ġvatch":5305,"istunnaayi":5306,"Ġmeruguparachadaniki":5307,"Ġti":5308,"Ġchor":5309,"Ġgadu":5310,"Ġrajamo":5311,"Ġsarip":5312,"Ġsankship":5313,"Ġpettadam":5314,"Ġellu":5315,"Ġsong":5316,"ishta":5317,"Ġos":5318,"Ġmatladaru":5319,"Ġvenuk":5320,"Ġbedir":5321,"Ġsanni":5322,"Ġsandarbhamlo":5323,"odd":5324,"Ġchesinatlu":5325,"Ġbhavana":5326,"Ġuni":5327,"aralaku":5328,"eetha":5329,"Ġnarasim":5330,"Ġmut":5331,"aruk":5332,"otsavam":5333,"wan":5334,"achchi":5335,"Ġ34":5336,"Ġsrishtinchadaniki":5337,"Ġamerican":5338,"aranam":5339,"Ġvyapti":5340,"Ġivvalani":5341,"Ġkaranalu":5342,"Ġfun":5343,"atriki":5344,"adag":5345,"Ġtudi":5346,"ipoyi":5347,"Ġposted":5348,"Ġmadiriga":5349,"Ġprakash":5350,"Ġthadupari":5351,"ahubali":5352,"amanam":5353,"ubadi":5354,"Ġmish":5355,"Ġcbi":5356,"ilaku":5357,"aval":5358,"Ġcoff":5359,"Ġdasalo":5360,"Ġprathispand":5361,"Ġanipistundi":5362,"Ġadhunika":5363,"Ġvacche":5364,"Ġhor":5365,"Ġadharit":5366,"18":5367,"Ġtarv":5368,"Ġsamuh":5369,"Ġjuni":5370,"Ġchesukovachu":5371,"Ġnizamaina":5372,"Ġabhipray":5373,"Ġmudo":5374,"Ġputtina":5375,"Ġ09":5376,"Ġrecords":5377,"Ġparishkarinchadaniki":5378,"Ġtelusaa":5379,"Ġsontham":5380,"Ġnom":5381,"ope":5382,"Ġjaganmohan":5383,"Ġsankshema":5384,"Ġerpatlu":5385,"Ġsamyog":5386,"Ġvasulu":5387,"Ġchay":5388,"Ġchustu":5389,"Ġstories":5390,"Ġveeri":5391,"istundani":5392,"Ġviparit":5393,"Ġvitam":5394,"elly":5395,"Ġthipp":5396,"Ġdhr":5397,"Ġbhavistunnaru":5398,"Ġanth":5399,"Ġchev":5400,"Ġwebsite":5401,"akapovadam":5402,"Ġge":5403,"arustundi":5404,"Ġatuvanti":5405,"opy":5406,"Ġmor":5407,"utunnadu":5408,"ney":5409,"Ġchoop":5410,"Ġbadhyatalu":5411,"Ġkoh":5412,"Ġ08":5413,"apoy":5414,"Ġgame":5415,"Ġ196":5416,"Ġdeliv":5417,"Ġgir":5418,"Ġbhaut":5419,"Ġshap":5420,"Ġterkekk":5421,"Ġgurtunch":5422,"Ġappatlo":5423,"Ġsutr":5424,"sar":5425,"oxide":5426,"go":5427,"Ġassist":5428,"Ġrojuvari":5429,"Ġgantalaku":5430,"Ġcraz":5431,"Ġkumart":5432,"Ġsha":5433,"Ġcavalani":5434,"Ġwww":5435,"Ġvyakhyan":5436,"Ġmiss":5437,"Ġclo":5438,"Ġpoti":5439,"Ġbahula":5440,"Ġvishranti":5441,"Ġpunarud":5442,"si":5443,"Ġpanta":5444,"Ġpracre":5445,"Ġsarih":5446,"Ġisuk":5447,"Ġkeer":5448,"Ġtedin":5449,"Ġmodalupett":5450,"ject":5451,"Ġtaksh":5452,"Ġrangam":5453,"anjanya":5454,"Ġjapan":5455,"Ġvyat":5456,"Ġenny":5457,"Ġpondadaniki":5458,"Ġkhali":5459,"Ġchebut":5460,"Ġsanchalana":5461,"Ġdaka":5462,"appa":5463,"Ġlax":5464,"Ġexp":5465,"avanthanga":5466,"Ġperson":5467,"Ġmusic":5468,"alanam":5469,"Ġkaka":5470,"ondimch":5471,"Ġchoosina":5472,"Ġroy":5473,"Ġprayanik":5474,"Ġaccount":5475,"Ġkang":5476,"edit":5477,"Ġvelle":5478,"Ġ02":5479,"Ġvibhinna":5480,"Ġchow":5481,"Ġwhere":5482,"Ġ03":5483,"inchatam":5484,"Ġkashmir":5485,"Ġpolitics":5486,"Ġsaktiv":5487,"Ġadugu":5488,"utha":5489,"Ġchalu":5490,"rol":5491,"gai":5492,"Ġhazar":5493,"inchaga":5494,"Ġvruddhi":5495,"Ġprathipaksh":5496,"Ġintellig":5497,"Ġthisukunnaru":5498,"Ġtidipi":5499,"Ġrajadhani":5500,"Ġbull":5501,"Ġthisukovalani":5502,"Ġuk":5503,"Ġkuk":5504,"Ġjeevana":5505,"ambh":5506,"à¤":5507,"paddaru":5508,"Ġmadhyalo":5509,"ikala":5510,"Ġwik":5511,"Ġdeshv":5512,"abhavam":5513,"Ġmahammari":5514,"ekh":5515,"upett":5516,"Ġkumarudu":5517,"Ġcharchalu":5518,"Ġtriv":5519,"ipoyayi":5520,"inchukunna":5521,"Ġvibhajana":5522,"Ġkom":5523,"ert":5524,"Ġ90":5525,"Ġamal":5526,"Ġdamp":5527,"Ġpour":5528,"Ġtelustundi":5529,"Ġbahiranga":5530,"Ġraja":5531,"Ġtheat":5532,"Ġmothamlo":5533,"Ġcoric":5534,"isthu":5535,"ny":5536,"Ġpranalu":5537,"Ġpaathasalas":5538,"Ġprasiddha":5539,"Ġhoda":5540,"sah":5541,"Ġuchita":5542,"shi":5543,"Ġpatrika":5544,"Ġteaser":5545,"Ġbharti":5546,"Ġsaid":5547,"Ġsoukaryam":5548,"Ġsamag":5549,"Ġabhyas":5550,"Ġvyayamam":5551,"inchela":5552,"ime":5553,"Ġvigrah":5554,"ayallo":5555,"gar":5556,"Ġmargadarsh":5557,"Ġgaurav":5558,"Ġgroup":5559,"Ġvivaralanu":5560,"Ġvidyarthulaku":5561,"min":5562,"Ġmary":5563,"Ġuppu":5564,"Ġupadhi":5565,"Ġamaz":5566,"Ġanchanalu":5567,"Ġvanarula":5568,"Ġsrey":5569,"Ġrojuna":5570,"Ġbadha":5571,"Ġvarsham":5572,"arity":5573,"amannaru":5574,"Ġrupond":5575,"Ġbak":5576,"Ġundhaa":5577,"Ġjiv":5578,"Ġenchukondi":5579,"Ġdeshvyaptanga":5580,"Ġsinimato":5581,"Ġmant":5582,"Ġrtc":5583,"Ġ07":5584,"Ġadhikaramloki":5585,"Ġpanichese":5586,"Ġjunior":5587,"Ġkoddiga":5588,"Ġvidud":5589,"aranalu":5590,"Ġpasupu":5591,"Ġdioxide":5592,"Ġkaligistundi":5593,"Ġvishayalanu":5594,"Ġmik":5595,"Ġsandes":5596,"Ġsanketik":5597,"Ġstate":5598,"Ġghan":5599,"avo":5600,"Ġsupport":5601,"Ġchesukunt":5602,"arannaru":5603,"Ġnep":5604,"Ġrashtrallo":5605,"Ġsala":5606,"Ġrojuku":5607,"Ġsubb":5608,"Ġatanni":5609,"Ġvarusagaa":5610,"aptu":5611,"Ġneraver":5612,"Ġkamal":5613,"Ġbaduluga":5614,"Ġsaram":5615,"ince":5616,"ams":5617,"Ġdaggar":5618,"Ġsak":5619,"isk":5620,"Ġatip":5621,"Ġtab":5622,"agaram":5623,"chey":5624,"andhra":5625,"ulani":5626,"ulone":5627,"atone":5628,"Ġiroju":5629,"Ġcel":5630,"Ġkharchulu":5631,"Ġroom":5632,"Ġmottam":5633,"Ġ48":5634,"Ġperugudala":5635,"Ġdegree":5636,"asad":5637,"avanni":5638,"Ġcheyagala":5639,"Ġunder":5640,"Ġatyadhika":5641,"Ġunited":5642,"Ġdaryaptu":5643,"Ġnirasana":5644,"Ġparisheel":5645,"Ġeenadu":5646,"Ġpenchutundi":5647,"Ġpodav":5648,"Ġsinimala":5649,"Ġwater":5650,"Ġchota":5651,"wn":5652,"Ġentry":5653,"Ġvastuvulu":5654,"Ġvenkatesh":5655,"Ġnemmadiga":5656,"af":5657,"Ġbav":5658,"Ġpranalika":5659,"yi":5660,"Ġchakka":5661,"Ġspandana":5662,"Ġbalakrishna":5663,"atva":5664,"inchada":5665,"Ġnirantaram":5666,"Ġanu":5667,"Ġdach":5668,"itch":5669,"ikalo":5670,"Ġnelalo":5671,"Ġcoffee":5672,"Ġevent":5673,"Ġmosam":5674,"Ġgl":5675,"Ġget":5676,"Ġpaduthundi":5677,"Ġvishvas":5678,"avariki":5679,"Ġhosp":5680,"Ġdet":5681,"ecchi":5682,"ilone":5683,"avat":5684,"Ġsamskruth":5685,"Ġcheek":5686,"Ġoppandam":5687,"maina":5688,"Ġanukunn":5689,"Ġeduruch":5690,"akum":5691,"Ġnext":5692,"padindi":5693,"agaru":5694,"Ġannam":5695,"Ġcomment":5696,"Ġeur":5697,"Ġbest":5698,"Ġsansthala":5699,"Ġrajamouli":5700,"Ġupayogistaru":5701,"Ġgnap":5702,"Ġwed":5703,"Ġmadyam":5704,"ayindi":5705,"Ġtable":5706,"Ġdrug":5707,"Ġvastunnayi":5708,"Ġmaatlad":5709,"intini":5710,"Ġvimarsimcharu":5711,"Ġavishk":5712,"Ġ38":5713,"Ġdishaga":5714,"Ġdrukpath":5715,"Ġaata":5716,"angu":5717,"Ġbhart":5718,"Ġyour":5719,"Ġpetti":5720,"ives":5721,"Ġarm":5722,"Ġamaravathi":5723,"adem":5724,"tices":5725,"Ġpic":5726,"Ġunnarani":5727,"rik":5728,"Ġninna":5729,"Ġswachch":5730,"Ġvargalu":5731,"ever":5732,"Ġteesi":5733,"Ġsevalanu":5734,"Ġcover":5735,"ishna":5736,"Ġnig":5737,"Ġsamathul":5738,"acher":5739,"Ġkarth":5740,"Ġraboye":5741,"Ġ75":5742,"inchalsina":5743,"Ġatag":5744,"Ġsok":5745,"Ġkaj":5746,"mani":5747,"Ġsas":5748,"Ġgudi":5749,"akanksh":5750,"Ġpradhanam":5751,"Ġbayalud":5752,"Ġbandi":5753,"Ġsharma":5754,"inchakunda":5755,"Ġpri":5756,"Ġpress":5757,"uko":5758,"Ġcomb":5759,"Ġbalaiah":5760,"Ġched":5761,"Ġpratisht":5762,"Ġplastic":5763,"Ġabhyarthi":5764,"Ġmaga":5765,"istunnadu":5766,"Ġsupren":5767,"Ġvotu":5768,"Ġaj":5769,"Ġmaulik":5770,"Ġblock":5771,"unnara":5772,"Ġuparit":5773,"Ġtagginchadam":5774,"yanam":5775,"oham":5776,"Ġradh":5777,"Ġlaksham":5778,"Ġob":5779,"Ġdaily":5780,"Ġcommissioner":5781,"ento":5782,"ulaki":5783,"Ġevaina":5784,"anak":5785,"Ġarogyam":5786,"anduku":5787,"erial":5788,"Ġkilometers":5789,"Ġantarg":5790,"Ġ06":5791,"Ġnivedika":5792,"Ġbangalore":5793,"Ġvyavasayam":5794,"Ġsriram":5795,"Ġvaddaku":5796,"Ġtrailer":5797,"Ġchem":5798,"Ġradi":5799,"uld":5800,"Ġpoly":5801,"Ġpanichestundhi":5802,"Ġsamskruthika":5803,"Ġvarito":5804,"Ġ150":5805,"Ġ42":5806,"Ġcheyakunda":5807,"ayamlo":5808,"Ġya":5809,"Ġtirug":5810,"Ġsamudra":5811,"Ġpilustaru":5812,"12":5813,"Ġrath":5814,"Ġdw":5815,"Ġbangaram":5816,"Ġwarangal":5817,"Ġvyarth":5818,"pping":5819,"Ġjeet":5820,"Ġnanyata":5821,"Ġcredit":5822,"Ġpradhany":5823,"Ġyuva":5824,"Ġminchi":5825,"Ġhand":5826,"atanni":5827,"Ġrani":5828,"Ġsrust":5829,"Ġdelivery":5830,"Ġbagundi":5831,"onni":5832,"Ġmaruthundi":5833,"Ġakarshani":5834,"Ġ300":5835,"varu":5836,"Ġchakkaga":5837,"Ġvayasu":5838,"Ġvadi":5839,"Ġdaari":5840,"Ġsamyogakriya":5841,"Ġpalan":5842,"Ġpiluv":5843,"aranalo":5844,"Ġvastayi":5845,"Ġnarayana":5846,"Ġchoost":5847,"ants":5848,"Ġudyogalu":5849,"Ġbhinnanga":5850,"ech":5851,"avuth":5852,"Ġdashabd":5853,"ikaga":5854,"istunnanu":5855,"Ġprint":5856,"Ġatipedda":5857,"Ġrachana":5858,"avai":5859,"Ġsalaha":5860,"Ġituvanti":5861,"Ġadarsh":5862,"Ġmukham":5863,"Ġsig":5864,"Ġnirvach":5865,"Ġchivaraga":5866,"Ġbann":5867,"avart":5868,"edana":5869,"Ġhost":5870,"inchinappudu":5871,"Ġfire":5872,"Ġjabitan":5873,"arananu":5874,"Ġdeenipai":5875,"Ġintelligence":5876,"Ġrashtrap":5877,"Ġlekha":5878,"ges":5879,"akante":5880,"Ġmarn":5881,"Ġviniyogadaru":5882,"eeni":5883,"Ġkindi":5884,"Ġcheyagal":5885,"tam":5886,"elailu":5887,"Ġ194":5888,"Ġtisukune":5889,"Ġcustomers":5890,"Ġrat":5891,"Ġsuchanalu":5892,"Ġcollege":5893,"Ġedug":5894,"Ġeff":5895,"uniki":5896,"ogal":5897,"ervare":5898,"Ġemmelailu":5899,"Ġpatranu":5900,"Ġokkas":5901,"Ġjillaloni":5902,"Ġgranth":5903,"Ġvayu":5904,"Ġrahadari":5905,"avadu":5906,"Ġ55":5907,"epp":5908,"Ġvag":5909,"itham":5910,"Ġvelugu":5911,"Ġpaday":5912,"Ġagr":5913,"Ġchepttina":5914,"Ġstates":5915,"Ġnela":5916,"Ġvishleshana":5917,"Ġpalik":5918,"Ġsud":5919,"Ġsid":5920,"unnayani":5921,"Ġphalitalanu":5922,"Ġsaj":5923,"Ġnaluguru":5924,"io":5925,"eld":5926,"kir":5927,"Ġlast":5928,"Ġparit":5929,"Ġpunar":5930,"Ġtirum":5931,"Ġgananiyanga":5932,"Ġpathak":5933,"Ġmadhyaahnam":5934,"manam":5935,"Ġapai":5936,"Ġwindows":5937,"nenu":5938,"uha":5939,"Ġviruddh":5940,"Ġkaalam":5941,"Ġgas":5942,"Ġyes":5943,"Ġundadam":5944,"opal":5945,"ept":5946,"Ġsanskriti":5947,"astar":5948,"Ġpuri":5949,"Ġnilip":5950,"Ġwervare":5951,"endi":5952,"Ġuttara":5953,"Ġpustakalu":5954,"Ġdush":5955,"Ġsahitya":5956,"atluga":5957,"Ġcherk":5958,"Ġnimag":5959,"Ġvanijya":5960,"hone":5961,"Ġpalak":5962,"Ġanusandh":5963,"Ġcheyabadindi":5964,"abi":5965,"Ġathadi":5966,"Ġbhavodveg":5967,"Ġvartha":5968,"Ġthallidandrulu":5969,"Ġpartiny":5970,"Ġmokka":5971,"Ġpaddathulanu":5972,"llo":5973,"Ġlekh":5974,"Ġbharatadesamlo":5975,"alitha":5976,"Ġkrinda":5977,"ize":5978,"Ġauto":5979,"ival":5980,"Ġexce":5981,"akatvam":5982,"bha":5983,"Ġvanarulanu":5984,"Ġcamera":5985,"Ġaaharana":5986,"Ġaagraham":5987,"Ġgrama":5988,"Ġceleb":5989,"utune":5990,"Ġpolling":5991,"inti":5992,"inchamani":5993,"Ġparisthitini":5994,"Ġlalo":5995,"alsindi":5996,"Ġmodalaindi":5997,"Ġanil":5998,"Ġkanipinche":5999,"Ġaccess":6000,"Ġshraddha":6001,"Ġmamm":6002,"Ġvo":6003,"asabh":6004,"Ġemito":6005,"utunnadi":6006,"Ġkanipistondi":6007,"Ġtrip":6008,"Ġmillion":6009,"Ġnaitika":6010,"Ġmond":6011,"Ġshatr":6012,"Ġlowe":6013,"Ġrajakeeyalu":6014,"Ġvayassu":6015,"Ġrepu":6016,"Ġprot":6017,"ahatya":6018,"elugu":6019,"Ġsamudram":6020,"Ġsecur":6021,"Ġcomedy":6022,"Ġninnu":6023,"Ġdarakhastu":6024,"Ġneev":6025,"Ġpariraksh":6026,"ontu":6027,"Ġdevuni":6028,"Ġces":6029,"Ġushnograta":6030,"Ġayi":6031,"Ġpadm":6032,"Ġsaf":6033,"30":6034,"Ġcheppe":6035,"Ġvastondi":6036,"atalanu":6037,"Ġsukh":6038,"luc":6039,"Ġlaw":6040,"ban":6041,"ivalla":6042,"Ġarogya":6043,"Ġanj":6044,"Ġudi":6045,"Ġachch":6046,"Ġardham":6047,"Ġvidesh":6048,"Ġbagane":6049,"ship":6050,"Ġcamp":6051,"Ġvaidyulu":6052,"Ġprasang":6053,"Ġproduction":6054,"Ġfeed":6055,"Ġappl":6056,"ulatho":6057,"ages":6058,"Ġbutt":6059,"apatu":6060,"Ġvidyarthi":6061,"Ġdand":6062,"Ġfeel":6063,"Ġavineeti":6064,"Ġroh":6065,"Ġundela":6066,"Ġsahakaram":6067,"Ġunnaadu":6068,"Ġadl":6069,"avutunna":6070,"Ġjad":6071,"utunnarani":6072,"kumar":6073,"Ġasvad":6074,"Ġvadda":6075,"Ġpanitiru":6076,"avutayi":6077,"Ġmaranam":6078,"antone":6079,"Ġvivah":6080,"adaina":6081,"ariksh":6082,"Ġchestamani":6083,"Ġvit":6084,"Ġvanarulu":6085,"udo":6086,"Ġkid":6087,"amloki":6088,"Ġ44":6089,"Ġchotla":6090,"unnattu":6091,"Ġsupreme":6092,"Ġsaktivantamaina":6093,"Ġfood":6094,"Ġpanduga":6095,"estunnaru":6096,"Ġsanjay":6097,"Ġvyavaharinch":6098,"Ġanipinchindi":6099,"Ġpon":6100,"Ġlabhisthundi":6101,"Ġpooja":6102,"Ġmail":6103,"ayakudu":6104,"Ġcancer":6105,"yale":6106,"Ġprekshakulanu":6107,"Ġmask":6108,"Ġpoyindi":6109,"yani":6110,"Ġaarogyam":6111,"Ġarud":6112,"ledu":6113,"Ġbarin":6114,"sin":6115,"ipoyadu":6116,"Ġvunte":6117,"Ġsadhyam":6118,"Ġsecret":6119,"Ġmaster":6120,"Ġbhuj":6121,"Ġkiran":6122,"aled":6123,"Ġnaksh":6124,"Ġdosh":6125,"Ġutpattulu":6126,"naku":6127,"Ġsahityam":6128,"Ġrevanth":6129,"Ġplatform":6130,"cp":6131,"Ġsush":6132,"ited":6133,"Ġbadili":6134,"Ġchoppuna":6135,"Ġadesimcharu":6136,"Ġadup":6137,"Ġspeaker":6138,"lore":6139,"Ġmm":6140,"Ġveyadam":6141,"Ġbhavishyattulo":6142,"par":6143,"alakshmi":6144,"agr":6145,"Ġvarlala":6146,"Ġpash":6147,"Ġtint":6148,"Ġshantr":6149,"asthanam":6150,"Ġbell":6151,"Ġandubatuloki":6152,"edite":6153,"inchukovadam":6154,"Ġnirlaksh":6155,"aseb":6156,"Ġglobal":6157,"Ġ2008":6158,"Ġkutumbaniki":6159,"atharu":6160,"Ġguri":6161,"Ġsagam":6162,"Ġsem":6163,"Ġlakshyalanu":6164,"Ġjus":6165,"Ġappud":6166,"Ġong":6167,"idini":6168,"utai":6169,"Ġhaty":6170,"askarinch":6171,"Ġprayatnam":6172,"Ġtemp":6173,"Ġnatimch":6174,"Ġotlu":6175,"Ġkosame":6176,"Ġevariki":6177,"Ġsuj":6178,"Ġprabhutvaanni":6179,"Ġsabhalo":6180,"fr":6181,"avettalu":6182,"ube":6183,"Ġsagatu":6184,"cch":6185,"Ġsex":6186,"Ġstud":6187,"Ġuser":6188,"Ġten":6189,"Ġokar":6190,"tions":6191,"Ġtiy":6192,"oksh":6193,"Ġsariga":6194,"atanam":6195,"Ġnagadu":6196,"lly":6197,"ivari":6198,"Ġparshara":6199,"Ġbhautika":6200,"Ġsandh":6201,"Ġfit":6202,"Ġparishodh":6203,"Ġuniversity":6204,"Ġpunaruddh":6205,"asekhar":6206,"Ġteli":6207,"Ġbhavishyathu":6208,"Ġvideos":6209,"Ġchedd":6210,"Ġ39":6211,"Ġvivadam":6212,"Ġdaggaraga":6213,"ayite":6214,"elaku":6215,"anubhut":6216,"Ġveelu":6217,"Ġkaryach":6218,"Ġparimanam":6219,"Ġbahusha":6220,"Ġandincadaniki":6221,"Ġanukuntunn":6222,"Ġvisip":6223,"Ġ52":6224,"uji":6225,"value":6226,"Ġkathanu":6227,"Ġdadulu":6228,"istunnarani":6229,"Ġanubhavanni":6230,"athalu":6231,"Ġthisukovali":6232,"Ġavat":6233,"Ġmatr":6234,"Ġveel":6235,"Ġgrameena":6236,"avalu":6237,"Ġpac":6238,"Ġchint":6239,"uty":6240,"appu":6241,"arthi":6242,"Ġandistai":6243,"orpu":6244,"atin":6245,"Ġunnatha":6246,"Ġnene":6247,"Ġaudio":6248,"Ġvalley":6249,"alalu":6250,"arge":6251,"ipoye":6252,"Ġamazon":6253,"Ġsatyan":6254,"Ġcp":6255,"Ġpanilo":6256,"arb":6257,"Ġcity":6258,"Ġprarth":6259,"Ġruchi":6260,"Ġlong":6261,"alaap":6262,"Ġravadanto":6263,"Ġtelusuk":6264,"Ġjuttu":6265,"Ġvesharu":6266,"Ġber":6267,"apadindi":6268,"akandi":6269,"avali":6270,"oddu":6271,"Ġsifarsu":6272,"ension":6273,"Ġtrivikram":6274,"ness":6275,"Ġcontrol":6276,"Ġsannih":6277,"Ġchestunnarani":6278,"Ġchedu":6279,"Ġdam":6280,"Ġpilup":6281,"Ġhm":6282,"Ġsurya":6283,"Ġardhika":6284,"utadu":6285,"Ġhai":6286,"Ġkshin":6287,"akavargam":6288,"tors":6289,"Ġnirvahinchadam":6290,"Ġvishwas":6291,"Ġvelu":6292,"Ġpetition":6293,"alad":6294,"apatr":6295,"Ġcheyaledu":6296,"Ġalavatu":6297,"esari":6298,"Ġundo":6299,"Ġdop":6300,"avalasi":6301,"Ġsthiti":6302,"Ġvellaru":6303,"Ġnett":6304,"Ġyadav":6305,"Ġgali":6306,"Ġfunction":6307,"inatluga":6308,"Ġkavitha":6309,"haram":6310,"ye":6311,"Ġikkadi":6312,"Ġnand":6313,"ution":6314,"Ġcharitraka":6315,"Ġraasi":6316,"Ġhapp":6317,"Ġandarini":6318,"Ġshopping":6319,"Ġpedu":6320,"Ġtane":6321,"aniyam":6322,"Ġvidudalaina":6323,"apam":6324,"indhi":6325,"Ġtext":6326,"Ġmett":6327,"Ġbeaut":6328,"Ġmarchu":6329,"Ġprakatinchina":6330,"Ġpapam":6331,"rih":6332,"Ġupadhyay":6333,"Ġyoung":6334,"Ġvaividh":6335,"Ġokkasariga":6336,"akalp":6337,"daru":6338,"Ġsiddhanta":6339,"Ġmandipaddaru":6340,"Ġlin":6341,"Ġthappudu":6342,"Ġlavad":6343,"Ġsusp":6344,"Ġkalakram":6345,"hay":6346,"Ġcut":6347,"Ġnirminchina":6348,"Ġkaryakalaap":6349,"Ġwho":6350,"ulanga":6351,"Ġneed":6352,"Ġkhayam":6353,"Ġkurag":6354,"Ġpin":6355,"Ġpalp":6356,"Ġchesukune":6357,"Ġmedical":6358,"Ġbreaking":6359,"Ġchakram":6360,"Ġshas":6361,"Ġcheppandi":6362,"Ġrojuluga":6363,"Ġadhikarika":6364,"fa":6365,"akas":6366,"ukuntadu":6367,"Ġkast":6368,"Ġtoorpu":6369,"Ġmothanni":6370,"atulu":6371,"Ġpanini":6372,"Ġvini":6373,"Ġgurtinchandi":6374,"patti":6375,"idevi":6376,"Ġthatt":6377,"Ġrakap":6378,"Ġsamiksha":6379,"Ġlakshmanalanu":6380,"Ġchel":6381,"Ġlond":6382,"Ġthank":6383,"Ġpettubadulu":6384,"Ġvilla":6385,"utunte":6386,"Ġsharm":6387,"Ġattavi":6388,"Ġnellore":6389,"Ġkramanga":6390,"Ġban":6391,"usth":6392,"adaga":6393,"Ġkoddi":6394,"Ġbhaktulu":6395,"Ġrajy":6396,"patu":6397,"Ġdesaniki":6398,"asp":6399,"Ġanant":6400,"Ġmood":6401,"Ġtarun":6402,"Ġnelalu":6403,"ual":6404,"antham":6405,"ij":6406,"ility":6407,"Ġtamm":6408,"Ġ195":6409,"tual":6410,"Ġnilabad":6411,"Ġtaraf":6412,"do":6413,"Ġvesh":6414,"shatam":6415,"ipedia":6416,"aname":6417,"orith":6418,"oci":6419,"Ġdoub":6420,"Ġavakasalanu":6421,"Ġà®":6422,"ekam":6423,"Ġbind":6424,"Ġcons":6425,"Ġgluc":6426,"Ġlaku":6427,"allonu":6428,"Ġadavi":6429,"uthu":6430,"Ġ49":6431,"Ġvyav":6432,"Ġokappudu":6433,"Ġvrutti":6434,"Ġcabinet":6435,"Ġcommer":6436,"Ġvruddh":6437,"Ġakka":6438,"Ġremake":6439,"Ġvuntundi":6440,"Ġjamm":6441,"indannaru":6442,"Ġnirnayinch":6443,"Ġdoctors":6444,"Ġbharati":6445,"gat":6446,"ven":6447,"Ġnara":6448,"Ġjanabh":6449,"Ġoohimch":6450,"Ġviniyogadarulaku":6451,"Ġugr":6452,"Ġnirmatalu":6453,"ift":6454,"Ġfree":6455,"Ġvasin":6456,"Ġtheerpu":6457,"Ġtup":6458,"Ġcheppalante":6459,"Ġvargam":6460,"Ġdisc":6461,"unnaayi":6462,"Ġrayandi":6463,"Ġsap":6464,"analapai":6465,"Ġleg":6466,"Ġmarina":6467,"Ġkalay":6468,"Ġpratiroju":6469,"Ġ43":6470,"Ġvras":6471,"Ġdakhalu":6472,"Ġmishram":6473,"Ġstore":6474,"Ġandaga":6475,"Ġlare":6476,"Ġsamraj":6477,"isa":6478,"Ġkuturu":6479,"Ġalgorith":6480,"Ġantargata":6481,"light":6482,"Ġpravart":6483,"15":6484,"Ġsmartph":6485,"Ġsarkaru":6486,"Ġcours":6487,"Ġfund":6488,"Ġgurtinchadaniki":6489,"Ġprekshakulu":6490,"Ġbor":6491,"intiki":6492,"Ġsamarthavantamaina":6493,"Ġpempond":6494,"isarlu":6495,"Ġportal":6496,"anicy":6497,"eenam":6498,"Ġuda":6499,"Ġjillallo":6500,"Ġthisukovdaniki":6501,"Ġpoints":6502,"Ġbadhapad":6503,"Ġpraves":6504,"Ġsahakarinch":6505,"ending":6506,"Ġinthaku":6507,"Ġcoun":6508,"ss":6509,"Ġcas":6510,"ukoledu":6511,"Ġmanthrulu":6512,"Ġgaji":6513,"Ġunchandi":6514,"Ġwikipedia":6515,"Ġiyana":6516,"Ġtirupati":6517,"viniyog":6518,"Ġkalup":6519,"Ġchesukondi":6520,"adev":6521,"Ġ47":6522,"Ġdarshanam":6523,"atvanni":6524,"Ġnizamabad":6525,"arham":6526,"asha":6527,"antunnaru":6528,"Ġarun":6529,"Ġdra":6530,"udr":6531,"Ġmanagement":6532,"ense":6533,"Ġabhivruddiki":6534,"Ġyoga":6535,"Ġuddes":6536,"Ġbow":6537,"sth":6538,"artha":6539,"Ġdag":6540,"Ġmelu":6541,"Ġkn":6542,"Ġassoci":6543,"kotta":6544,"itram":6545,"Ġvistita":6546,"Ġlist":6547,"Ġandinchina":6548,"Ġrajyas":6549,"Ġsarikotta":6550,"asthayi":6551,"Ġkhar":6552,"ele":6553,"anedi":6554,"Ġkonugol":6555,"aranna":6556,"Ġkarim":6557,"olog":6558,"Ġhttps":6559,"tech":6560,"Ġtev":6561,"avir":6562,"Ġmission":6563,"uravam":6564,"Ġmudr":6565,"Ġcm":6566,"Ġrupam":6567,"Ġif":6568,"Ġloc":6569,"Ġmothaniki":6570,"Ġalank":6571,"Ġjagrathalu":6572,"unnappudu":6573,"Ġdesamloni":6574,"Ġanubandh":6575,"Ġprarambhinch":6576,"adanam":6577,"Ġapram":6578,"Ġparugulu":6579,"Ġtandr":6580,"abadutundi":6581,"Ġvikray":6582,"sto":6583,"Ġmunduk":6584,"Ġudyamam":6585,"Ġdriver":6586,"Ġface":6587,"Ġisuka":6588,"Ġchesayi":6589,"Ġkhal":6590,"Ġright":6591,"akup":6592,"anand":6593,"arla":6594,"Ġsantripti":6595,"Ġ53":6596,"Ġmonday":6597,"ulam":6598,"Ġpresident":6599,"Ġdom":6600,"ety":6601,"Ġpettindi":6602,"Ġpiluvabade":6603,"Ġbeti":6604,"Ġvyaparalu":6605,"aparamaina":6606,"ible":6607,"Ġgener":6608,"Ġaz":6609,"Ġandanga":6610,"Ġandroid":6611,"ange":6612,"Ġkopam":6613,"Ġlonu":6614,"Ġprantala":6615,"Ġdownload":6616,"Ġeka":6617,"Ġdhan":6618,"Ġrashtraniki":6619,"Ġmahilala":6620,"Ġbhaj":6621,"Ġ46":6622,"Ġrupondimch":6623,"ae":6624,"Ġpratib":6625,"Ġedurkov":6626,"athanu":6627,"Ġbon":6628,"Ġuntadu":6629,"Ġasantr":6630,"Ġcolo":6631,"Ġdillilo":6632,"uthanga":6633,"Ġceyadanto":6634,"Ġlim":6635,"Ġmup":6636,"mah":6637,"Ġacc":6638,"Ġpilich":6639,"Ġettuna":6640,"Ġnach":6641,"Ġkohli":6642,"Ġpramukhyatanu":6643,"Ġpattana":6644,"ataga":6645,"Ġnivedik":6646,"Ġaschary":6647,"Ġphones":6648,"Ġneg":6649,"alsin":6650,"Ġsram":6651,"Ġkag":6652,"Ġdaggaraku":6653,"Ġappatike":6654,"Ġkakapote":6655,"Ġanuch":6656,"Ġnityam":6657,"Ġboy":6658,"Ġom":6659,"Ġdorak":6660,"Ġbaruv":6661,"Ġmost":6662,"Ġmatam":6663,"Ġmarust":6664,"Ġgraph":6665,"Ġloks":6666,"Ġrajakeeyallo":6667,"Ġpov":6668,"Ġ57":6669,"Ġchesukovali":6670,"Ġatmah":6671,"innam":6672,"aksham":6673,"Ġbhayapad":6674,"Ġseetlu":6675,"Ġlotaina":6676,"Ġpaur":6677,"Ġgadap":6678,"Ġsamanv":6679,"inj":6680,"uvulanu":6681,"Ġsambandhalu":6682,"Ġvandala":6683,"off":6684,"Ġundatanto":6685,"Ġidanta":6686,"istunnatlu":6687,"Ġdhruv":6688,"11":6689,"atyam":6690,"Ġhard":6691,"press":6692,"Ġghor":6693,"ganam":6694,"Ġvai":6695,"inchukunnaru":6696,"Ġbiy":6697,"Ġaush":6698,"Ġvrudd":6699,"Ġpanitirunu":6700,"Ġchih":6701,"Ġcheppukochch":6702,"Ġchent":6703,"yudi":6704,"Ġpratyaksha":6705,"Ġvaidy":6706,"Ġfriday":6707,"Ġmahill":6708,"Ġvadana":6709,"Ġhydr":6710,"Ġstree":6711,"alavari":6712,"Ġsamipamlo":6713,"Ġnimishala":6714,"Ġcheyalan":6715,"Ġsagu":6716,"ahar":6717,"Ġresp":6718,"Ġalgorithm":6719,"Ġchannel":6720,"Ġpach":6721,"agram":6722,"Ġadharapad":6723,"Ġchendindi":6724,"Ġmicr":6725,"Ġparu":6726,"Ġjar":6727,"Ġanumathimch":6728,"Ġnandi":6729,"Ġenni":6730,"Ġadesalu":6731,"nool":6732,"Ġprote":6733,"Ġvedikaga":6734,"uma":6735,"Ġ58":6736,"arinchindi":6737,"Ġchivar":6738,"Ġcontra":6739,"Ġgnanam":6740,"Ġepis":6741,"Ġkatch":6742,"allaku":6743,"Ġtirumala":6744,"Ġakh":6745,"Ġkerala":6746,"Ġrakunda":6747,"Ġvatavarananni":6748,"irn":6749,"Ġsut":6750,"Ġvine":6751,"Ġchekur":6752,"use":6753,"Ġdeval":6754,"Ġventa":6755,"Ġsthayiki":6756,"unnadani":6757,"Ġteliyak":6758,"umdani":6759,"Ġpeddalu":6760,"Ġhakku":6761,"Ġcherina":6762,"Ġamsampai":6763,"Ġthomm":6764,"Ġthey":6765,"Ġkaryakarthalu":6766,"este":6767,"Ġgamanarham":6768,"ugg":6769,"Ġvyaktit":6770,"akrishn":6771,"Ġpradhamika":6772,"Ġcaptain":6773,"Ġcommunic":6774,"ithanga":6775,"que":6776,"Ġbaahubali":6777,"Ġsoni":6778,"ekapot":6779,"Ġmegastar":6780,"Ġgunda":6781,"Ġtatkal":6782,"Ġsardubatu":6783,"Ġswadh":6784,"Ġbomb":6785,"apote":6786,"Ġchusina":6787,"Ġchudataniki":6788,"Ġrisk":6789,"Ġimage":6790,"Ġkalav":6791,"onnadu":6792,"Ġfinal":6793,"Ġtann":6794,"Ġdocum":6795,"Ġkhamm":6796,"sc":6797,"Ġvachadu":6798,"Ġrast":6799,"Ġchuddam":6800,"nesday":6801,"Ġpaddathulu":6802,"Ġaatmahatya":6803,"Ġenimidi":6804,"Ġrank":6805,"Ġanshalapai":6806,"unni":6807,"Ġproduct":6808,"Ġchiru":6809,"Ġfe":6810,"Ġflo":6811,"Ġtour":6812,"gi":6813,"Ġvesindi":6814,"Ġchakkera":6815,"Ġsambandha":6816,"Ġdevi":6817,"akankshalu":6818,"sw":6819,"ocol":6820,"Ġwednesday":6821,"asr":6822,"Ġanush":6823,"Ġchesukoni":6824,"Ġmanager":6825,"Ġsren":6826,"etter":6827,"Ġkharchulanu":6828,"Ġsuprencort":6829,"idy":6830,"udilly":6831,"Ġsankalp":6832,"Ġsankl":6833,"Ġmokkala":6834,"Ġkatchitanga":6835,"apatnam":6836,"Ġfix":6837,"Ġsamananga":6838,"Ġvyathireka":6839,"alk":6840,"Ġsamo":6841,"Ġgurtincharu":6842,"Ġtrain":6843,"ashi":6844,"Ġrajyam":6845,"Ġalso":6846,"Ġpromotion":6847,"Ġmaharashtra":6848,"Ġchestanu":6849,"Ġnirud":6850,"Ġvastuvulanu":6851,"ury":6852,"Ġvishakha":6853,"Ġpandlu":6854,"Ġnasanam":6855,"Ġsnehitulu":6856,"Ġdhairyam":6857,"Ġmunig":6858,"Ġgand":6859,"angana":6860,"Ġvyakhyanincharu":6861,"ws":6862,"Ġgudd":6863,"Ġtuesday":6864,"taur":6865,"mana":6866,"ys":6867,"Ġpradhanyam":6868,"Ġanumanam":6869,"Ġeverycy":6870,"Ġyajamani":6871,"Ġvitamin":6872,"Ġadhyat":6873,"Ġdubb":6874,"Ġkumarte":6875,"Ġneoj":6876,"Ġcer":6877,"Ġavutondi":6878,"Ġvirtual":6879,"Ġsahayapadatayi":6880,"per":6881,"Ġdirect":6882,"Ġli":6883,"ellalo":6884,"Ġkadil":6885,"Ġudyogula":6886,"Ġpratibimb":6887,"ishkarinch":6888,"achchani":6889,"Ġprapanchanni":6890,"Ġvijayanni":6891,"pulu":6892,"atadu":6893,"Ġematram":6894,"Ġpettukuni":6895,"Ġerr":6896,"Ġnidr":6897,"Ġrupondimchandi":6898,"Ġparisthitulanu":6899,"Ġoil":6900,"Ġrad":6901,"Ġutsah":6902,"umu":6903,"eyandi":6904,"Ġpradarshana":6905,"Ġgarv":6906,"Ġq":6907,"Ġarticle":6908,"urna":6909,"Ġtheeru":6910,"Ġsecurity":6911,"cl":6912,"agani":6913,"Ġyatra":6914,"Ġneudilly":6915,"Ġevol":6916,"ukunnayi":6917,"panch":6918,"edam":6919,"Ġ54":6920,"Ġsinimaki":6921,"Ġcurrent":6922,"ulak":6923,"Ġprades":6924,"Ġrana":6925,"Ġbel":6926,"Ġkavi":6927,"alannaru":6928,"pap":6929,"Ġkonnisarlu":6930,"Ġcorporate":6931,"Ġdinivalla":6932,"esariki":6933,"aracter":6934,"Ġippud":6935,"Ġ41":6936,"Ġdari":6937,"inchan":6938,"Ġ56":6939,"Ġudik":6940,"Ġganta":6941,"Ġling":6942,"Ġnilichindi":6943,"Ġanthaku":6944,"Ġaalas":6945,"Ġvachina":6946,"Ġben":6947,"apana":6948,"agrah":6949,"Ġvacchinappudu":6950,"Ġvendi":6951,"Ġvijj":6952,"Ġcentral":6953,"Ġ59":6954,"Ġadhikarula":6955,"Ġparijganam":6956,"Ġstudi":6957,"Ġupayogam":6958,"Ġakrama":6959,"avel":6960,"unny":6961,"ppudu":6962,"Ġkanipinchindi":6963,"Ġiddari":6964,"Ġrashtramloni":6965,"Ġhims":6966,"Ġnisch":6967,"Ġdatt":6968,"Ġperugud":6969,"Ġpaniki":6970,"atikappudu":6971,"Ġtisina":6972,"Ġpustak":6973,"Ġutpattulanu":6974,"Ġregistr":6975,"ets":6976,"Ġnovel":6977,"Ġbike":6978,"Ġkendramlo":6979,"Ġgadip":6980,"enue":6981,"utunnatlu":6982,"Ġdrushtilo":6983,"Ġranga":6984,"Ġgopal":6985,"Ġmmelly":6986,"Ġasadh":6987,"Ġoperation":6988,"Ġcounter":6989,"Ġpla":6990,"Ġvelladinchindi":6991,"avallu":6992,"inchukuni":6993,"Ġkaran":6994,"Ġpaniches":6995,"mee":6996,"agadam":6997,"Ġpadina":6998,"21":6999,"arath":7000,"Ġvunt":7001,"Ġsahayak":7002,"Ġsthitilo":7003,"aryn":7004,"utaku":7005,"Ġpuratana":7006,"Ġsanchalanam":7007,"Ġsahayapadataniki":7008,"Ġupdates":7009,"Ġkaneesa":7010,"Ġsnehith":7011,"Ġpettubadid":7012,"Ġichchadu":7013,"Ġsankshipta":7014,"lines":7015,"arinche":7016,"Ġsuv":7017,"raju":7018,"Ġgurlinchi":7019,"Ġblu":7020,"Ġvallaku":7021,"ography":7022,"Ġlaga":7023,"Ġvishn":7024,"Ġself":7025,"Ġswatch":7026,"avachchani":7027,"Ġshiksha":7028,"amsam":7029,"Ġsi":7030,"Ġchestunnadu":7031,"ukalu":7032,"Ġsath":7033,"shm":7034,"inilo":7035,"Ġsulabh":7036,"Ġvale":7037,"Ġennikalaku":7038,"Ġjabitalo":7039,"Ġthurs":7040,"Ġantariksh":7041,"Ġspo":7042,"Ġindustry":7043,"mandi":7044,"Ġnatistunna":7045,"Ġullangh":7046,"Ġvarth":7047,"amain":7048,"Ġravind":7049,"Ġmanass":7050,"Ġveyadaniki":7051,"Ġpramukhyata":7052,"amainavi":7053,"Ġalage":7054,"Ġsamasyal":7055,"Ġjustice":7056,"apill":7057,"Ġacadem":7058,"Ġvidyarthula":7059,"Ġnokk":7060,"Ġbayaluder":7061,"Ġrestaur":7062,"avetta":7063,"Ġasah":7064,"inchad":7065,"Ġvanda":7066,"Ġganank":7067,"Ġvastundani":7068,"Ġcool":7069,"Ġpurogati":7070,"oto":7071,"Ġassistant":7072,"Ġpattukuni":7073,"Ġkarimnagar":7074,"wa":7075,"ista":7076,"Ġvyaktula":7077,"unnai":7078,"Ġsandeham":7079,"ayanto":7080,"Ġbhu":7081,"oke":7082,"upad":7083,"nap":7084,"Ġvistatanga":7085,"Ġsanskrit":7086,"Ġveeti":7087,"Ġradd":7088,"Ġcorporation":7089,"Ġthursday":7090,"pal":7091,"Ġpalpad":7092,"Ġandincharu":7093,"Ġvarun":7094,"Ġvyaktiki":7095,"Ġvyaktini":7096,"Ġpens":7097,"Ġmalu":7098,"Ġcherindi":7099,"Ġvivek":7100,"Ġtaruv":7101,"Ġvikram":7102,"Ġprogramm":7103,"Ġcharacter":7104,"ipovadam":7105,"Ġlopu":7106,"Ġaustralia":7107,"mchi":7108,"Ġpindi":7109,"Ġtelup":7110,"Ġprasaram":7111,"Ġlavadev":7112,"Ġglucose":7113,"Ġvic":7114,"Ġheroine":7115,"Ġkarmikulu":7116,"Ġbijiga":7117,"Ġatyavasara":7118,"Ġrangamloki":7119,"Ġshirsh":7120,"Ġmudava":7121,"lin":7122,"ikalanu":7123,"agott":7124,"Ġdravy":7125,"ko":7126,"Ġkhachchitamaina":7127,"Ġswatantr":7128,"Ġarpadindi":7129,"argam":7130,"andamuri":7131,"Ġmotor":7132,"Ġlive":7133,"Ġvibhag":7134,"Ġtor":7135,"Ġlaunch":7136,"Ġhotel":7137,"Ġuday":7138,"Ġrashtrapati":7139,"Ġsoura":7140,"Ġeppatiki":7141,"Ġdy":7142,"Ġmain":7143,"Ġnimm":7144,"Ġvishayaniki":7145,"Ġrole":7146,"Ġdaritisindi":7147,"Ġchestunnayi":7148,"Ġsadar":7149,"achcha":7150,"Ġkoduk":7151,"Ġtoday":7152,"Ġmammalni":7153,"Ġbalo":7154,"Ġjatt":7155,"Ġtelisi":7156,"Ġversion":7157,"Ġtarafun":7158,"Ġsastriya":7159,"Ġvelladam":7160,"isha":7161,"Ġrajki":7162,"Ġanubhavam":7163,"Ġviniyogam":7164,"apat":7165,"Ġvyavasthalu":7166,"Ġchaduvu":7167,"Ġsantoshanga":7168,"avidyalayam":7169,"Ġavasaralu":7170,"ci":7171,"yuk":7172,"Ġmanug":7173,"elluga":7174,"Ġpeop":7175,"Ġpadarthalu":7176,"Ġcyber":7177,"Ġnayakatvam":7178,"Ġvign":7179,"Ġayyayi":7180,"Ġroad":7181,"Ġashok":7182,"apar":7183,"Ġsamakur":7184,"Ġnirvahinch":7185,"Ġperkon":7186,"Ġloney":7187,"Ġkritajj":7188,"Ġshank":7189,"okki":7190,"Ġcolleges":7191,"jana":7192,"Ġyatr":7193,"Ġantata":7194,"alasina":7195,"akapoyina":7196,"Ġoop":7197,"Ġityale":7198,"Ġkalasi":7199,"Ġkrim":7200,"Ġdaiv":7201,"Ġpanicheyadam":7202,"Ġvaidyam":7203,"yothi":7204,"nalu":7205,"Ġpranam":7206,"Ġudrik":7207,"Ġheccharyn":7208,"Ġanto":7209,"Ġvastavam":7210,"Ġkathanay":7211,"Ġkshanam":7212,"Ġthirch":7213,"Ġeffect":7214,"Ġkilakamaina":7215,"Ġhelp":7216,"thiga":7217,"br":7218,"Ġunnat":7219,"vani":7220,"Ġnetrit":7221,"Ġphotol":7222,"Ġlyn":7223,"antar":7224,"yash":7225,"Ġhighlight":7226,"Ġpandit":7227,"ipothundi":7228,"Ġshe":7229,"Ġdashalanu":7230,"Ġdance":7231,"orts":7232,"Ġsamasyala":7233,"Ġkapoor":7234,"Ġmandulu":7235,"Ġprabhavalanu":7236,"Ġannanu":7237,"Ġplant":7238,"Ġmaddatu":7239,"Ġavasaralanu":7240,"Ġrakth":7241,"isina":7242,"Ġgm":7243,"Ġchotuches":7244,"isariga":7245,"ayyadu":7246,"Ġminister":7247,"Ġshastr":7248,"nanga":7249,"iger":7250,"Ġtarachu":7251,"Ġoppand":7252,"adamlo":7253,"Ġvanta":7254,"Ġarav":7255,"Ġkurchuni":7256,"Ġviniyogadarula":7257,"Ġpree":7258,"Ġprov":7259,"Ġjarigai":7260,"Ġpartil":7261,"Ġamaravati":7262,"Ġviplav":7263,"Ġchudatam":7264,"Ġvedik":7265,"Ġunion":7266,"bot":7267,"Ġjack":7268,"Ġtheaters":7269,"askaram":7270,"Ġcharmam":7271,"vari":7272,"Ġrupakalp":7273,"Ġpunjab":7274,"Ġcheyalsina":7275,"Ġmovies":7276,"antivi":7277,"Ġsukr":7278,"Ġ51":7279,"Ġkaryakalapalu":7280,"Ġadduthanga":7281,"Ġnirash":7282,"Ġrange":7283,"Ġmandali":7284,"Ġkathanam":7285,"Ġinch":7286,"Ġtata":7287,"Ġneevu":7288,"ushtini":7289,"Ġbahumati":7290,"Ġeta":7291,"Ġeduruchust":7292,"Ġprotsahincadam":7293,"esw":7294,"ulonu":7295,"Ġbody":7296,"Ġgouravam":7297,"Ġtanak":7298,"Ġpencham":7299,"poyi":7300,"Ġpratham":7301,"inations":7302,"Ġking":7303,"apurvaka":7304,"Ġfoot":7305,"Ġstep":7306,"idhar":7307,"Ġganu":7308,"Ġjob":7309,"adug":7310,"upalli":7311,"asebuck":7312,"Ġtega":7313,"Ġbattery":7314,"adaru":7315,"Ġorg":7316,"Ġgujarat":7317,"ather":7318,"Ġsthanik":7319,"Ġchirun":7320,"Ġmind":7321,"Ġchance":7322,"ikulu":7323,"Ġkanabad":7324,"Ġclarity":7325,"Ġnidrap":7326,"Ġkesula":7327,"Ġkonda":7328,"Ġnijame":7329,"Ġyuvathi":7330,"erence":7331,"Ġmegh":7332,"Ġsarira":7333,"Ġantekakunda":7334,"Ġityali":7335,"atamlo":7336,"Ġlal":7337,"aduthu":7338,"Ġinth":7339,"Ġnirdharinch":7340,"Ġkattubadi":7341,"Ġparisramic":7342,"alosin":7343,"Ġpravartana":7344,"Ġnibandhanalu":7345,"bar":7346,"Ġpott":7347,"Ġbhagaswamyam":7348,"gala":7349,"eega":7350,"Ġsaval":7351,"Ġmeruguparachadam":7352,"arant":7353,"Ġjac":7354,"Ġfeatures":7355,"Ġbog":7356,"Ġrashya":7357,"angi":7358,"Ġvegam":7359,"Ġaadi":7360,"Ġspandist":7361,"Ġsadhana":7362,"addani":7363,"Ġbhavanam":7364,"cial":7365,"ley":7366,"Ġayudh":7367,"Ġcraze":7368,"Ġshwas":7369,"pothundi":7370,"Ġdopidi":7371,"ikaina":7372,"Ġsukshm":7373,"adine":7374,"Ġayanam":7375,"ainavi":7376,"Ġdav":7377,"Ġidila":7378,"Ġprofession":7379,"Ġshreni":7380,"alann":7381,"Ġadugulu":7382,"ino":7383,"Ġari":7384,"Ġpuvv":7385,"Ġsour":7386,"Ġfiryad":7387,"Ġkalip":7388,"Ġscript":7389,"Ġcavalosin":7390,"irm":7391,"Ġkit":7392,"Ġlondon":7393,"Ġbhagavant":7394,"ammeeda":7395,"ner":7396,"usarlu":7397,"Ġweek":7398,"Ġbuj":7399,"Ġkaliginche":7400,"Ġishtamaina":7401,"Ġshatabdam":7402,"led":7403,"Ġaalasyam":7404,"Ġemotion":7405,"Ġrupeel":7406,"Ġrasayana":7407,"ades":7408,"eech":7409,"Ġsubhakankshalu":7410,"Ġswadheenam":7411,"ll":7412,"Ġpoor":7413,"Ġtinadam":7414,"Ġnow":7415,"ivud":7416,"idiato":7417,"Ġkappu":7418,"ajan":7419,"Ġsamayaniki":7420,"iddaru":7421,"Ġshastra":7422,"Ġpratinidhyam":7423,"alavariga":7424,"Ġbalopet":7425,"aristundi":7426,"gaz":7427,"Ġchadavandi":7428,"Ġbol":7429,"Ġmeidiato":7430,"Ġchestadu":7431,"roj":7432,"avarth":7433,"uleni":7434,"Ġchepad":7435,"Ġpir":7436,"Ġparimita":7437,"Ġpetrol":7438,"Ġsuryam":7439,"Ġyam":7440,"Ġkore":7441,"Ġpariganimch":7442,"Ġpolavaram":7443,"Ġbanner":7444,"Ġpranti":7445,"Ġethu":7446,"Ġstat":7447,"Ġindustries":7448,"ergy":7449,"Ġkanch":7450,"Ġchekk":7451,"Ġgruh":7452,"Ġkurnool":7453,"Ġpatrik":7454,"Ġfasebuck":7455,"Ġkritajjatalu":7456,"Ġground":7457,"Ġbayatiki":7458,"Ġadhikarulaku":7459,"Ġsampurna":7460,"Ġkalla":7461,"tificial":7462,"Ġvalasa":7463,"Ġcheekati":7464,"apatam":7465,"Ġgeet":7466,"Ġlangu":7467,"Ġvarada":7468,"Ġdrav":7469,"astulu":7470,"Ġrakark":7471,"Ġashchary":7472,"Ġnarayan":7473,"Ġroopondinchina":7474,"Ġdriving":7475,"Ġanyayam":7476,"ators":7477,"Ġharsh":7478,"Ġlechi":7479,"utham":7480,"Ġsrishtinchadam":7481,"Ġmiku":7482,"Ġnilad":7483,"Ġnote":7484,"Ġprajal":7485,"Ġbengal":7486,"ayalaku":7487,"ments":7488,"arante":7489,"unnamu":7490,"Ġraatri":7491,"Ġcharyalanu":7492,"Ġmottammeeda":7493,"alogu":7494,"Ġmarikonni":7495,"ient":7496,"Ġnandamuri":7497,"Ġtark":7498,"Ġcell":7499,"endu":7500,"Ġketay":7501,"oddi":7502,"Ġdevarak":7503,"Ġmargalu":7504,"Ġgurtinchadam":7505,"athayi":7506,"abaddh":7507,"Ġhajar":7508,"urali":7509,"urthi":7510,"Ġrasharu":7511,"Ġkund":7512,"Ġnepathyam":7513,"Ġmukkalu":7514,"Ġkalus":7515,"Ġmadr":7516,"Ġbharosa":7517,"Ġcheyatam":7518,"ikh":7519,"itya":7520,"istamu":7521,"Ġdruv":7522,"Ġkotl":7523,"Ġpattanam":7524,"Ġkadup":7525,"Ġlic":7526,"Ġfound":7527,"Ġorig":7528,"jeev":7529,"Ġnivarinch":7530,"Ġaspatri":7531,"egr":7532,"ukovalsina":7533,"Ġnetala":7534,"Ġjagratha":7535,"inatl":7536,"aboth":7537,"yaku":7538,"esar":7539,"incha":7540,"Ġmukhyamantr":7541,"Ġkrishnam":7542,"Ġyepp":7543,"shan":7544,"Ġbihar":7545,"arapu":7546,"Ġplus":7547,"endar":7548,"utunnappudu":7549,"Ġchustunna":7550,"Ġuchitanga":7551,"Ġkoodaa":7552,"Ġpramani":7553,"antic":7554,"Ġsahas":7555,"Ġtul":7556,"Ġundavacchu":7557,"Ġuttarv":7558,"arikanga":7559,"ler":7560,"uvuga":7561,"Ġkalak":7562,"Ġpette":7563,"Ġcomputers":7564,"Ġpadarthalanu":7565,"Ġmottamod":7566,"estu":7567,"Ġarhata":7568,"Ġnilust":7569,"Ġparyavarana":7570,"alon":7571,"ayog":7572,"avasaram":7573,"Ġ99":7574,"Ġmucch":7575,"Ġchesinappudu":7576,"Ġdays":7577,"Ġje":7578,"Ġpracrealo":7579,"ikit":7580,"Ġutpad":7581,"Ġchuse":7582,"Ġganesh":7583,"Ġravadaniki":7584,"poye":7585,"ahas":7586,"Ġbhavan":7587,"Ġkalushyam":7588,"avaipu":7589,"Ġkukka":7590,"edaina":7591,"Ġavasaramaite":7592,"Ġsabhyudu":7593,"ago":7594,"Ġteesukunte":7595,"viniyogam":7596,"zation":7597,"ukosam":7598,"avantam":7599,"Ġkhammam":7600,"Ġkanipistayi":7601,"Ġadhip":7602,"Ġlaabham":7603,"Ġtemindia":7604,"Ġkajal":7605,"Ġinstall":7606,"Ġleader":7607,"Ġclu":7608,"astram":7609,"Ġperunu":7610,"Ġavakasanni":7611,"Ġasw":7612,"Ġnivarinchadaniki":7613,"Ġnijanga":7614,"Ġthrill":7615,"atip":7616,"olic":7617,"Ġsaradaga":7618,"Ġsangath":7619,"Ġnatimcharu":7620,"Ġipl":7621,"Ġuh":7622,"Ġvrutt":7623,"anike":7624,"ekki":7625,"akalamlo":7626,"abhai":7627,"Ġprocessing":7628,"Ġsurakshitanga":7629,"sy":7630,"Ġledante":7631,"Ġpadalu":7632,"atlo":7633,"ories":7634,"athvam":7635,"enda":7636,"Ġcheyan":7637,"Ġpradesham":7638,"her":7639,"iraj":7640,"Ġchan":7641,"Ġokesari":7642,"Ġnamodu":7643,"Ġthappanisariga":7644,"Ġdouble":7645,"Ġkavadaniki":7646,"Ġpattu":7647,"Ġanuvart":7648,"Ġnany":7649,"Ġsimh":7650,"Ġandukunna":7651,"tics":7652,"Ġappudappudu":7653,"Ġbadd":7654,"Ġprajallo":7655,"Ġdesi":7656,"Ġkaryakramanni":7657,"Ġgeluch":7658,"Ġgraham":7659,"Ġnetiz":7660,"Ġprerep":7661,"Ġpratyamnaya":7662,"Ġmata":7663,"unnamani":7664,"Ġmetres":7665,"Ġprofess":7666,"Ġprekshakulaku":7667,"Ġinko":7668,"vy":7669,"ook":7670,"athini":7671,"Ġthin":7672,"Ġparikaralu":7673,"Ġchantralo":7674,"Ġsatyanarayana":7675,"Ġvahanalu":7676,"Ġnilabett":7677,"Ġbot":7678,"band":7679,"Ġontariga":7680,"Ġmatha":7681,"Ġadmin":7682,"Ġpadartham":7683,"Ġjagann":7684,"Ġsym":7685,"Ġcoron":7686,"Ġvarshika":7687,"Ġekaika":7688,"gic":7689,"Ġdub":7690,"Ġbhaskar":7691,"Ġjarigite":7692,"Ġmillions":7693,"Ġkalakramena":7694,"uddha":7695,"Ġsarihadd":7696,"avaddu":7697,"Ġritilo":7698,"Ġwhat":7699,"Ġple":7700,"Ġspace":7701,"Ġserious":7702,"Ġimp":7703,"Ġpedite":7704,"Ġgadhi":7705,"Ġsv":7706,"Ġprarambhinchandi":7707,"Ġoohinchani":7708,"Ġprakas":7709,"Ġsankhyanu":7710,"Ġgold":7711,"chadu":7712,"alin":7713,"Ġthisukell":7714,"Ġsiva":7715,"room":7716,"achi":7717,"Ġamina":7718,"Ġschedul":7719,"Ġudgaralanu":7720,"Ġmanjuru":7721,"Ġmedha":7722,"Ġcollections":7723,"Ġveluvad":7724,"Ġadhikarulanu":7725,"ful":7726,"Ġtaralincharu":7727,"Ġadah":7728,"Ġview":7729,"Ġbirth":7730,"Ġtelindi":7731,"Ġnirantara":7732,"Ġsadhinchadaniki":7733,"Ġchak":7734,"Ġdinilo":7735,"Ġadhunatan":7736,"17":7737,"Ġrock":7738,"Ġspandincharu":7739,"Ġtaraha":7740,"Ġnoone":7741,"inchavacchu":7742,"Ġvastuvu":7743,"Ġprojects":7744,"Ġsingle":7745,"Ġanaga":7746,"Ġmarganni":7747,"Ġswayam":7748,"jam":7749,"Ġmulam":7750,"Ġafter":7751,"Ġminahay":7752,"eswar":7753,"Ġgelup":7754,"Ġottidini":7755,"Ġenj":7756,"Ġneetilo":7757,"akaranga":7758,"Ġpre":7759,"Ġakkineni":7760,"Ġstand":7761,"estaru":7762,"Ġgourav":7763,"Ġpodupu":7764,"Ġprab":7765,"Ġvivadas":7766,"apti":7767,"Ġpeda":7768,"Ġub":7769,"Ġpid":7770,"asabha":7771,"Ġnaipunyam":7772,"Ġinni":7773,"inelo":7774,"unani":7775,"Ġmis":7776,"Ġmepp":7777,"Ġtamanu":7778,"appati":7779,"Ġrajasth":7780,"Ġchustunte":7781,"Ġsamyuk":7782,"Ġsthanal":7783,"anap":7784,"aladi":7785,"Ġmuth":7786,"Ġbudd":7787,"ekalu":7788,"Ġconst":7789,"Ġrupayal":7790,"Ġudyogulaku":7791,"Ġrayalas":7792,"itva":7793,"apadina":7794,"Ġchepattaru":7795,"Ġfre":7796,"yo":7797,"Ġvipp":7798,"Ġmugimpu":7799,"evidhanga":7800,"Ġmundastu":7801,"Ġkanugonadaniki":7802,"ume":7803,"Ġsankshem":7804,"Ġbis":7805,"Ġthot":7806,"Ġdies":7807,"Ġsril":7808,"Ġvahanam":7809,"Ġdrishtiki":7810,"Ġaatma":7811,"Ġlabhinchindi":7812,"Ġinvest":7813,"Ġleak":7814,"Ġsweeya":7815,"Ġjun":7816,"Ġbre":7817,"Ġmeeting":7818,"eedi":7819,"Ġfight":7820,"Ġaradh":7821,"Ġmargamlo":7822,"Ġadhyatmika":7823,"Ġdialogu":7824,"Ġparishramalo":7825,"Ġsunnit":7826,"Ġjust":7827,"Ġparikaram":7828,"Ġpalgont":7829,"inchalsi":7830,"Ġtype":7831,"Ġneozecovergamlo":7832,"Ġthanks":7833,"Ġbail":7834,"erson":7835,"Ġgovernment":7836,"aparach":7837,"elanu":7838,"ullone":7839,"ald":7840,"Ġsandarbhallo":7841,"Ġdustulu":7842,"Ġakkadiki":7843,"Ġpich":7844,"Ġsnanam":7845,"Ġpratibh":7846,"Ġabhyarthulu":7847,"Ġsamardh":7848,"Ġchesetappudu":7849,"Ġviz":7850,"Ġke":7851,"yy":7852,"uvan":7853,"Ġkeelakam":7854,"Ġgall":7855,"Ġchestam":7856,"Ġdrive":7857,"Ġnatan":7858,"Ġkaryakramaniki":7859,"Ġmalay":7860,"Ġnipp":7861,"Ġdalit":7862,"kara":7863,"inapudu":7864,"Ġcopy":7865,"Ġteesukunt":7866,"alunnayi":7867,"Ġment":7868,"Ġudaharana":7869,"tification":7870,"cu":7871,"cer":7872,"unta":7873,"Ġanandanga":7874,"Ġrevenue":7875,"iter":7876,"Ġnelaku":7877,"Ġtwo":7878,"Ġmann":7879,"Ġbhagamlo":7880,"Ġkathalo":7881,"Ġpraveen":7882,"Ġmake":7883,"Ġnight":7884,"Ġdebba":7885,"igina":7886,"Ġravite":7887,"Ġdarsakatvam":7888,"ts":7889,"Ġchestunnatlu":7890,"Ġsomm":7891,"Ġregular":7892,"Ġpramadanni":7893,"Ġmarpidi":7894,"Ġupdate":7895,"Ġakup":7896,"Ġ400":7897,"Ġpondadam":7898,"adri":7899,"ivity":7900,"Ġneer":7901,"araja":7902,"Ġnuvv":7903,"Ġvyavasthap":7904,"Ġword":7905,"Ġaarogyanni":7906,"Ġnalg":7907,"aar":7908,"Ġvare":7909,"Ġistaru":7910,"Ġkarig":7911,"yamu":7912,"Ġgrand":7913,"Ġtelusukovadaniki":7914,"anati":7915,"Ġgariki":7916,"Ġdhoni":7917,"Ġadugula":7918,"aric":7919,"Ġiste":7920,"eria":7921,"Ġchanip":7922,"uroj":7923,"pade":7924,"Ġyeppatikappudu":7925,"Ġamodam":7926,"Ġclean":7927,"Ġbhad":7928,"igaru":7929,"Ġveela":7930,"Ġnirdarana":7931,"bab":7932,"Ġ65":7933,"Ġmajority":7934,"ugaa":7935,"Ġrestaurant":7936,"Ġmeere":7937,"alekapoy":7938,"Ġvadul":7939,"Ġnavig":7940,"Ġkeelaka":7941,"Ġsend":7942,"Ġupayogistam":7943,"Ġutpattini":7944,"Ġsales":7945,"Ġikapai":7946,"Ġjarigindani":7947,"Ġwebb":7948,"istune":7949,"Ġjillala":7950,"charyam":7951,"Ġnelallo":7952,"Ġkathinamaina":7953,"Ġpodig":7954,"Ġnoppy":7955,"hal":7956,"Ġstations":7957,"Ġchebutaru":7958,"istund":7959,"Ġgramallo":7960,"Ġexc":7961,"Ġviruddhanga":7962,"Ġvisakhapatnam":7963,"Ġneozakavargam":7964,"akku":7965,"Ġrajyanga":7966,"Ġikkade":7967,"Ġvarshalu":7968,"Ġnirdharimch":7969,"Ġvoice":7970,"Ġpratinidhi":7971,"Ġshantravettalu":7972,"Ġthandri":7973,"Ġgmt":7974,"annadu":7975,"Ġprarambhinchina":7976,"Ġthodu":7977,"Ġfront":7978,"Ġchlor":7979,"ondist":7980,"Ġrendella":7981,"Ġkannada":7982,"Ġfactor":7983,"Ġugravad":7984,"Ġlimited":7985,"Ġokkokk":7986,"Ġprantiya":7987,"Ġaff":7988,"Ġshyam":7989,"Ġchick":7990,"ites":7991,"rib":7992,"Ġvishnu":7993,"zer":7994,"Ġkaranala":7995,"Ġpratip":7996,"Ġkanundi":7997,"istarani":7998,"Ġsris":7999,"Ġsamsth":8000,"Ġpalgonna":8001,"Ġkota":8002,"Ġghananga":8003,"Ġmanasulo":8004,"Ġchitt":8005,"Ġsabhula":8006,"Ġupayoginchadaniki":8007,"lapai":8008,"Ġanantapur":8009,"Ġbalopetam":8010,"ubad":8011,"Ġmadhy":8012,"Ġbeauty":8013,"Ġkos":8014,"ements":8015,"Ġys":8016,"Ġtakkuv":8017,"Ġnirdesh":8018,"Ġbhavananu":8019,"ffer":8020,"Ġhospital":8021,"Ġkhararu":8022,"Ġprasiddhi":8023,"Ġsow":8024,"inchab":8025,"ips":8026,"Ġtagil":8027,"Ġeppudaina":8028,"adan":8029,"Ġdaniki":8030,"Ġdrushtini":8031,"apot":8032,"Ġitr":8033,"Ġprarambhinchindi":8034,"Ġcheyabaduthundi":8035,"Ġavin":8036,"Ġupash":8037,"Ġpillalanu":8038,"Ġpoojalu":8039,"Ġinternational":8040,"Ġsrusht":8041,"anivv":8042,"Ġwats":8043,"lex":8044,"Ġdook":8045,"Ġsanvatsarala":8046,"Ġtickets":8047,"evariki":8048,"Ġteacher":8049,"Ġkobb":8050,"Ġvelite":8051,"Ġunnaanu":8052,"Ġkumbh":8053,"Ġbc":8054,"Ġkoti":8055,"inchukune":8056,"Ġlato":8057,"adugu":8058,"Ġmarindi":8059,"Ġinstagram":8060,"16":8061,"Ġratr":8062,"Ġmandini":8063,"Ġheccharyncharu":8064,"Ġrum":8065,"Ġbharam":8066,"Ġsouth":8067,"Ġkalalu":8068,"Ġapplication":8069,"Ġhappy":8070,"pathi":8071,"Ġdwar":8072,"over":8073,"Ġheroines":8074,"ashekhar":8075,"Ġayan":8076,"Ġuntundo":8077,"Ġsambandhalanu":8078,"toor":8079,"Ġasthi":8080,"Ġokkasari":8081,"Ġnelakondi":8082,"anish":8083,"tm":8084,"Ġcir":8085,"Ġshish":8086,"Ġpasch":8087,"Ġlaxmi":8088,"ukone":8089,"Ġsarasan":8090,"Ġsamudr":8091,"Ġlay":8092,"Ġergat":8093,"Ġjeevitham":8094,"Ġkanugonadam":8095,"ror":8096,"antopatu":8097,"paper":8098,"Ġnoru":8099,"artment":8100,"Ġraktam":8101,"Ġheadlines":8102,"vasam":8103,"ailo":8104,"Ġmundugane":8105,"Ġbhoomini":8106,"ukupoy":8107,"Ġsudhir":8108,"Ġupayogap":8109,"Ġtipp":8110,"ono":8111,"Ġvishayamai":8112,"Ġdevarakonda":8113,"inavaru":8114,"Ġbaj":8115,"agir":8116,"eck":8117,"Ġpy":8118,"Ġsome":8119,"Ġbhavish":8120,"Ġdarshakathvam":8121,"Ġprapyata":8122,"Ġround":8123,"Ġgolus":8124,"Ġnokki":8125,"Ġrohit":8126,"gal":8127,"ulanni":8128,"anush":8129,"Ġoptim":8130,"Ġmaadhyam":8131,"Ġrangulu":8132,"Ġchadivi":8133,"akshi":8134,"Ġviluvalu":8135,"Ġassociation":8136,"akatanu":8137,"uster":8138,"Ġippude":8139,"Ġvadili":8140,"Ġparyatana":8141,"14":8142,"fan":8143,"agari":8144,"uvunu":8145,"Ġsinimalaku":8146,"Ġchitralanu":8147,"Ġbhagaswamy":8148,"edadi":8149,"Ġabhin":8150,"inta":8151,"math":8152,"ther":8153,"eries":8154,"Ġmarkadaniki":8155,"cling":8156,"Ġkem":8157,"Ġantaga":8158,"Ġdharala":8159,"atlaite":8160,"Ġerpadina":8161,"Ġklup":8162,"Ġgontu":8163,"Ġswatantra":8164,"Ġanukula":8165,"Ġnas":8166,"Ġdepos":8167,"Ġonginelo":8168,"Ġaas":8169,"Ġhollywood":8170,"emiti":8171,"Ġpampin":8172,"Ġsunday":8173,"ukok":8174,"Ġranj":8175,"Ġsunil":8176,"Ġarts":8177,"Ġsreem":8178,"Ġtollywood":8179,"Ġdesham":8180,"Ġpaddatilo":8181,"Ġofficer":8182,"Ġnirdharimchukondi":8183,"Ġnaalu":8184,"Ġsulabhataram":8185,"Ġsangathana":8186,"Ġsama":8187,"Ġascharyam":8188,"adesh":8189,"Ġsrama":8190,"Ġgurain":8191,"Ġkhare":8192,"Ġabhivruddi":8193,"amulu":8194,"akulaku":8195,"Ġkadaa":8196,"Ġinstit":8197,"adagina":8198,"Ġbalu":8199,"otla":8200,"pada":8201,"Ġunnanduna":8202,"Ġmunupati":8203,"Ġadigadu":8204,"evallu":8205,"Ġloth":8206,"Ġvijjapti":8207,"Ġchalana":8208,"occhi":8209,"Ġnamuna":8210,"Ġputtinar":8211,"Ġgadilo":8212,"Ġchaitanya":8213,"Ġtheda":8214,"Ġteesukell":8215,"Ġjarugutunnayi":8216,"Ġammak":8217,"Ġnumchi":8218,"Ġcreate":8219,"omani":8220,"Ġundavu":8221,"Ġsamajik":8222,"Ġmarpulanu":8223,"Ġyear":8224,"Ġandam":8225,"Ġpanchayat":8226,"Ġalaya":8227,"Ġsamanya":8228,"Ġdeal":8229,"uthundi":8230,"Ġjud":8231,"Ġkotlaku":8232,"Ġsrujanatmaka":8233,"med":8234,"Ġchatur":8235,"Ġbet":8236,"Ġcheppanu":8237,"Ġmargalanu":8238,"Ġvisir":8239,"Ġprarambhamaindi":8240,"Ġruj":8241,"akash":8242,"akaya":8243,"Ġsinimani":8244,"unika":8245,"Ġcheyi":8246,"Ġnirvahinche":8247,"Ġsolar":8248,"Ġmadras":8249,"thulu":8250,"Ġsamany":8251,"abhav":8252,"ivritt":8253,"Ġprayatninchandi":8254,"Ġbathuk":8255,"Ġginn":8256,"Ġmatti":8257,"Ġtidip":8258,"Ġrespons":8259,"Ġhat":8260,"Ġrachanalu":8261,"Ġcreed":8262,"Ġlopaliki":8263,"Ġaavida":8264,"abhivr":8265,"oste":8266,"Ġadhikarikanga":8267,"Ġtechch":8268,"Ġtolisari":8269,"Ġkantent":8270,"Ġvahan":8271,"enno":8272,"Ġsankshobh":8273,"Ġsports":8274,"Ġvifal":8275,"Ġprofessional":8276,"Ġfail":8277,"Ġsankranti":8278,"Ġvellindi":8279,"Ġvibhed":8280,"Ġrashtralu":8281,"Ġafric":8282,"atame":8283,"atamga":8284,"gina":8285,"Ġmanalni":8286,"opic":8287,"poyina":8288,"Ġdeshallo":8289,"Ġwhite":8290,"Ġpersonal":8291,"Ġbigg":8292,"Ġdisha":8293,"Ġlanguage":8294,"Ġkanu":8295,"Ġsthit":8296,"Ġashray":8297,"Ġkamm":8298,"avathi":8299,"Ġmatala":8300,"anath":8301,"Ġkashtalu":8302,"Ġdiesel":8303,"Ġwatch":8304,"Ġyuvatha":8305,"aleka":8306,"ekt":8307,"Ġmandu":8308,"Ġsiddhant":8309,"Ġchitrala":8310,"eelu":8311,"Ġkorukuntunn":8312,"Ġbit":8313,"Ġfar":8314,"armaina":8315,"agalug":8316,"Ġkaryacharan":8317,"Ġiru":8318,"Ġnirmincharu":8319,"Ġsubject":8320,"Ġkaryakalaapalanu":8321,"vin":8322,"Ġbjpk":8323,"Ġnimagnam":8324,"eshwari":8325,"Ġamar":8326,"Ġsanvatsaraniki":8327,"Ġhruday":8328,"Ġpib":8329,"Ġmap":8330,"Ġpro":8331,"Ġtax":8332,"Ġaga":8333,"Ġalane":8334,"Ġvritt":8335,"adars":8336,"Ġjai":8337,"Ġalant":8338,"Ġchudavachchu":8339,"Ġnaresh":8340,"Ġinglish":8341,"Ġmanaki":8342,"Ġrecy":8343,"Ġ193":8344,"Ġvaripai":8345,"Ġhect":8346,"Ġarug":8347,"Ġcheyagalig":8348,"Ġchittoor":8349,"ider":8350,"untadu":8351,"Ġginj":8352,"agaladu":8353,"Ġpoina":8354,"Ġpushkal":8355,"Ġjokyam":8356,"sk":8357,"idani":8358,"Ġgurich":8359,"Ġpramadas":8360,"Ġrupayalu":8361,"Ġpranthalaku":8362,"adane":8363,"esha":8364,"Ġamarch":8365,"Ġsaar":8366,"ukunnanu":8367,"akapovadanto":8368,"Ġandolanalu":8369,"Ġvastuvula":8370,"Ġegum":8371,"Ġsannihit":8372,"Ġahlad":8373,"Ġpilupuni":8374,"anulu":8375,"enta":8376,"Ġayyadu":8377,"Ġbayatapad":8378,"Ġpeople":8379,"com":8380,"Ġpaddaru":8381,"Ġsampada":8382,"Ġsamagra":8383,"Ġneojakavar":8384,"Ġmaid":8385,"Ġkottha":8386,"Ġsanketikat":8387,"Ġadharalu":8388,"Ġreddi":8389,"Ġpragathi":8390,"Ġpadayatra":8391,"Ġjabb":8392,"Ġnotices":8393,"Ġdhorani":8394,"Ġvachchindani":8395,"Ġespy":8396,"Ġamsanni":8397,"Ġbaba":8398,"Ġrakarkala":8399,"Ġlav":8400,"Ġantakante":8401,"Ġsatur":8402,"Ġreturn":8403,"Ġasaktikaramaina":8404,"adham":8405,"evo":8406,"Ġwash":8407,"Ġprarambhamlo":8408,"Ġnidarsh":8409,"Ġalu":8410,"adhikar":8411,"Ġyout":8412,"Ġdanik":8413,"Ġkorata":8414,"Ġasam":8415,"Ġsahayapade":8416,"Ġasupatr":8417,"Ġvem":8418,"akkala":8419,"Ġnirmananiki":8420,"Ġsarik":8421,"Ġsthiranga":8422,"Ġbhavodvega":8423,"Ġkuragayalu":8424,"Ġnato":8425,"agali":8426,"Ġnewspaper":8427,"Ġpondindi":8428,"Ġiravai":8429,"Ġkadapa":8430,"Ġthisukunt":8431,"Ġajay":8432,"andaram":8433,"Ġcommercial":8434,"Ġtok":8435,"Ġsthananni":8436,"Ġmeruguparustundi":8437,"Ġara":8438,"Ġlopam":8439,"ivar":8440,"Ġsaralamaina":8441,"Ġviluvanu":8442,"Ġpriyanka":8443,"Ġprasnaku":8444,"Ġandhraj":8445,"auk":8446,"Ġpala":8447,"Ġmang":8448,"aye":8449,"Ġtouch":8450,"Ġnetizens":8451,"inchalan":8452,"idhy":8453,"Ġalochanalanu":8454,"Ġhakkula":8455,"Ġessie":8456,"varam":8457,"Ġsthal":8458,"Ġpradhanamantri":8459,"Ġyesu":8460,"Ġyap":8461,"Ġvifalam":8462,"Ġshubhram":8463,"Ġilage":8464,"onom":8465,"Ġhow":8466,"astam":8467,"Ġsrujanatm":8468,"Ġvimaanam":8469,"Ġprantalalo":8470,"rayam":8471,"Ġshanti":8472,"Ġyoutube":8473,"Ġdos":8474,"ils":8475,"Ġkavith":8476,"utunnanu":8477,"Ġperagadam":8478,"Ġjournalist":8479,"agalam":8480,"Ġlekka":8481,"Ġtayar":8482,"Ġnishedh":8483,"Ġlyngic":8484,"Ġramarao":8485,"Ġravalani":8486,"Ġchicken":8487,"Ġdu":8488,"Ġce":8489,"Ġintaki":8490,"Ġsahity":8491,"Ġcourse":8492,"vat":8493,"Ġnalla":8494,"Ġunnadu":8495,"Ġthappanisari":8496,"Ġuniki":8497,"Ġvishayampai":8498,"ading":8499,"Ġyajamanyam":8500,"Ġvyavadh":8501,"Ġrama":8502,"abatti":8503,"Ġsaturday":8504,"Ġsor":8505,"Ġokkate":8506,"anit":8507,"Ġerupu":8508,"Ġveeriki":8509,"avarini":8510,"Ġdinipai":8511,"Ġledha":8512,"Ġmodalainavi":8513,"Ġshilaja":8514,"Ġprabhakar":8515,"Ġtarap":8516,"Ġshashw":8517,"Ġdina":8518,"epa":8519,"mc":8520,"avadaniki":8521,"Ġmiduga":8522,"Ġsamavesalu":8523,"Ġchallani":8524,"Ġpranalikanu":8525,"Ġsakshi":8526,"arantu":8527,"Ġantim":8528,"andari":8529,"okaru":8530,"Ġkutur":8531,"Ġfile":8532,"Ġtalett":8533,"Ġlib":8534,"naa":8535,"anubhuti":8536,"Ġkrman":8537,"Ġtrend":8538,"kim":8539,"Ġeurope":8540,"Ġpettadaniki":8541,"Ġramana":8542,"Ġmarchadam":8543,"he":8544,"Ġbact":8545,"Ġjor":8546,"ralo":8547,"Ġtelik":8548,"Ġwrit":8549,"Ġsaw":8550,"Ġsagar":8551,"Ġnirdarinchadaniki":8552,"Ġanushka":8553,"rant":8554,"Ġbharinch":8555,"Ġlopal":8556,"Ġuntoo":8557,"Ġavasaralaku":8558,"Ġvachan":8559,"Ġasha":8560,"Ġparidhiloni":8561,"Ġchandrababuku":8562,"Ġrojul":8563,"Ġdef":8564,"Ġadrust":8565,"Ġdegrees":8566,"Ġramakrishna":8567,"irek":8568,"Ġ2007":8569,"Ġpurv":8570,"Ġthisukurav":8571,"Ġcolpo":8572,"Ġvyuham":8573,"rr":8574,"Ġvray":8575,"anm":8576,"Ġavutundani":8577,"Ġnilabadi":8578,"Ġpakkane":8579,"Ġsnehithudu":8580,"ulon":8581,"Ġcc":8582,"Ġpondavacchu":8583,"Ġloksabha":8584,"Ġtt":8585,"antaru":8586,"illanu":8587,"Ġkutra":8588,"Ġdanito":8589,"Ġklupthanga":8590,"Ġkey":8591,"Ġanksh":8592,"Ġhod":8593,"Ġcheppadaniki":8594,"sn":8595,"Ġteesukundi":8596,"Ġeditor":8597,"Ġsahajanga":8598,"Ġnachchina":8599,"Ġperigi":8600,"Ġsavallanu":8601,"Ġkarmikula":8602,"indante":8603,"Ġvishw":8604,"uniga":8605,"Ġspeed":8606,"Ġvipula":8607,"Ġpv":8608,"ulala":8609,"Ġlike":8610,"Ġkortulo":8611,"Ġbiyyam":8612,"ashekar":8613,"Ġprathin":8614,"Ġvallaki":8615,"Ġyuddha":8616,"Ġgadup":8617,"Ġindr":8618,"anasabh":8619,"Ġpud":8620,"Ġrating":8621,"Ġvelladu":8622,"Ġvahanala":8623,"Ġvyavasthalo":8624,"Ġmamulu":8625,"Ġgupp":8626,"uvaina":8627,"Ġyer":8628,"Ġsection":8629,"Ġkrmanlone":8630,"anatmaka":8631,"Ġsthalanni":8632,"Ġkshetr":8633,"mo":8634,"Ġrish":8635,"Ġprotsahisthundi":8636,"Ġadigithe":8637,"lot":8638,"Ġuttej":8639,"Ġlabdi":8640,"Ġconc":8641,"other":8642,"Ġpunarv":8643,"Ġmedadu":8644,"Ġcavalsin":8645,"Ġvidich":8646,"otti":8647,"Ġknow":8648,"Ġsantakam":8649,"Ġpaluk":8650,"Ġchebutu":8651,"Ġchustunnaru":8652,"Ġsatta":8653,"ulanta":8654,"Ġdevalayam":8655,"Ġvidhanalu":8656,"Ġmetro":8657,"Ġpanchayati":8658,"Ġfast":8659,"Ġipudu":8660,"Ġcheyaga":8661,"chima":8662,"Ġanaly":8663,"uguru":8664,"Ġmult":8665,"Ġshilp":8666,"inchagala":8667,"Ġjanyu":8668,"Ġgatt":8669,"Ġbhakti":8670,"acy":8671,"Ġkurip":8672,"agalaru":8673,"Ġsarpanch":8674,"Ġramach":8675,"Ġghatan":8676,"apaiki":8677,"Ġkanapad":8678,"Ġdashalavariga":8679,"Ġdeputy":8680,"Ġmito":8681,"tharu":8682,"Ġkrid":8683,"Ġuttamam":8684,"Ġfeature":8685,"alini":8686,"Ġkupp":8687,"Ġparinamalu":8688,"vel":8689,"Ġhayamlo":8690,"Ġparisthithi":8691,"Ġakarshaniyamaina":8692,"Ġgandarag":8693,"Ġvivaran":8694,"Ġadhikara":8695,"Ġtank":8696,"Ġchav":8697,"Ġdrushyam":8698,"Ġuntayani":8699,"Ġprayojanala":8700,"baddh":8701,"Ġvayasulo":8702,"Ġenjoy":8703,"Ġdigum":8704,"ega":8705,"Ġseg":8706,"Ġsamavesh":8707,"Ġmodatisari":8708,"house":8709,"Ġdanni":8710,"Ġotami":8711,"Ġsomavaram":8712,"Ġbuild":8713,"Ġvijayavanthanga":8714,"Ġnarasimh":8715,"Ġrajasthan":8716,"bu":8717,"ananda":8718,"Ġlep":8719,"Ġdabbunu":8720,"Ġtavv":8721,"etty":8722,"akulam":8723,"istunnadi":8724,"Ġbadulu":8725,"Ġvinipistunnaayi":8726,"Ġmamata":8727,"Ġghana":8728,"Ġvegavantamaina":8729,"Ġhon":8730,"Ġprerana":8731,"Ġfed":8732,"Ġenergy":8733,"Ġasauk":8734,"Ġsandesam":8735,"Ġvariga":8736,"Ġfrench":8737,"yark":8738,"alantu":8739,"Ġanuh":8740,"Ġjanta":8741,"itic":8742,"Ġguruvu":8743,"Ġdivision":8744,"Ġsrikanth":8745,"Ġsis":8746,"ukont":8747,"Ġtappaka":8748,"Ġmajor":8749,"Ġmedhassu":8750,"Ġparyavaranam":8751,"Ġsitaram":8752,"arni":8753,"indu":8754,"Ġbrahman":8755,"Ġtarapuna":8756,"Ġnadum":8757,"Ġcheraru":8758,"Ġpratichary":8759,"rat":8760,"Ġmit":8761,"Ġthere":8762,"Ġvenaka":8763,"Ġnilup":8764,"Ġsantript":8765,"Ġprofessor":8766,"Ġupayoginchabadutundi":8767,"Ġnivasam":8768,"Ġlaschima":8769,"Ġadupuloki":8770,"endram":8771,"Ġjodinchandi":8772,"Ġsoukaryalu":8773,"aline":8774,"Ġmich":8775,"etic":8776,"inchagaladu":8777,"Ġalavat":8778,"Ġaudience":8779,"Ġdeeksha":8780,"Ġposter":8781,"Ġanubhavas":8782,"Ġiphone":8783,"asepu":8784,"hich":8785,"Ġudyogi":8786,"Ġsf":8787,"Ġgeetha":8788,"Ġkodi":8789,"Ġfrance":8790,"Ġlekapovadanto":8791,"Ġgra":8792,"Ġsandadi":8793,"Ġpoyi":8794,"jiv":8795,"Ġparipalana":8796,"Ġchowd":8797,"Ġkhata":8798,"Ġfinance":8799,"avada":8800,"Ġasia":8801,"Ġokadani":8802,"Ġbattala":8803,"ababu":8804,"Ġ64":8805,"Ġvyatyas":8806,"Ġreb":8807,"bhavam":8808,"appude":8809,"Ġarudaina":8810,"pri":8811,"Ġarab":8812,"ipotundi":8813,"Ġnaipunyalanu":8814,"Ġchesam":8815,"Ġraviteja":8816,"Ġekkado":8817,"Ġniss":8818,"Ġvardh":8819,"Ġpettadu":8820,"Ġchebutundi":8821,"slo":8822,"avutondi":8823,"Ġchebutunna":8824,"Ġkesunu":8825,"Ġmatladina":8826,"Ġkaryakramalanu":8827,"Ġmaamsam":8828,"analalo":8829,"Ġsangham":8830,"luga":8831,"inunchi":8832,"utondani":8833,"Ġpariman":8834,"Ġuttama":8835,"Ġkendranga":8836,"Ġshaili":8837,"Ġchukk":8838,"Ġkiranjanya":8839,"Ġroganir":8840,"Ġfash":8841,"Ġvelig":8842,"Ġkill":8843,"Ġuntund":8844,"Ġkalakalam":8845,"Ġequ":8846,"Ġpushkalanga":8847,"erla":8848,"Ġjon":8849,"aho":8850,"Ġrajyasabha":8851,"aling":8852,"Ġokkariki":8853,"Ġdocument":8854,"pun":8855,"Ġundannaru":8856,"Ġsharmila":8857,"Ġnrit":8858,"Ġunchi":8859,"Ġpariv":8860,"iddam":8861,"Ġpanulaku":8862,"Ġpratyekata":8863,"Ġsneham":8864,"Ġnitin":8865,"Ġpeg":8866,"Ġmodatlo":8867,"Ġsyn":8868,"Ġfinanc":8869,"akri":8870,"Ġtension":8871,"apada":8872,"Ġcost":8873,"Ġsukumar":8874,"Ġthagginchadamlo":8875,"Ġannad":8876,"Ġammakalu":8877,"Ġterich":8878,"Ġakupachcha":8879,"Ġsearch":8880,"Ġdonga":8881,"onam":8882,"Ġmaree":8883,"Ġarthikanga":8884,"Ġsoci":8885,"Ġbillion":8886,"Ġpension":8887,"ikata":8888,"Ġmanoh":8889,"Ġpranthalu":8890,"Ġhaani":8891,"Ġadugupett":8892,"Ġsambandhaanni":8893,"Ġprop":8894,"ilato":8895,"Ġlevani":8896,"Ġnirudyog":8897,"Ġmol":8898,"Ġaadhaar":8899,"Ġkathi":8900,"Ġinella":8901,"Ġlakshya":8902,"mad":8903,"Ġeme":8904,"Ġmagaz":8905,"Ġnirlakshyam":8906,"andhi":8907,"Ġrajakeeyam":8908,"Ġpackage":8909,"Ġhirolu":8910,"Ġthommidhi":8911,"Ġwicket":8912,"uct":8913,"Ġpibadine":8914,"Ġdoch":8915,"Ġsuryudu":8916,"dit":8917,"Ġdah":8918,"Ġdhanyam":8919,"Ġsentim":8920,"Ġpatinch":8921,"Ġbhashallo":8922,"Ġbhavishyat":8923,"Ġvirat":8924,"ulloki":8925,"Ġkanipinchadam":8926,"Ġadevidhanga":8927,"Ġpool":8928,"ikrita":8929,"Ġchesukunnadu":8930,"Ġsamikaran":8931,"inder":8932,"Ġkaavu":8933,"____":8934,"Ġupayogistamdi":8935,"Ġbheem":8936,"Ġshop":8937,"Ġdoruk":8938,"Ġcombination":8939,"atul":8940,"Ġtrust":8941,"Ġcheruv":8942,"Ġmodalaiah":8943,"Ġkeerthi":8944,"Ġnity":8945,"Ġrajashekhar":8946,"Ġvichinnam":8947,"Ġwatsap":8948,"Ġvata":8949,"ayannaru":8950,"ukuga":8951,"Ġrangallo":8952,"Ġdaggam":8953,"Ġchuttup":8954,"ukunnadi":8955,"Ġvallanu":8956,"adhya":8957,"alake":8958,"Ġsahaya":8959,"Ġrap":8960,"Ġkalash":8961,"Ġchayalsi":8962,"Ġvishvasani":8963,"ces":8964,"Ġvunn":8965,"Ġmoham":8966,"Ġtopic":8967,"Ġdhyanam":8968,"Ġnyaya":8969,"Ġsatt":8970,"Ġtaram":8971,"Ġbrahmin":8972,"Ġvaip":8973,"Ġdharinch":8974,"Ġtanani":8975,"Ġgelichina":8976,"Ġkanalu":8977,"arich":8978,"Ġabhiprayalu":8979,"arudi":8980,"Ġho":8981,"Ġvinay":8982,"Ġitharula":8983,"Ġbharatlo":8984,"gap":8985,"Ġlabhalu":8986,"ukupot":8987,"Ġfib":8988,"Ġpothu":8989,"ipar":8990,"Ġmahab":8991,"Ġsamipamloni":8992,"Ġmok":8993,"Ġpaduthunnaru":8994,"Ġruchik":8995,"itlo":8996,"Ġkalag":8997,"Ġvishv":8998,"Ġchakravarth":8999,"Ġvair":9000,"Ġjeevan":9001,"Ġnaipunyalu":9002,"Ġkart":9003,"Ġdesk":9004,"Ġmukhyamainadi":9005,"Ġerpat":9006,"Ġbahya":9007,"Ġveyyi":9008,"chesin":9009,"Ġkovv":9010,"Ġsensor":9011,"Ġju":9012,"Ġgurtunchukondi":9013,"Ġjeevanas":9014,"Ġpalanalo":9015,"alyam":9016,"Ġtake":9017,"Ġcolour":9018,"Ġpawan":9019,"Ġpramadamlo":9020,"Ġkishan":9021,"Ġbid":9022,"Ġprapanchaniki":9023,"Ġuparitalam":9024,"avuthondi":9025,"Ġranunna":9026,"22":9027,"Ġside":9028,"Ġgatam":9029,"Ġkadul":9030,"arjun":9031,"utundaga":9032,"Ġchusanu":9033,"Ġparyataka":9034,"Ġreservations":9035,"Ġrandi":9036,"Ġokate":9037,"Ġassalu":9038,"Ġvenu":9039,"Ġpathakalu":9040,"ooth":9041,"Ġnatinat":9042,"Ġ1000":9043,"Ġvillain":9044,"sha":9045,"Ġchitrikarinch":9046,"Ġgodava":9047,"Ġutsava":9048,"Ġarmy":9049,"Ġoohimchukondi":9050,"Ġivvali":9051,"upathi":9052,"ugulu":9053,"Ġshort":9054,"Ġrakalu":9055,"Ġsmartphone":9056,"Ġahar":9057,"Ġmiriy":9058,"Ġul":9059,"erse":9060,"Ġteresa":9061,"Ġsrishtinchina":9062,"urlu":9063,"iruch":9064,"Ġelections":9065,"Ġrogi":9066,"Ġsusth":9067,"ared":9068,"ikini":9069,"angula":9070,"Ġekeral":9071,"Ġpushp":9072,"Ġdurm":9073,"Ġnotification":9074,"Ġworking":9075,"Ġmarikondaru":9076,"kiranjanya":9077,"Ġhuz":9078,"occhindi":9079,"Ġteerch":9080,"Ġsrustistundi":9081,"Ġcad":9082,"Ġkalanga":9083,"Ġsanghalu":9084,"Ġvigraham":9085,"rishna":9086,"Ġsamithi":9087,"eved":9088,"Ġneh":9089,"odhaka":9090,"Ġeppudo":9091,"Ġnadap":9092,"Ġdiscount":9093,"Ġvarala":9094,"Ġshashwath":9095,"win":9096,"Ġrich":9097,"odaniki":9098,"anamu":9099,"Ġswecch":9100,"Ġswabhavam":9101,"impunu":9102,"Ġparishkarinchadam":9103,"mas":9104,"Ġfees":9105,"Ġtry":9106,"Ġdarunanga":9107,"Ġhack":9108,"Ġavutunna":9109,"Ġchadivina":9110,"ero":9111,"udha":9112,"Ġscheduled":9113,"Ġgumm":9114,"Ġbrows":9115,"karamaina":9116,"Ġsansthalaku":9117,"Ġkarthik":9118,"ps":9119,"Ġvistarinch":9120,"Ġgelip":9121,"earch":9122,"Ê¹":9123,"aleru":9124,"Ġnirnayanni":9125,"Ġkurr":9126,"Ġsonta":9127,"Ġedurkontunna":9128,"Ġvijayavantamaina":9129,"istondani":9130,"Ġsalman":9131,"Ġcross":9132,"inchabadatayi":9133,"Ġveluguloki":9134,"Ġwarm":9135,"Ġwhich":9136,"gan":9137,"Ġsava":9138,"ayat":9139,"onani":9140,"Ġbase":9141,"Ġvachchaka":9142,"Ġvyavasthalanu":9143,"Ġaavishkarinch":9144,"Ġgont":9145,"oso":9146,"Ġudrikt":9147,"wh":9148,"Ġbott":9149,"Ġkavalante":9150,"Ġyuvakudu":9151,"Ġpramukhulu":9152,"Ġnavvuthu":9153,"Ġgames":9154,"Ġbidda":9155,"Ġasupatrilo":9156,"Ġprakasam":9157,"Ġrahasya":9158,"eration":9159,"udem":9160,"ublic":9161,"Ġgelupu":9162,"ikaranam":9163,"Ġcertific":9164,"Ġsukravaram":9165,"Ġsunnitmaina":9166,"Ġbunny":9167,"Ġdant":9168,"Ġamayak":9169,"Ġvesavi":9170,"Ġchadavadam":9171,"Ġdookudu":9172,"Ġingland":9173,"Ġstreel":9174,"Ġdrugs":9175,"Ġmayam":9176,"Ġgate":9177,"Ġwom":9178,"Ġswar":9179,"ivrata":9180,"Ġprakatanalu":9181,"Ġduradr":9182,"Ġadaya":9183,"akkada":9184,"asy":9185,"Ġrajasekhar":9186,"ishtanga":9187,"Ġresearch":9188,"Ġkarmika":9189,"Ġchanipoyina":9190,"Ġregistration":9191,"Ġchesukuntu":9192,"Ġsteel":9193,"imchandi":9194,"iksha":9195,"lem":9196,"avish":9197,"Ġkors":9198,"Ġutsaham":9199,"Ġchesukovalani":9200,"Ġmanast":9201,"Ġvishal":9202,"Ġretri":9203,"Ġmatlade":9204,"Ġtepp":9205,"Ġviruch":9206,"Ġperkonna":9207,"Ġcycle":9208,"Ġmaya":9209,"Ġmartulaku":9210,"Ġchusindi":9211,"Ġvimarsh":9212,"Ġscore":9213,"Ġthim":9214,"Ġpandug":9215,"Ġsequ":9216,"liesh":9217,"Ġprayogam":9218,"Ġkaneesam":9219,"cil":9220,"ivaru":9221,"Ġmech":9222,"evious":9223,"Ġsannah":9224,"Ġvamshi":9225,"thondi":9226,"Ġdurga":9227,"Ġmandir":9228,"Ġninn":9229,"Ġennika":9230,"Ġkadupu":9231,"Ġprashnalaku":9232,"Ġcup":9233,"ipur":9234,"imchina":9235,"Ġnindina":9236,"alanopp":9237,"pt":9238,"Ġbanis":9239,"Ġpanichestunna":9240,"Ġviparitamaina":9241,"Ġprob":9242,"Ġgatedadi":9243,"Ġnakili":9244,"Ġatmahaty":9245,"Ġpatel":9246,"Ġkham":9247,"Ġrayadam":9248,"avay":9249,"ukuntanu":9250,"Ġpunaravar":9251,"under":9252,"Ġpettandi":9253,"Ġviparitanga":9254,"mundu":9255,"ective":9256,"adanike":9257,"Ġsamasyalaku":9258,"Ġfield":9259,"agod":9260,"Ġmaari":9261,"Ġbhoomipai":9262,"Ġbahirg":9263,"Ġvolunte":9264,"Ġprevious":9265,"Ġadhisth":9266,"ipoindi":9267,"Ġsudhirla":9268,"akara":9269,"Ġnirminch":9270,"eeta":9271,"Ġprantalanu":9272,"Ġsignal":9273,"Ġuppagr":9274,"Ġcharge":9275,"ds":9276,"Ġsetting":9277,"Ġdumm":9278,"Ġvisvasam":9279,"Ġrakshinchadaniki":9280,"Ġelectronic":9281,"xy":9282,"icin":9283,"Ġvang":9284,"anus":9285,"Ġraghav":9286,"Ġkalch":9287,"Ġabhish":9288,"Ġdiguva":9289,"Ġvecchi":9290,"Ġislam":9291,"Ġbeach":9292,"Ġbhumulu":9293,"play":9294,"avacch":9295,"Ġmutt":9296,"Ġvard":9297,"Ġcheyalane":9298,"Ġtarunamlo":9299,"badi":9300,"esin":9301,"rame":9302,"Ġchestanani":9303,"Ġtanapai":9304,"Ġkalugutundi":9305,"arallo":9306,"estunna":9307,"Ġangikarinch":9308,"Ġree":9309,"elato":9310,"Ġshri":9311,"chesi":9312,"rict":9313,"Ġacharya":9314,"Ġbai":9315,"Ġbord":9316,"Ġsandeep":9317,"Ġbudhavaram":9318,"yt":9319,"Ġcheyabadatayi":9320,"Ġpilla":9321,"Ġengineer":9322,"aratri":9323,"Ġpit":9324,"Ġabhiruch":9325,"imchenduku":9326,"Ġempe":9327,"Ġadigina":9328,"Ġingliesh":9329,"Ġantarayam":9330,"Ġtheesukondi":9331,"Ġprapanchamloni":9332,"arah":9333,"Ġmukhyamantriga":9334,"Ġkendraniki":9335,"evu":9336,"analoni":9337,"assunu":9338,"Ġvirg":9339,"Ġtanadaina":9340,"ayiga":9341,"Ġkonasagutunna":9342,"Ġkotlu":9343,"Ġpatralanu":9344,"mer":9345,"Ġmuppu":9346,"Ġmarug":9347,"Ġtatv":9348,"istara":9349,"Ġchlorop":9350,"Ġpondutaru":9351,"Ġanumanalu":9352,"Ġnadup":9353,"Ġchandrashekar":9354,"Ġsapeksh":9355,"Ġmahillaku":9356,"Ġchowdary":9357,"Ġbhagalu":9358,"areera":9359,"Ġjillaku":9360,"Ġmunch":9361,"Ġpuni":9362,"Ġmaku":9363,"akatt":9364,"Ġlanch":9365,"ulli":9366,"Ġtecchi":9367,"Ġpriya":9368,"Ġsail":9369,"24":9370,"Ġchendutunna":9371,"Ġchuputundi":9372,"inchukoni":9373,"Ġgulabi":9374,"Ġvisipy":9375,"Ġbeema":9376,"apanch":9377,"Ġmedium":9378,"Ġnigha":9379,"Ġcelebr":9380,"Ġkalashala":9381,"Ġmaram":9382,"Ġaspatr":9383,"Ġneelam":9384,"Ġupashamanam":9385,"Ġprarambhinchadaniki":9386,"Ġmarchip":9387,"Ġeduruga":9388,"apaduthunnaru":9389,"Ġprashansalu":9390,"Ġvyaty":9391,"Ġmarche":9392,"arnu":9393,"Ġartificial":9394,"Ġemo":9395,"Ġnewyark":9396,"Ġretail":9397,"galu":9398,"Ġ2000":9399,"Ġaarogyaniki":9400,"Ġpodavu":9401,"aptop":9402,"Ġdiggaz":9403,"Ġmadirigaane":9404,"athula":9405,"Ġnamunalu":9406,"25":9407,"Ġcheyani":9408,"Ġdesalaku":9409,"Ġrunam":9410,"Ġsyareera":9411,"Ġkatina":9412,"Ġvyatyasam":9413,"Ġsamvatsara":9414,"Ġmurali":9415,"Ġgirijana":9416,"Ġoriginal":9417,"Ġcolpoen":9418,"Ġlakshyanni":9419,"Ġragane":9420,"Ġstyle":9421,"Ġmessage":9422,"13":9423,"Ġprashanth":9424,"Ġchebite":9425,"Ġvanar":9426,"Ġnirnayincharu":9427,"Ġmayor":9428,"dev":9429,"Ġsulu":9430,"jee":9431,"akulanu":9432,"Ġintini":9433,"Ġneta":9434,"sel":9435,"Ġveladi":9436,"Ġkutumbalaku":9437,"uddin":9438,"Ġtimes":9439,"maa":9440,"Ġsridevi":9441,"Ġmamidi":9442,"Ġabhinandana":9443,"Ġtatt":9444,"Ġhous":9445,"Ġcontract":9446,"uddi":9447,"iver":9448,"Ġsarams":9449,"avirus":9450,"Ġvastu":9451,"Ġ600":9452,"utunnayani":9453,"Ġdigina":9454,"Ġoption":9455,"Ġsrikakulam":9456,"Ġshaik":9457,"osoft":9458,"atel":9459,"Ġbhaganni":9460,"inchevaru":9461,"Ġprashanthanga":9462,"Ġanubhut":9463,"Ġstambh":9464,"Ġharik":9465,"allam":9466,"Ġashir":9467,"Ġchestunnanu":9468,"Ġcheyanunnaru":9469,"Ġutk":9470,"Ġther":9471,"Ġprajapr":9472,"Ġvimuk":9473,"Ġveedhi":9474,"Ġjavab":9475,"bas":9476,"chesina":9477,"Ġchamuru":9478,"Ġvaish":9479,"Ġneram":9480,"Ġpolicy":9481,"Ġsainyam":9482,"Ġkavitvam":9483,"kanga":9484,"Ġdeeksh":9485,"agh":9486,"Ġpadhe":9487,"Ġunnattu":9488,"Ġvaranta":9489,"Ġsahod":9490,"Ġpanula":9491,"Ġgantallo":9492,"Ġbaby":9493,"Ġromantic":9494,"Ġyerpaduthundi":9495,"Ġkula":9496,"Ġload":9497,"Ġcheppu":9498,"Ġnamunalanu":9499,"Ġplatforms":9500,"Ġkitt":9501,"Ġchakkani":9502,"Ġinstitute":9503,"yank":9504,"Ġpd":9505,"Ġsreemathi":9506,"Ġchh":9507,"abhipr":9508,"Ġmarayi":9509,"Ġcharges":9510,"yalaku":9511,"Ġpichi":9512,"ukunnappudu":9513,"Ġdakshin":9514,"Ġchurukuga":9515,"vish":9516,"Ġshant":9517,"Ġvese":9518,"Ġsyareeraaniki":9519,"wam":9520,"Ġkun":9521,"Ġtask":9522,"Ġmaharshi":9523,"Ġvecchani":9524,"Ġsind":9525,"Ġcaron":9526,"Ġatl":9527,"Ġpothe":9528,"iky":9529,"Ġvesukuni":9530,"Ġgandaragol":9531,"avutunnayi":9532,"Ġprajekt":9533,"Ġistamani":9534,"lakshala":9535,"ora":9536,"Ġvidhanalanu":9537,"Ġvism":9538,"Ġpodd":9539,"Ġtisuku":9540,"Ġtufan":9541,"Ġviramam":9542,"Ġsonia":9543,"eela":9544,"ting":9545,"ishth":9546,"Ġokkar":9547,"Ġcheri":9548,"assulo":9549,"Ġtera":9550,"agano":9551,"Ġparoksh":9552,"ukovatam":9553,"Ġpremanu":9554,"Ġkemer":9555,"adharit":9556,"alok":9557,"poyaru":9558,"Ġaddank":9559,"valla":9560,"agadda":9561,"Ġanusar":9562,"Ġmarokati":9563,"Ġviplavam":9564,"Ġasaktikaranga":9565,"agi":9566,"ilonu":9567,"Ġlaptop":9568,"eyadaniki":9569,"Ġren":9570,"Ġwr":9571,"Ġanukoni":9572,"Ġbhajpa":9573,"Ġhanum":9574,"Ġtaggina":9575,"Ġthisukocch":9576,"Ġunchadaniki":9577,"Ġkashtapadi":9578,"star":9579,"Ġsevala":9580,"Ġbagund":9581,"Ġsamooham":9582,"Ġdadap":9583,"Ġcommunicate":9584,"Ġoh":9585,"Ġgoppaga":9586,"Ġpantalu":9587,"Ġretir":9588,"Ġhakkulu":9589,"istoo":9590,"Ġshanthi":9591,"Ġtoh":9592,"Ġsanklishtamaina":9593,"etal":9594,"Ġretrieved":9595,"Ġavutunnayi":9596,"Ġviac":9597,"garu":9598,"akaran":9599,"abandh":9600,"Ġilla":9601,"Ġmudra":9602,"Ġnirnayinchindi":9603,"arimchi":9604,"ju":9605,"arwal":9606,"adevi":9607,"Ġvariant":9608,"Ġrunalu":9609,"yath":9610,"Ġgruha":9611,"Ġentertainment":9612,"Ġcloud":9613,"oun":9614,"Ġlekapoyina":9615,"Ġgaduvu":9616,"edkar":9617,"Ġbiopic":9618,"Ġjodi":9619,"olp":9620,"Ġvidhi":9621,"Ġradu":9622,"alamb":9623,"Ġspashtata":9624,"Ġbond":9625,"Ġciv":9626,"Ġherol":9627,"Ġpopular":9628,"okati":9629,"Ġtarang":9630,"Ġmadhyam":9631,"Ġelaga":9632,"Ġmothanga":9633,"Ġaravind":9634,"Ġplease":9635,"Ġfashion":9636,"Ġmeh":9637,"Ġlakshanam":9638,"Ġadhyakshulu":9639,"Ġtags":9640,"Ġpratidi":9641,"Ġclub":9642,"Ġwest":9643,"Ġmadhyap":9644,"Ġikkad":9645,"Ġpanichesaru":9646,"Ġtelch":9647,"Ġnashtalu":9648,"atalaku":9649,"Ġunnadani":9650,"Ġramg":9651,"Ġchakkati":9652,"Ġyash":9653,"avantham":9654,"Ġnammak":9655,"Ġprotsahincadaniki":9656,"Ġkhatalo":9657,"Ġkantentnu":9658,"Ġsavaal":9659,"alaya":9660,"Ġayur":9661,"Ġthappadu":9662,"Ġkharchuto":9663,"Ġmarpula":9664,"bc":9665,"Ġrose":9666,"Ġchurch":9667,"istunnam":9668,"Ġsubs":9669,"Ġartist":9670,"Ġhani":9671,"ukunnam":9672,"waj":9673,"Ġsthanallo":9674,"Ġaloc":9675,"Ġprachuryam":9676,"ukuntondi":9677,"Ġahmed":9678,"Ġminchina":9679,"Ġvastava":9680,"Ġsiris":9681,"asthayilo":9682,"Ġantimanga":9683,"Ġmith":9684,"Ġtos":9685,"abhim":9686,"Ġrajesh":9687,"Ġchoodalani":9688,"Ġlinks":9689,"Ġepisode":9690,"Ġdadapuga":9691,"ulap":9692,"ander":9693,"esto":9694,"Ġselav":9695,"Ġsinimapai":9696,"Ġvenkates":9697,"Ġbahirang":9698,"Ġvineyog":9699,"Ġdavid":9700,"andali":9701,"Ġagent":9702,"Ġravali":9703,"Ġtanaki":9704,"Ġtot":9705,"itri":9706,"agad":9707,"Ġcondi":9708,"Ġgrih":9709,"ilon":9710,"Ġmarkulu":9711,"dar":9712,"istanani":9713,"bert":9714,"anikanth":9715,"Ġminaha":9716,"Ġaway":9717,"Ġbhug":9718,"osis":9719,"Ġswath":9720,"Ġnepadhyam":9721,"nanni":9722,"Ġpada":9723,"Ġaakulu":9724,"Ġkanuk":9725,"aland":9726,"Ġbari":9727,"edanni":9728,"Ġundevi":9729,"Ġintalo":9730,"Ġcongres":9731,"inatle":9732,"Ġsik":9733,"upt":9734,"Ġshani":9735,"Ġparisthitula":9736,"Ġpeduth":9737,"Ġmumm":9738,"Ġauth":9739,"Ġpratid":9740,"Ġviswavidyalayam":9741,"Ġrajkiyanga":9742,"Ġpelliki":9743,"Ġutpattula":9744,"Ġsigg":9745,"Ġeduc":9746,"Ġtaggadam":9747,"Ġperige":9748,"wala":9749,"Ġbant":9750,"Ġshekhar":9751,"Ġoly":9752,"Ġdress":9753,"Ġvissar":9754,"Ġsta":9755,"Ġpatak":9756,"Ġchebutondi":9757,"chepp":9758,"Ġsaruk":9759,"Ġbeen":9760,"Ġvikas":9761,"etta":9762,"Ġsrim":9763,"Ġenchukunna":9764,"Ġsepu":9765,"Ġshakthi":9766,"elt":9767,"athanga":9768,"Ġdiffer":9769,"umdi":9770,"Ġaddam":9771,"iction":9772,"Ġsarasw":9773,"Ġshocking":9774,"Ġabbay":9775,"Ġsamvatsaraluga":9776,"unnar":9777,"amaite":9778,"ushti":9779,"Ġivey":9780,"Ġparikshala":9781,"arikaina":9782,"Ġjavabu":9783,"Ġgutt":9784,"Ġvadanalu":9785,"Ġotla":9786,"utanu":9787,"Ġhung":9788,"Ġreli":9789,"Ġarogyanga":9790,"Ġatyutt":9791,"Ġpremalo":9792,"Ġkulal":9793,"Ġanuvartanam":9794,"anad":9795,"Ġvaddu":9796,"Ġinj":9797,"Ġsthitini":9798,"Ġindukosam":9799,"len":9800,"ices":9801,"ukunta":9802,"akhand":9803,"Ġmottamodati":9804,"Ġpunichesin":9805,"ayane":9806,"Ġintr":9807,"Ġnatistunnaru":9808,"Ġpatrala":9809,"Ġtrac":9810,"Ġvyavasthala":9811,"Ġsowm":9812,"Ġmuse":9813,"Ġ250":9814,"Ġagain":9815,"Ġsrikr":9816,"Ġsodara":9817,"Ġdati":9818,"Ġmavo":9819,"Ġtend":9820,"Ġcheth":9821,"ogen":9822,"Ġdigi":9823,"Ġsamajaniki":9824,"Ġjeevitamlo":9825,"sis":9826,"Ġchocol":9827,"akshamlo":9828,"Ġteka":9829,"Ġanubhuti":9830,"Ġmugicin":9831,"Ġprathipaksha":9832,"inappati":9833,"thy":9834,"Ġib":9835,"akshanga":9836,"ves":9837,"Ġear":9838,"Ġgudlu":9839,"Ġsalahalu":9840,"ux":9841,"Ġkoll":9842,"Ġyeh":9843,"Ġlotu":9844,"Ġchitrallo":9845,"Ġasaktikar":9846,"inattuga":9847,"Ġbots":9848,"Ġcommunity":9849,"Ġttd":9850,"vo":9851,"Ġcherukunna":9852,"Ġappatiki":9853,"Ġvinna":9854,"Ġsodari":9855,"Ġambedkar":9856,"Ġtish":9857,"Ġhum":9858,"Ġayane":9859,"Ġalochanal":9860,"Ġkshetram":9861,"Ġunnayi":9862,"Ġkaabatti":9863,"Ġitharulaku":9864,"Ġtdpk":9865,"Ġbro":9866,"Ġparishramala":9867,"Ġmicrosoft":9868,"ecut":9869,"Ġmoola":9870,"Ġjarigi":9871,"Ġsage":9872,"enni":9873,"Ġyantram":9874,"Ġnitito":9875,"Ġdarakhast":9876,"Ġhajarayyaru":9877,"idaka":9878,"Ġuth":9879,"Ġanukunte":9880,"Ġnivaran":9881,"Ġord":9882,"Ġinform":9883,"Ġprayana":9884,"Ġadde":9885,"Ġpatrallo":9886,"dik":9887,"Ġech":9888,"atalo":9889,"Ġsrav":9890,"Ġmantriga":9891,"Ġparishramalu":9892,"Ġabd":9893,"Ġbomma":9894,"achchith":9895,"alamaina":9896,"Ġchalla":9897,"Ġchitkalu":9898,"Ġchesukun":9899,"Ġtaggutundi":9900,"Ġdigaru":9901,"Ġrakshas":9902,"Ġnill":9903,"Ġrasam":9904,"anaanni":9905,"ims":9906,"Ġrakul":9907,"Ġupayogapaduthundi":9908,"Ġkomm":9909,"ukain":9910,"Ġdivy":9911,"Ġsendriya":9912,"Ġanthe":9913,"ours":9914,"Ġhectar":9915,"Ġpok":9916,"Ġgard":9917,"Ġcoach":9918,"Ġaavedana":9919,"Ġmix":9920,"Ġrupakalpana":9921,"Ġpam":9922,"Ġtakshana":9923,"Ġsheet":9924,"indane":9925,"Ġpondandi":9926,"Ġ2004":9927,"Ġpackag":9928,"Ġbarilo":9929,"ukhi":9930,"intaga":9931,"Ġchebutunnayi":9932,"Ġbible":9933,"ukogal":9934,"utta":9935,"Ġbhavalanu":9936,"Ġponde":9937,"Ġcoronavirus":9938,"uriki":9939,"Ġendaro":9940,"Ġagra":9941,"Ġasaktiga":9942,"Ġnimitham":9943,"Ġvunnayi":9944,"avaddani":9945,"Ġvyaparanni":9946,"Ġvestunnaru":9947,"Ġturn":9948,"ications":9949,"Ġagni":9950,"Ġchitranto":9951,"Ġenchukovadam":9952,"Ġledannaru":9953,"asthalam":9954,"Ġrub":9955,"Ġundadanto":9956,"Ġdead":9957,"Ġsrinu":9958,"arapradesh":9959,"aidi":9960,"Ġmarri":9961,"Ġbhavinchi":9962,"Ġapar":9963,"Ġtelusukondi":9964,"Ġoperating":9965,"Ġbali":9966,"gaj":9967,"araina":9968,"Ġmanak":9969,"Ġvisham":9970,"Ġconference":9971,"Ġindialo":9972,"Ġvegavantam":9973,"Ġnaalugu":9974,"Ġmandalamloni":9975,"aradu":9976,"Ġlakshyalu":9977,"Ġtrade":9978,"otsav":9979,"alanukunte":9980,"rita":9981,"rapr":9982,"Ġdusuk":9983,"Ġvastund":9984,"Ġpadaviki":9985,"Ġmarokaru":9986,"Ġaahv":9987,"Ġatyadhikanga":9988,"office":9989,"Ġtown":9990,"Ġsanghala":9991,"Ġvistarinchi":9992,"Ġadrustam":9993,"inatt":9994,"Ġfarm":9995,"Ġgrup":9996,"Ġdeenito":9997,"Ġchellimpu":9998,"Ġadigaru":9999,"Ġremote":10000,"Ġavasaranni":10001,"Ġ85":10002,"Ġsandi":10003,"Ġkra":10004,"Ġmaran":10005,"Ġvividh":10006,"Ġsuchana":10007,"Ġparinamalanu":10008,"Ġnorth":10009,"eswaram":10010,"Ġimm":10011,"inada":10012,"athiki":10013,"Ġhall":10014,"Ġteen":10015,"Ġakali":10016,"lony":10017,"hic":10018,"Ġtheir":10019,"Ġvyaktulanu":10020,"Ġsekarana":10021,"Ġchuttupakkala":10022,"Ġkonasagutondi":10023,"amah":10024,"Ġagrah":10025,"Ġruchikarmaina":10026,"avutunnaru":10027,"Ġprinc":10028,"Ġadayanni":10029,"Ġdiab":10030,"Ġabhiprayapaddaru":10031,"Ġfoundation":10032,"Ġcrime":10033,"Ġvyaktigatamga":10034,"Ġpurogatini":10035,"Ġparyavas":10036,"mission":10037,"Ġmonn":10038,"Ġadbhuta":10039,"Ġcheyinch":10040,"Ġsagindi":10041,"agalara":10042,"Ġkulam":10043,"Ġsambhashana":10044,"Ġputtinaroju":10045,"ress":10046,"Ġdikk":10047,"Ġrajanikanth":10048,"Ġcheyadame":10049,"Ġrashtralaku":10050,"Ġkovvu":10051,"enge":10052,"Ġcla":10053,"Ġchesamani":10054,"ache":10055,"Ġsridhar":10056,"Ġvelikit":10057,"Ġkutumbanni":10058,"Ġsarfar":10059,"Ġsurakshitamaina":10060,"Ġkhani":10061,"Ġzone":10062,"Ġprajaswamya":10063,"tv":10064,"Ġwine":10065,"Ġmadhur":10066,"Ġpoll":10067,"Ġapk":10068,"Ġparimith":10069,"Ġawards":10070,"aiki":10071,"ball":10072,"Ġmudu":10073,"Ġgow":10074,"Ġcheyamani":10075,"Ġkarunu":10076,"Ġpadey":10077,"Ġvaikhari":10078,"ca":10079,"apanalu":10080,"Ġaada":10081,"Ġvidhanamlo":10082,"ticy":10083,"telugu":10084,"Ġclear":10085,"Ġvidhulu":10086,"Ġkendralu":10087,"Ġsekarinchina":10088,"Ġavishkarana":10089,"Ġtelusukundam":10090,"oki":10091,"Ġadil":10092,"Ġsagutondi":10093,"Ġanek":10094,"Ġsarir":10095,"Ġempicalon":10096,"Ġgirl":10097,"Ġresponse":10098,"adilo":10099,"Ġcontain":10100,"Ġkanugont":10101,"Ġnidhula":10102,"Ġbhashalo":10103,"Ġsamskaran":10104,"ova":10105,"Ġparishubh":10106,"Ġmadyalo":10107,"Ġanandanni":10108,"Ġupayogapad":10109,"Ġvyapt":10110,"Ġkanab":10111,"Ġlekkalu":10112,"alamlo":10113,"Ġchapp":10114,"Ġantekaka":10115,"Ġphotolon":10116,"Ġdeshanni":10117,"Ġsave":10118,"cor":10119,"Ġguru":10120,"Ġseat":10121,"Ġtatkalika":10122,"Ġkorutu":10123,"adala":10124,"Ġjantu":10125,"Ġvaidyas":10126,"Ġfriends":10127,"ikato":10128,"arincharu":10129,"Ġempele":10130,"Ġveyandi":10131,"Ġvaaramlo":10132,"Ġjaripina":10133,"Ġtene":10134,"Ġtelusukunna":10135,"Ġcharchaniyam":10136,"Ġadhikarulato":10137,"Ġspr":10138,"Ġjanagan":10139,"Ġvilinam":10140,"Ġwashing":10141,"Ġpariganimchandi":10142,"adhip":10143,"Ġcome":10144,"Ġdg":10145,"itiga":10146,"Ġpratyarth":10147,"Ġterakekkina":10148,"vv":10149,"aves":10150,"yaga":10151,"Ġsammel":10152,"Ġcheppukochcharu":10153,"batu":10154,"anloni":10155,"Ġmala":10156,"Ġchid":10157,"Ġacademy":10158,"Ġshiva":10159,"Ġavanni":10160,"Ġtagginch":10161,"arupam":10162,"Ġoct":10163,"inchinattu":10164,"entha":10165,"Ġgap":10166,"Ġvillu":10167,"Ġsrinivasarao":10168,"Ġanavas":10169,"Ġthem":10170,"Ġpremium":10171,"Ġgamanist":10172,"Ġjirn":10173,"Ġchestundani":10174,"Ġunnavaru":10175,"Ġandistunnaru":10176,"Ġavutayi":10177,"Ġpranthaniki":10178,"uvulaku":10179,"Ġanasu":10180,"Ġcharitranu":10181,"Ġbacteria":10182,"Ġser":10183,"Ġcpi":10184,"Ġayipoyindi":10185,"Ġvijayalu":10186,"Ġsandarbham":10187,"Ġrepublic":10188,"Ġjanaganana":10189,"gant":10190,"Ġvantu":10191,"avall":10192,"Ġcheppavachchu":10193,"Ġuncham":10194,"ardr":10195,"Ġnalugo":10196,"lak":10197,"addh":10198,"ulake":10199,"Ġsabhyat":10200,"Ġlopali":10201,"Ġsampoor":10202,"news":10203,"Ġreserve":10204,"Ġsanniveshalu":10205,"Ġjh":10206,"Ġvadakam":10207,"Ġvistarana":10208,"Ġcharging":10209,"Ġsrikaram":10210,"Ġnishedham":10211,"anula":10212,"Ġnirmulan":10213,"Ġnanyamaina":10214,"uniti":10215,"Ġgerm":10216,"Ġpatanam":10217,"ukunela":10218,"Ġchandrababun":10219,"Ġpunarn":10220,"Ġestate":10221,"Ġthom":10222,"ashakti":10223,"Ġenthagano":10224,"Ġtalupu":10225,"Ġpatraku":10226,"Ġdevelopment":10227,"asm":10228,"Ġprathipad":10229,"Ġshareera":10230,"arh":10231,"Ġdim":10232,"Ġvijayas":10233,"Ġnayakula":10234,"aries":10235,"Ġprabhutvampai":10236,"Ġkaligindi":10237,"Ġcharyala":10238,"Ġjantuvulu":10239,"Ġnyayamurthy":10240,"Ġpanicheyadaniki":10241,"Ġdid":10242,"alasi":10243,"Ġpogott":10244,"alenu":10245,"Ġkuch":10246,"Ġtelga":10247,"Ġnadaka":10248,"Ġfitness":10249,"eli":10250,"achal":10251,"Ġcree":10252,"Ġadesinchindi":10253,"Ġdating":10254,"anird":10255,"Ġsutram":10256,"Ġsentiment":10257,"Ġsaripothundi":10258,"Ġanipinch":10259,"Ġbhavincharu":10260,"Ġpempudu":10261,"Ġcalories":10262,"Ġrech":10263,"Ġkasepu":10264,"Ġchar":10265,"untu":10266,"Ġemb":10267,"Ġchupincharu":10268,"Ġadigindi":10269,"Ġphalitala":10270,"Ġkudir":10271,"Ġjeetam":10272,"Ġkaranalanu":10273,"Ġmrud":10274,"Ġbahirgatham":10275,"udalla":10276,"inagar":10277,"Ġashimchina":10278,"Ġelectron":10279,"ipping":10280,"asthe":10281,"Ġpind":10282,"atle":10283,"Ġgum":10284,"ills":10285,"Ġsadhincharu":10286,"Ġpranthanni":10287,"Ġpradeshamlo":10288,"Ġvyatirek":10289,"andarini":10290,"Ġkudur":10291,"Ġ2006":10292,"arangam":10293,"ukunnarani":10294,"Ġnetritvam":10295,"Ġtho":10296,"Ġavir":10297,"Ġabhiv":10298,"Ġtelusukovadam":10299,"Ġkobbari":10300,"Ġcali":10301,"Ġcake":10302,"Ġsaras":10303,"Ġindex":10304,"Ġgramala":10305,"alanukune":10306,"Ġdistrict":10307,"Ġpilupunicharu":10308,"Ġnidarshanam":10309,"Ġveeksh":10310,"Ġsamaya":10311,"Ġbrahma":10312,"ules":10313,"Ġpratisari":10314,"Ġsthayilanu":10315,"Ġperagadaniki":10316,"Ġrights":10317,"indra":10318,"elle":10319,"Ġsamsthaku":10320,"Ġhair":10321,"Ġbhayank":10322,"Ġnegative":10323,"adiy":10324,"Ġbandham":10325,"Ġnibandhanalanu":10326,"Ġsodh":10327,"atrika":10328,"aceae":10329,"Ġnashtap":10330,"Ġbutton":10331,"eshwara":10332,"Ġmuddu":10333,"Ġss":10334,"Ġmeer":10335,"Ġswas":10336,"Ġmonna":10337,"evaraku":10338,"Ġlekunte":10339,"Ġblag":10340,"Ġsoukaryavantamaina":10341,"Ġshasn":10342,"ashakha":10343,"Ġvechi":10344,"Ġrefr":10345,"60":10346,"Ġbusy":10347,"Ġghanata":10348,"Ġrut":10349,"Ġgot":10350,"Ġsamana":10351,"bhag":10352,"Ġnived":10353,"Ġchelare":10354,"Ġtivrata":10355,"Ġnath":10356,"irit":10357,"Ġcherukundi":10358,"akalanga":10359,"Ġtwist":10360,"Ġjy":10361,"Ġmanassu":10362,"Ġpravesham":10363,"Ġrayalaseema":10364,"Ġshareeraanni":10365,"Ġprang":10366,"Ġjayal":10367,"Ġmanushulu":10368,"inate":10369,"Ġgst":10370,"Ġjog":10371,"atiga":10372,"Ġfan":10373,"Ġfut":10374,"Ġunites":10375,"ids":10376,"lishta":10377,"Ġroganirodhaka":10378,"utayani":10379,"Ġpadatam":10380,"Ġsudheer":10381,"umbers":10382,"Ġkanp":10383,"priyamaina":10384,"23":10385,"Ġname":10386,"Ġrow":10387,"ettina":10388,"Ġsadhimchindi":10389,"Ġpenche":10390,"Ġbhoug":10391,"padi":10392,"Ġwell":10393,"alanukuntunn":10394,"Ġsadupayalu":10395,"Ġmanugada":10396,"Ġchill":10397,"Ġjc":10398,"Ġunnam":10399,"Ġnaveen":10400,"Ġaashalu":10401,"adata":10402,"ulandariki":10403,"Ġsansthalo":10404,"Ġvenkateshwar":10405,"Ġviniyogadarulanu":10406,"Ġadhisthanam":10407,"Ġtarig":10408,"Ġbhavanalu":10409,"impaj":10410,"Ġkalpistundi":10411,"Ġvenkata":10412,"Ġanubhavimch":10413,"Ġeconom":10414,"Ġreliance":10415,"rathanu":10416,"Ġbac":10417,"ete":10418,"Ġintegr":10419,"Ġnipunula":10420,"Ġviews":10421,"Ġjama":10422,"Ġshaktiga":10423,"Ġmancham":10424,"Ġmantritva":10425,"Ġtelec":10426,"Ġnirvahinchi":10427,"Ġabhyasam":10428,"Ġsqu":10429,"Ġias":10430,"Ġavaman":10431,"Ġwall":10432,"Ġmac":10433,"Ġsadhanam":10434,"Ġpondaru":10435,"Ġdanilo":10436,"Ġbharatiy":10437,"Ġjosh":10438,"Ġsanklishta":10439,"Ġdirection":10440,"chandr":10441,"tiga":10442,"apurvakanga":10443,"Ġannoun":10444,"raparach":10445,"Ġrecent":10446,"Ġpages":10447,"Ġmaddatuga":10448,"Ġarach":10449,"Ġokat":10450,"Ġennadu":10451,"Ġactor":10452,"akalo":10453,"Ġrajeev":10454,"Ġpunah":10455,"Ġlibr":10456,"Ġvadh":10457,"avasth":10458,"Ġtamanna":10459,"Ġdruvikr":10460,"Ġsankshobham":10461,"yalato":10462,"Ġvina":10463,"Ġvella":10464,"ague":10465,"otsava":10466,"Ġvicharanaku":10467,"Ġtannula":10468,"Ġgermany":10469,"Ġhist":10470,"Ġveganto":10471,"adhanam":10472,"Ġwave":10473,"incina":10474,"Ġmugis":10475,"Ġjaganmohanreddy":10476,"urance":10477,"Ġsamayallo":10478,"attaru":10479,"Ġantardr":10480,"Ġakasam":10481,"Ġpandu":10482,"Ġuttarvulu":10483,"Ġsamr":10484,"Ġmadhav":10485,"Ġatyunn":10486,"erjee":10487,"Ġjio":10488,"Ġthond":10489,"Ġrendusarlu":10490,"Ġbanking":10491,"Ġvishleshakulu":10492,"Ġdvip":10493,"agn":10494,"Ġkalaniki":10495,"Ġvellipoth":10496,"Ġdashalu":10497,"Ġsamanam":10498,"Ġteliste":10499,"Ġcheppalani":10500,"Ġvellu":10501,"Ġrout":10502,"Ġutc":10503,"Ġvahinchina":10504,"Ġvideon":10505,"Ġganuka":10506,"Ġsabhyulaku":10507,"Ġsachin":10508,"Ġvyarthalanu":10509,"Ġvuha":10510,"Ġnayam":10511,"Ġodish":10512,"Ġnaat":10513,"Ġnirmistunnaru":10514,"Ġnibandhanal":10515,"Ġhayiga":10516,"Ġship":10517,"eve":10518,"Ġadaran":10519,"Ġpoota":10520,"Ġintavaraku":10521,"uddini":10522,"Ġvedini":10523,"Ġgadich":10524,"Ġdifferent":10525,"Ġpattukoni":10526,"Ġmugimp":10527,"Ġudaharanalu":10528,"Ġvyuhalanu":10529,"Ġprastutaniki":10530,"Ġkutumbalu":10531,"Ġexpress":10532,"Ġviruchukup":10533,"Ġcheyaalo":10534,"Ġkalapali":10535,"Ġennikalu":10536,"Ġallah":10537,"Ġparisodhakulu":10538,"Ġshasnasabha":10539,"ido":10540,"Ġerra":10541,"Ġprogramming":10542,"anki":10543,"Ġcherukunnaru":10544,"Ġcontin":10545,"Ġhrudayam":10546,"Ġankshalu":10547,"Ġtelev":10548,"Ġfoc":10549,"Ġteja":10550,"Ġtelusukov":10551,"Ġparidhi":10552,"Ġrot":10553,"Ġthirmanam":10554,"Ġposi":10555,"Ġaru":10556,"Ġnumbers":10557,"Ġshataniki":10558,"Ġnirvahistaru":10559,"Ġbaguntundi":10560,"Ġconnection":10561,"Ġmatchlo":10562,"Ġsweet":10563,"Ġyug":10564,"Ġchinnari":10565,"Ġvyasalu":10566,"usthundi":10567,"Ġmamuluga":10568,"inchagalavu":10569,"esp":10570,"udram":10571,"ugga":10572,"Ġudyama":10573,"40":10574,"ality":10575,"adin":10576,"Ġsahayanto":10577,"Ġsaty":10578,"Ġnilichina":10579,"Ġsamathulyatanu":10580,"Ġwarming":10581,"Ġdanam":10582,"Ġkarulo":10583,"Ġangla":10584,"arikam":10585,"Ġts":10586,"ige":10587,"Ġlocal":10588,"Ġniluv":10589,"Ġarik":10590,"Ġvitiki":10591,"Ġagarwal":10592,"ladesh":10593,"Ġdadiki":10594,"Ġlee":10595,"annamata":10596,"Ġbellam":10597,"Ġasantripti":10598,"ulandaru":10599,"Ġpade":10600,"Ġtayarav":10601,"inchabadd":10602,"Ġmishramanni":10603,"Ġparivart":10604,"Ġral":10605,"eshadu":10606,"Ġvistrut":10607,"Ġabhimanulaku":10608,"Ġradio":10609,"Ġsecretary":10610,"ilalo":10611,"Ġlakk":10612,"Ġmeth":10613,"Ġtisukochch":10614,"Ġpathakanni":10615,"vanni":10616,"Ġnakshatr":10617,"Ġhanikar":10618,"Ġpending":10619,"Ġchap":10620,"ivet":10621,"Ġpettukunna":10622,"Ġevarikaina":10623,"Ġtiraskarinch":10624,"Ġkanipistunnaayi":10625,"Ġpurtisth":10626,"80":10627,"Ġpump":10628,"imi":10629,"Ġantariksha":10630,"Ġmadhyapradesh":10631,"Ġcet":10632,"Ġveth":10633,"Ġmarutunna":10634,"Ġnanyatanu":10635,"Ġ95":10636,"Ġcheti":10637,"Ġpariharam":10638,"Ġakanksh":10639,"Ġvyaktigatic":10640,"gur":10641,"evari":10642,"Ġintlone":10643,"Ġstartup":10644,"zz":10645,"Ġeck":10646,"Ġmarintaga":10647,"impula":10648,"Ġdarshakudiga":10649,"Ġsays":10650,"Ġmritade":10651,"Ġnagababu":10652,"Ġautomatic":10653,"Ġlothuga":10654,"Ġelection":10655,"Ġnirmistunna":10656,"Ġvachchindi":10657,"Ġpaduthunna":10658,"Ġsudhakar":10659,"Ġhol":10660,"abadda":10661,"inchukun":10662,"Ġsathyam":10663,"mal":10664,"avyaptanga":10665,"Ġcond":10666,"Ġsame":10667,"Ġpatuga":10668,"Ġkaranamani":10669,"atledu":10670,"unnaanu":10671,"Ġperugutayi":10672,"rahman":10673,"Ġpratyekinchi":10674,"Ġparamanu":10675,"kort":10676,"Ġtone":10677,"ande":10678,"Ġgirijan":10679,"Ġplace":10680,"Ġprajapratin":10681,"Ġhem":10682,"ukunnatlu":10683,"Ġbujji":10684,"Ġmasala":10685,"Ġsandesanni":10686,"Ġvasth":10687,"Ġpadite":10688,"Ġwhen":10689,"Ġcamer":10690,"Ġnaan":10691,"Ġdharimchi":10692,"Ġapply":10693,"Ġsimp":10694,"Ġmuh":10695,"Ġchestune":10696,"Ġvidhvam":10697,"Ġpratinidhulu":10698,"Ġaspatrilo":10699,"Ġprajad":10700,"Ġnirvahakulu":10701,"Ġtoliv":10702,"Ġretl":10703,"Ġcheyyi":10704,"Ġsannahalu":10705,"Ġbra":10706,"epai":10707,"Ġnirmanamlo":10708,"Ġoffers":10709,"Ġsajeev":10710,"akundane":10711,"Ġpatram":10712,"Ġdialogue":10713,"Ġhuzur":10714,"iry":10715,"Ġcharyalaku":10716,"enes":10717,"imat":10718,"Ġprayogalu":10719,"Ġneojakavarga":10720,"inka":10721,"Ġsell":10722,"allalo":10723,"ekunda":10724,"Ġregister":10725,"Ġvittanalu":10726,"anloki":10727,"Ġrabot":10728,"Ġvelupalli":10729,"Ġkanipinchadu":10730,"Ġraktha":10731,"Ġracha":10732,"Ġmugisindi":10733,"Ġhrs":10734,"Ġanduvalana":10735,"Ġkrith":10736,"Ġkristu":10737,"Ġchendaru":10738,"ipotayi":10739,"Ġvaividhy":10740,"Ġconcept":10741,"vir":10742,"Ġbold":10743,"Ġevar":10744,"Ġsanketalu":10745,"Ġprarambhamavuthundi":10746,"Ġasaukary":10747,"ovadaniki":10748,"Ġabhyarthiga":10749,"Ġsarvis":10750,"Ġuddeshyam":10751,"Ġpovadam":10752,"ikaram":10753,"othu":10754,"Ġparisthitulalo":10755,"Ġkallaku":10756,"chal":10757,"action":10758,"Ġtagginche":10759,"Ġjoin":10760,"Ġfinancial":10761,"rala":10762,"antaga":10763,"Ġchattalu":10764,"palli":10765,"Ġvery":10766,"yaan":10767,"iyar":10768,"Ġkanipinchina":10769,"Ġkanugonandi":10770,"Ġinterviewlo":10771,"eyalani":10772,"Ġvasati":10773,"Ġgopyata":10774,"tick":10775,"Ġprabhavavantamaina":10776,"Ġokatiga":10777,"ier":10778,"Ġpettukoni":10779,"Ġclassic":10780,"vamlo":10781,"eyali":10782,"Ġkathala":10783,"Ġprakatanalo":10784,"Ġhaasan":10785,"Ġrajyangam":10786,"akta":10787,"Ġtelchi":10788,"Ġterichi":10789,"Ġtomato":10790,"Ġpick":10791,"Ġtut":10792,"Ġdidd":10793,"Ġdinotsavam":10794,"Ġdatab":10795,"Ġergatuku":10796,"ved":10797,"Ġjarugutumdani":10798,"ellaga":10799,"Ġabhimanula":10800,"ables":10801,"Ġprayanist":10802,"Ġramakrishn":10803,"Ġtaragat":10804,"word":10805,"loga":10806,"ukovadanto":10807,"Ġkhand":10808,"Ġchesevaru":10809,"enduke":10810,"Ġarag":10811,"ainanta":10812,"Ġdashala":10813,"Ġrabad":10814,"isthunnaru":10815,"ichand":10816,"Ġboxoffice":10817,"Ġbash":10818,"Ġpadma":10819,"Ġsangrah":10820,"yatm":10821,"Ġswagatham":10822,"Ġgenerate":10823,"Ġthriller":10824,"ukundam":10825,"enga":10826,"Ġchepalu":10827,"Ġneraverch":10828,"istonna":10829,"Ġsaripot":10830,"Ġjeevitaniki":10831,"Ġrs":10832,"Ġthan":10833,"Ġkutami":10834,"Ġchadarapu":10835,"Ġyajam":10836,"Ġuma":10837,"Ġdeh":10838,"iles":10839,"Ġnagarik":10840,"Ġsatyam":10841,"Ġrashtranni":10842,"back":10843,"Ġcb":10844,"Ġjutt":10845,"Ġstorage":10846,"Ġmoney":10847,"inundi":10848,"Ġnamasthe":10849,"imche":10850,"Ġbullet":10851,"gapore":10852,"Ġparadars":10853,"Ġpatti":10854,"Ġshastravetta":10855,"avyam":10856,"intlo":10857,"Ġanchor":10858,"Ġnagaraniki":10859,"Ġmakers":10860,"Ġsarihaddu":10861,"Ġteep":10862,"Ġdesalalo":10863,"board":10864,"Ġodd":10865,"onnata":10866,"Ġglass":10867,"Ġjantuvula":10868,"Ġeetal":10869,"apetti":10870,"Ġsamikaranam":10871,"Ġbhavistaru":10872,"Ġoopiri":10873,"Ġsociety":10874,"Ġolymp":10875,"Ġkaryakramala":10876,"Ġpranalikalu":10877,"Ġtolivelugu":10878,"Ġglam":10879,"Ġnirakarinch":10880,"Ġtarabadi":10881,"Ġtelugun":10882,"Ġoting":10883,"Ġanukondi":10884,"Ġgalaxy":10885,"Ġsifarus":10886,"Ġveedh":10887,"Ġkhareedaina":10888,"pm":10889,"Ġkatti":10890,"Ġkej":10891,"Ġdeng":10892,"Ġviacesar":10893,"Ġrekk":10894,"etram":10895,"Ġpedalaku":10896,"Ġgreenhouse":10897,"Ġsiddip":10898,"Ġcondition":10899,"iving":10900,"Ġsriv":10901,"ze":10902,"odyam":10903,"Ġchusukondi":10904,"Ġpravesha":10905,"Ġcards":10906,"Ġchainalo":10907,"Ġanati":10908,"aguji":10909,"Ġmanoj":10910,"Ġswalp":10911,"Ġtre":10912,"Ġchesukunte":10913,"eelo":10914,"Ġvenna":10915,"Ġvyaktulaku":10916,"Ġparisthitilo":10917,"Ġgurthuku":10918,"Ġterkekkutunna":10919,"Ġtelikapati":10920,"Ġcomplet":10921,"Ġheat":10922,"Ġreleas":10923,"Ġthes":10924,"Ġvellada":10925,"Ġ800":10926,"Ġchetiki":10927,"Ġbangladesh":10928,"Ġmohamm":10929,"Ġmupp":10930,"ajiv":10931,"untai":10932,"Ġstadi":10933,"avasam":10934,"Ġvijayaniki":10935,"Ġvipu":10936,"Ġiddariki":10937,"Ġperigayi":10938,"ukund":10939,"Ġmaripoyindi":10940,"Ġcommon":10941,"Ġistu":10942,"Ġdrivers":10943,"Ġflash":10944,"Ġkshamapanalu":10945,"Ġalex":10946,"Ġhet":10947,"Ġrakanga":10948,"Ġsamakshamlo":10949,"evar":10950,"Ġcheppinatlu":10951,"Ġdip":10952,"Ġvidudal":10953,"nala":10954,"Ġkodu":10955,"Ġsamme":10956,"Ġkhari":10957,"Ġanumathulu":10958,"Ġvyathirekata":10959,"Ġatyuttama":10960,"Ġmats":10961,"Ġleaders":10962,"Ġantadu":10963,"Ġvishadam":10964,"Ġdharalanu":10965,"Ġasthulu":10966,"Ġmondi":10967,"Ġmade":10968,"ulai":10969,"abda":10970,"Ġgos":10971,"anning":10972,"Ġinjan":10973,"Ġonly":10974,"Ġyouth":10975,"Ġlakshminar":10976,"Ġcommunist":10977,"Ġauton":10978,"Ġvistrutamaina":10979,"Ġchart":10980,"Ġbhram":10981,"Ġchestamu":10982,"Ġrajani":10983,"Ġkhachchith":10984,"Ġcharchaku":10985,"Ġtalent":10986,"Ġvyaktigaticarinchina":10987,"Ġbul":10988,"anaina":10989,"Ġadigi":10990,"valu":10991,"itu":10992,"ugaru":10993,"Ġnammuth":10994,"anip":10995,"inchalane":10996,"ikosam":10997,"Ġpurushulu":10998,"Ġbhuvan":10999,"Ġanubhavalanu":11000,"Ġkaryakalapala":11001,"Ġvaibhav":11002,"impulaku":11003,"Ġbotsa":11004,"Ġpatan":11005,"Ġtool":11006,"Ġvineyoganni":11007,"Ġsodhana":11008,"Ġrequ":11009,"Ġnoti":11010,"Ġexecut":11011,"Ġengland":11012,"Ġparikaralanu":11013,"Ġrekett":11014,"Ġpull":11015,"Ġvaraniki":11016,"Ġwait":11017,"Ġposts":11018,"Ġsavallu":11019,"Ġenglish":11020,"Ġasupatriki":11021,"kat":11022,"Ġvastaru":11023,"timp":11024,"Ġpariksha":11025,"Ġrashmika":11026,"Ġbcc":11027,"Ġlad":11028,"Ġatadini":11029,"Ġannayya":11030,"istunnamu":11031,"Ġperugutondi":11032,"Ġnidhulanu":11033,"Ġmettaga":11034,"Ġchestarani":11035,"Ġistunnaru":11036,"unnu":11037,"ori":11038,"Ġkortuku":11039,"Ġthattukol":11040,"das":11041,"ikudu":11042,"Ġrendent":11043,"Ġsingapore":11044,"Ġvellanu":11045,"Ġminor":11046,"Ġvargikarinch":11047,"Ġelagaina":11048,"Ġkhanij":11049,"Ġfocus":11050,"ukog":11051,"Ġkarun":11052,"ippudu":11053,"Ġparishad":11054,"Ġmerugga":11055,"Ġgaddi":11056,"Ġswatant":11057,"Ġfiction":11058,"Ġjanvari":11059,"Ġaaviri":11060,"arledu":11061,"Ġnarendram":11062,"Ġnadiche":11063,"Ġatagallu":11064,"alanga":11065,"Ġgift":11066,"aharam":11067,"Ġbrath":11068,"Ġcherukovadaniki":11069,"Ġnethalaku":11070,"Ġcommittees":11071,"halo":11072,"iddi":11073,"kaiah":11074,"Ġpondup":11075,"Ġscenes":11076,"Ġkenn":11077,"aped":11078,"Ġraman":11079,"Ġsweey":11080,"adulu":11081,"Ġchek":11082,"Ġinsp":11083,"Ġbharata":11084,"Ġadrusht":11085,"lock":11086,"Ġbhale":11087,"Ġevo":11088,"Ġvidhamaina":11089,"Ġherole":11090,"Ġchestunnama":11091,"Ġsambhavistundi":11092,"Ġmidaku":11093,"Ġparishkaralanu":11094,"Ġvedukalu":11095,"Ġmop":11096,"Ġtalam":11097,"attam":11098,"Ġkalakar":11099,"astri":11100,"Ġprarambhamaina":11101,"Ġvidyuttu":11102,"Ġyoch":11103,"Ġdesamlone":11104,"Ġmunicipality":11105,"Ġkalayika":11106,"Ġcouncil":11107,"Ġhanikarmine":11108,"sm":11109,"uce":11110,"Ġjim":11111,"Ġprakatinch":11112,"Ġsangharsh":11113,"inchukundi":11114,"Ġjala":11115,"Ġsham":11116,"Ġpadala":11117,"Ġrecycling":11118,"agol":11119,"Ġjarg":11120,"aduthunna":11121,"Ġmarus":11122,"Ġalasyanga":11123,"Ġcpm":11124,"Ġprep":11125,"Ġprajas":11126,"Ġsadharanam":11127,"Ġluck":11128,"Ġpmk":11129,"Ġbhaktula":11130,"Ġration":11131,"Ġvallani":11132,"Ġbeg":11133,"Ġinsurance":11134,"Ġlocation":11135,"Ġkutumbamlo":11136,"Ġnidhi":11137,"Ġsets":11138,"Ġpainting":11139,"Ġdeposit":11140,"Ġvolunteers":11141,"Ġpractices":11142,"Ġprana":11143,"Ġgurinchina":11144,"Ġvijayavad":11145,"yalalo":11146,"Ġvimaanas":11147,"Ġpaathasalaso":11148,"Ġkumbhak":11149,"Ġghatanapai":11150,"jil":11151,"dhi":11152,"inchinappatiki":11153,"Ġprachina":11154,"Ġbheema":11155,"Ġpaine":11156,"ipotunna":11157,"Ġrbi":11158,"Ġchesinattu":11159,"Ġippudi":11160,"Ġnatural":11161,"Ġ67":11162,"Ġ190":11163,"Ġscor":11164,"padam":11165,"Ġdrama":11166,"Ġvides":11167,"Ġrupayala":11168,"Ġterm":11169,"inanduna":11170,"Ġkana":11171,"Ġcharma":11172,"Ġroll":11173,"Ġshasw":11174,"Ġvisual":11175,"ardhan":11176,"Ġoptimize":11177,"Ġsesh":11178,"Ġlady":11179,"Ġotam":11180,"Ġavasarala":11181,"Ġscene":11182,"Ġactiv":11183,"Ġparirakshana":11184,"Ġjeeva":11185,"atani":11186,"adik":11187,"Ġdan":11188,"sham":11189,"emit":11190,"Ġshuddhi":11191,"igur":11192,"Ġpadavulu":11193,"Ġgeor":11194,"Ġtakshaname":11195,"ologies":11196,"kala":11197,"othondi":11198,"aprasad":11199,"Ġkaryadarsh":11200,"Ġmaranimcharu":11201,"Ġkishor":11202,"Ġmeede":11203,"ikula":11204,"uvy":11205,"Ġavalamb":11206,"Ġvijayavantham":11207,"Ġ120":11208,"avalla":11209,"Ġshit":11210,"Ġcheyali":11211,"Ġnirvahinchandi":11212,"mcharu":11213,"Ġpanichestayi":11214,"Ġpeduthundi":11215,"Ġmuseum":11216,"Ġwo":11217,"Ġappulu":11218,"Ġkalisina":11219,"Ġaiduguru":11220,"inchaledani":11221,"Ġboyapati":11222,"bel":11223,"fer":11224,"hanni":11225,"veda":11226,"cha":11227,"athala":11228,"Ġpadardh":11229,"Ġvivarala":11230,"Ġvellandi":11231,"Ġkalust":11232,"asans":11233,"Ġayyaka":11234,"amam":11235,"Ġspoon":11236,"Ġserial":11237,"Ġratn":11238,"Ġbhagangane":11239,"eal":11240,"Ġpata":11241,"Ġabhyarthula":11242,"Ġsadal":11243,"Ġbriton":11244,"Ġdigumati":11245,"xic":11246,"Ġemina":11247,"Ġpuraskar":11248,"anthudu":11249,"Ġlabhinche":11250,"Ġdemands":11251,"Ġsabhyulatho":11252,"arta":11253,"Ġeast":11254,"Ġdalitha":11255,"Ġspain":11256,"Ġanukokunda":11257,"Ġsavaran":11258,"Ġsahodyog":11259,"Ġpong":11260,"Ġkanal":11261,"Ġmanalo":11262,"Ġtayaruch":11263,"Ġbhadratanu":11264,"Ġchakravarthy":11265,"ollu":11266,"Ġyella":11267,"akshana":11268,"Ġupayoginchina":11269,"Ġmajhi":11270,"Ġnirmanaanni":11271,"Ġkriyash":11272,"Ġantakum":11273,"Ġcollectors":11274,"Ġshatabd":11275,"Ġkshaminchandi":11276,"patt":11277,"tho":11278,"Ġcat":11279,"akumar":11280,"Ġsamacharanto":11281,"Ġentante":11282,"Ġpolchandi":11283,"Ġvagd":11284,"charan":11285,"Ġsitt":11286,"Ġsivas":11287,"asnu":11288,"ukokunda":11289,"ovy":11290,"Ġcheyataniki":11291,"anthara":11292,"Ġpattanamlo":11293,"Ġ72":11294,"Ġcheyyadam":11295,"Ġmast":11296,"Ġvice":11297,"estondi":11298,"Ġsadhimchi":11299,"alsind":11300,"Ġvahanalanu":11301,"Ġnirnayaniki":11302,"Ġthisukovachu":11303,"Ġbhashanu":11304,"Ġasht":11305,"Ġkeep":11306,"Ġchestund":11307,"Ġswarg":11308,"Ġiss":11309,"Ġudyogala":11310,"Ġmodiki":11311,"adarula":11312,"Ġmanavulu":11313,"Ġring":11314,"Ġbhavam":11315,"Ġbatting":11316,"Ġkritham":11317,"Ġpict":11318,"Ġdraw":11319,"Ġuppagratalu":11320,"Ġanur":11321,"Ġundevaru":11322,"Ġvivaha":11323,"Ġsagat":11324,"Ġselavu":11325,"Ġhelic":11326,"Ġyogi":11327,"adanna":11328,"Ġcra":11329,"akudiki":11330,"ipudi":11331,"Ġdimp":11332,"Ġvacharu":11333,"Ġbariloki":11334,"Ġsatam":11335,"Ġmahan":11336,"Ġthisukondi":11337,"Ġabhiprayalanu":11338,"Ġugrav":11339,"Ġnyayavadi":11340,"Ġsani":11341,"yac":11342,"Ġkoratala":11343,"Ġvayuvu":11344,"Ġnirodhaka":11345,"Ġparisodhanalu":11346,"akanna":11347,"Ġtand":11348,"Ġadir":11349,"Ġstream":11350,"Ġjammu":11351,"Ġtelep":11352,"Ġfa":11353,"alilo":11354,"Ġars":11355,"Ġkonam":11356,"itiya":11357,"Ġsadhinchadam":11358,"Ġnizayi":11359,"Ġpalgoni":11360,"Ġtraining":11361,"Ġrendavadi":11362,"ger":11363,"Ġkadh":11364,"inchataniki":11365,"Ġbandhuvulu":11366,"Ġuddesham":11367,"Ġveldulli":11368,"Ġflat":11369,"Ġanubandham":11370,"Ġvidichipett":11371,"mit":11372,"Ġduh":11373,"Ġclient":11374,"Ġheg":11375,"Ġsthanikanga":11376,"aray":11377,"Ġkalanu":11378,"agra":11379,"Ġkarona":11380,"Ġgodav":11381,"Ġtelupu":11382,"Ġbalavantanga":11383,"Ġcontest":11384,"oddani":11385,"ollo":11386,"Ġnimdit":11387,"Ġnammakanni":11388,"Ġkalapandi":11389,"Ġrettu":11390,"Ġrupanni":11391,"Ġbagunt":11392,"Ġscoot":11393,"Ġdarun":11394,"Ġvelde":11395,"Ġparvatrika":11396,"Ġdrishtya":11397,"kr":11398,"Ġviste":11399,"utvam":11400,"Ġkaligistayi":11401,"Ġnatimchindi":11402,"Ġanchanalanu":11403,"Ġdampatulu":11404,"Ġuddesinchi":11405,"Ġmai":11406,"Ġpettalani":11407,"Ġekkadaina":11408,"Ġsanthoshanga":11409,"key":11410,"Ġdum":11411,"ishkar":11412,"Ġpandaga":11413,"Ġattack":11414,"Ġsahasam":11415,"Ġgoutham":11416,"Ġcry":11417,"adhikarulu":11418,"Ġchorav":11419,"Ġvidudalaku":11420,"inchadani":11421,"Ġcrim":11422,"Ġvyavasthaku":11423,"Ġalochimch":11424,"Ġmaatlaadatam":11425,"Ġbhayanto":11426,"Ġtaruvati":11427,"Ġboggu":11428,"yasam":11429,"charya":11430,"Ġtravel":11431,"Ġprathibha":11432,"Ġboot":11433,"Ġeuropean":11434,"Ġadilabad":11435,"Ġprajapratinidh":11436,"Ġmama":11437,"Ġpaik":11438,"Ġkarmikulaku":11439,"Ġtheesuk":11440,"Ġrogue":11441,"Ġutsahamga":11442,"Ġanasuya":11443,"icy":11444,"Ġvallane":11445,"Ġpilav":11446,"alapatu":11447,"Ġyuvakulu":11448,"Ġsarvas":11449,"Ġtholisariga":11450,"Ġpavitra":11451,"Ġpartiluk":11452,"medi":11453,"adatta":11454,"achalam":11455,"Ġ66":11456,"Ġvaikapa":11457,"oi":11458,"Ġsakram":11459,"ikanth":11460,"Ġchampion":11461,"comm":11462,"ekha":11463,"aritanam":11464,"Ġvadilesi":11465,"Ġjatulu":11466,"Ġaushadha":11467,"Ġpc":11468,"Ġkaram":11469,"udani":11470,"Ġhere":11471,"Ġdeepavali":11472,"Ġpadu":11473,"men":11474,"Ġbetter":11475,"Ġshasan":11476,"onies":11477,"Ġpadak":11478,"elor":11479,"Ġnashtalanu":11480,"Ġkorea":11481,"Ġtoti":11482,"Ġnashtanni":11483,"Ġchocolate":11484,"Ġevvaru":11485,"Ġnatakam":11486,"Ġdharmam":11487,"Ġguide":11488,"Ġthod":11489,"Ġard":11490,"Ġvayid":11491,"Ġgopichand":11492,"Ġvinipistondi":11493,"Ġsthayini":11494,"Ġbadhyatalanu":11495,"Ġdepartment":11496,"Ġgreater":11497,"udra":11498,"Ġsangharshana":11499,"Ġgarishta":11500,"Ġtellavaru":11501,"Ġtechina":11502,"Ġhaz":11503,"Ġgoduma":11504,"Ġbhavishyatt":11505,"adur":11506,"Ġpryath":11507,"ashiksh":11508,"Ġparisodhana":11509,"Ġvidip":11510,"Ġtalap":11511,"uvvu":11512,"ukuntam":11513,"akudani":11514,"Ġfibre":11515,"Ġtadi":11516,"Ġlokam":11517,"Ġdukanam":11518,"Ġnon":11519,"isaru":11520,"Ġgaaru":11521,"Ġnelakolp":11522,"Ġsamasyalapai":11523,"Ġsrushti":11524,"Ġbayatapett":11525,"Ġgovind":11526,"Ġmaradam":11527,"Ġadivas":11528,"Ġpadalanu":11529,"ampalli":11530,"Ġvasan":11531,"Ġveyali":11532,"Ġsanthosham":11533,"adhikari":11534,"Ġayid":11535,"Ġsway":11536,"Ġfixe":11537,"Ġmantram":11538,"Ġkank":11539,"Ġuntarani":11540,"Ġteerp":11541,"Ġbhojan":11542,"Ġrajakeeyalloki":11543,"Ġkolpovadam":11544,"akat":11545,"itene":11546,"overy":11547,"erso":11548,"Ġswap":11549,"itions":11550,"antho":11551,"Ġvilas":11552,"Ġvipaksh":11553,"Ġgurtinchina":11554,"Ġdarunam":11555,"Ġdushpr":11556,"alekap":11557,"udam":11558,"Ġparinamam":11559,"Ġjagannath":11560,"Ġpacch":11561,"aparust":11562,"iroj":11563,"angat":11564,"Ġpadakunda":11565,"Ġvadiki":11566,"Ġdirectors":11567,"Ġthallidandrula":11568,"Ġspandistu":11569,"Ġkari":11570,"utuntaru":11571,"Ġpenchi":11572,"alen":11573,"agulu":11574,"Ġits":11575,"hyata":11576,"Ġanukunnaru":11577,"Ġkidnap":11578,"Ġvaividhyamaina":11579,"Ġsinimalato":11580,"Ġsamsung":11581,"Ġproblem":11582,"no":11583,"Ġanuvad":11584,"Ġcalls":11585,"dir":11586,"Ġtokk":11587,"ove":11588,"Ġvydy":11589,"Ġkonukk":11590,"Ġnijangane":11591,"Ġcorrect":11592,"Ġemotional":11593,"Ġnehru":11594,"arain":11595,"Ġfish":11596,"Ġivvaledu":11597,"Ġchupistundi":11598,"ailam":11599,"Ġmilit":11600,"Ġstreela":11601,"inantha":11602,"Ġunnavariki":11603,"Ġdonald":11604,"Ġanukuni":11605,"agadu":11606,"Ġpettali":11607,"Ġbhagalanu":11608,"Ġalochanalo":11609,"Ġdiguv":11610,"Ġperugudalaku":11611,"aruch":11612,"istundaga":11613,"evvaru":11614,"utvak":11615,"Ġactive":11616,"Ġshram":11617,"Ġnirmanalu":11618,"Ġkumm":11619,"forman":11620,"Ġca":11621,"Ġjvaram":11622,"Ġrojuroj":11623,"nath":11624,"Ġchesedi":11625,"ugani":11626,"Ġavutunnaru":11627,"Ġmahasam":11628,"Ġbjplo":11629,"las":11630,"erga":11631,"Ġeven":11632,"Ġdynam":11633,"Ġteepi":11634,"leni":11635,"chait":11636,"Ġvs":11637,"Ġayannu":11638,"Ġsuchinchindi":11639,"Ġdrushti":11640,"Ġcast":11641,"eters":11642,"imir":11643,"Ġevari":11644,"Ġtamilamlo":11645,"Ġparishkaranni":11646,"Ġjeb":11647,"Ġfest":11648,"Ġtelusa":11649,"poyadu":11650,"Ġcheptunnaru":11651,"Ġdongil":11652,"Ġkathinanga":11653,"cin":11654,"atantra":11655,"akut":11656,"Ġphil":11657,"Ġtelipadu":11658,"Ġnagarallo":11659,"Ġkakinada":11660,"Ġubh":11661,"Ġmust":11662,"Ġshabd":11663,"Ġtaluk":11664,"atw":11665,"Ġsamar":11666,"Ġparimit":11667,"poon":11668,"Ġpryathn":11669,"con":11670,"Ġtine":11671,"Ġrik":11672,"Ġadbhutam":11673,"Ġanshal":11674,"Ġcapital":11675,"Ġsujatha":11676,"annintini":11677,"Ġayidu":11678,"Ġprashant":11679,"Ġnirmataga":11680,"kalanu":11681,"akelaku":11682,"Ġthink":11683,"Ġtanato":11684,"Ġanubandha":11685,"Ġparishilincharu":11686,"Ġparisramik":11687,"Ġhelicop":11688,"jid":11689,"Ġbharathi":11690,"Ġsaik":11691,"Ġvinayak":11692,"Ġkilola":11693,"Ġasadharana":11694,"Ġkandi":11695,"Ġkadha":11696,"udadu":11697,"Ġinput":11698,"Ġhechch":11699,"Ġinformation":11700,"Ġpeel":11701,"Ġvadini":11702,"time":11703,"Ġkishtamaina":11704,"Ġganga":11705,"Ġrajender":11706,"Ġekkadiki":11707,"Ġandukani":11708,"Ġque":11709,"Ġpramanika":11710,"tml":11711,"cine":11712,"inge":11713,"Ġeker":11714,"Ġrangareddy":11715,"Ġvishayala":11716,"itor":11717,"Ġkalv":11718,"Ġmaans":11719,"nan":11720,"iniki":11721,"Ġpradhan":11722,"Ġpilichi":11723,"Ġpcc":11724,"Ġsametha":11725,"Ġtagginchavachchu":11726,"Ġmodalett":11727,"nic":11728,"Ġchen":11729,"ustu":11730,"ishtam":11731,"Ġkorindi":11732,"paiga":11733,"iche":11734,"Ġmodatidi":11735,"Ġbcci":11736,"ilak":11737,"Ġaakh":11738,"Ġchinese":11739,"Ġvalle":11740,"forni":11741,"Ġpracreal":11742,"arlaku":11743,"Ġtalas":11744,"Ġooru":11745,"Ġframe":11746,"Ġunnata":11747,"Ġheart":11748,"urea":11749,"Ġsamavesaniki":11750,"Ġparishilinchi":11751,"Ġpannulu":11752,"Ġbhugarbh":11753,"Ġphoton":11754,"Ġparikarala":11755,"Ġbengalu":11756,"Ġbhougolic":11757,"Ġnirvahinchalani":11758,"Ġabhivruddini":11759,"Ġgadichina":11760,"we":11761,"emu":11762,"Ġvidyanu":11763,"Ġhav":11764,"Ġbha":11765,"Ġrajinam":11766,"Ġnirvahistunnaru":11767,"Ġvinodam":11768,"Ġmini":11769,"Ġdak":11770,"ramam":11771,"Ġnirminchadaniki":11772,"Ġsecons":11773,"Ġsekarinchi":11774,"Ġakshay":11775,"Ġandala":11776,"mon":11777,"Ġnr":11778,"ipy":11779,"Ġmargallo":11780,"Ġettaina":11781,"Ġpramadakaramaina":11782,"Ġlicense":11783,"Ġtiger":11784,"itramaina":11785,"Ġpadanni":11786,"Ġteach":11787,"Ġvimana":11788,"Ġcricketer":11789,"Ġrachayitalu":11790,"endla":11791,"abaddam":11792,"Ġnishk":11793,"Ġvaccination":11794,"Ġvyadhulu":11795,"Ġsiddipet":11796,"ulabh":11797,"adhana":11798,"Ġsandarb":11799,"Ġvivadaspada":11800,"americ":11801,"Ġtitt":11802,"Ġpaul":11803,"Ġkindaku":11804,"Ġdravyol":11805,"ging":11806,"Ġsakalamlo":11807,"aphis":11808,"Ġrekh":11809,"Ġtelivaina":11810,"Ġteda":11811,"agaane":11812,"Ġundadani":11813,"Ġcheruvu":11814,"Ġtisukuv":11815,"inchukol":11816,"Ġroopondincharu":11817,"Ġroyal":11818,"Ġhatyaku":11819,"Ġtelevision":11820,"alug":11821,"idev":11822,"Ġtrading":11823,"Ġappu":11824,"Ġabhyantaram":11825,"Ġuddeshanto":11826,"Ġbhinnamaina":11827,"Ġpravarthananu":11828,"Ġgreek":11829,"Ġjanata":11830,"Ġ77":11831,"Ġvintha":11832,"izha":11833,"ayas":11834,"tact":11835,"Ġsadhanalu":11836,"Ġnijay":11837,"Ġyuvath":11838,"Ġnivasinche":11839,"Ġinterf":11840,"Ġviramana":11841,"atito":11842,"Ġpremisth":11843,"Ġaspatriki":11844,"soni":11845,"ising":11846,"Ġgayalu":11847,"Ġsanh":11848,"Ġasaktini":11849,"Ġgoud":11850,"Ġspandinchina":11851,"Ġjatula":11852,"Ġvaividhyam":11853,"Ġannattu":11854,"Ġtrag":11855,"Ġcream":11856,"Ġkasar":11857,"Ġrus":11858,"Ġmanage":11859,"Ġpeddala":11860,"Ġ68":11861,"Ġarthik":11862,"Ġabhiprayanni":11863,"Ġsanukulanga":11864,"Ġvasthunnaru":11865,"mod":11866,"anunnatlu":11867,"Ġado":11868,"Ġkotlatho":11869,"oha":11870,"yudu":11871,"Ġtav":11872,"Ġpra":11873,"ateg":11874,"Ġgradu":11875,"Ġrangulo":11876,"Ġerpadatayi":11877,"Ġsachival":11878,"Ġyehov":11879,"konda":11880,"oint":11881,"atar":11882,"Ġanagane":11883,"ability":11884,"Ġunnath":11885,"onnayi":11886,"Ġsamajanni":11887,"avadulu":11888,"Ġatyunnata":11889,"Ġpurvam":11890,"Ġavasaramani":11891,"Ġalochinchandi":11892,"Ġgoda":11893,"Ġthisukuvachch":11894,"ariche":11895,"Ġthivr":11896,"Ġkalas":11897,"Ġwarning":11898,"Ġasale":11899,"Ġpow":11900,"Ġvatito":11901,"Ġchattanni":11902,"Ġkashtapad":11903,"Ġselect":11904,"Ġitrulato":11905,"Ġbuilding":11906,"Ġavutaru":11907,"Ġchestunte":11908,"Ġandolanku":11909,"Ġvuhaalu":11910,"unnaro":11911,"Ġidivar":11912,"Ġ63":11913,"Ġdinachary":11914,"avatam":11915,"Ġext":11916,"Ġmaranimchina":11917,"Ġcrazy":11918,"Ġdagara":11919,"Ġdavakh":11920,"Ġsamyuktanga":11921,"Ġmd":11922,"Ġother":11923,"Ġthalap":11924,"Ġvidhaluga":11925,"Ġprapanchamlone":11926,"Ġswachchanda":11927,"Ġincharge":11928,"Ġbach":11929,"Ġour":11930,"Ġwalk":11931,"Ġsiddeva":11932,"Ġkalpulu":11933,"Ġakarshaniyanga":11934,"Ġchallaga":11935,"Ġinco":11936,"000":11937,"ansam":11938,"Ġmedad":11939,"Ġjames":11940,"alaloni":11941,"inad":11942,"Ġteluguv":11943,"Ġvastayani":11944,"Ġdasari":11945,"Ġà¤ķ":11946,"Ġmasjid":11947,"Ġshirshika":11948,"Ġmarusati":11949,"avutundani":11950,"Ġpatala":11951,"Ġbatch":11952,"ties":11953,"Ġveet":11954,"Ġvinooth":11955,"Ġithivritt":11956,"Ġ'''":11957,"ikritam":11958,"utundo":11959,"Ġcop":11960,"Ġramudu":11961,"asagar":11962,"Ġmarum":11963,"Ġversus":11964,"Ġcesindani":11965,"less":11966,"Ġtarvate":11967,"rag":11968,"Ġpanth":11969,"Ġsarve":11970,"Ġbadhyatanu":11971,"Ġrob":11972,"Ġpustakanni":11973,"Ġsmith":11974,"Ġduradrusht":11975,"jagan":11976,"Ġsinimalanu":11977,"Ġammai":11978,"Ġquarant":11979,"Ġmidi":11980,"enth":11981,"utunnaayi":11982,"Ġganita":11983,"Ġmotors":11984,"Ġdubai":11985,"aparanga":11986,"Ġbhavinchina":11987,"Ġvanaru":11988,"Ġsulbhamaina":11989,"Ġkeerth":11990,"Ġnetritvamloni":11991,"Ġpati":11992,"elan":11993,"occhina":11994,"ences":11995,"Ġblue":11996,"aju":11997,"Ġthamm":11998,"Ġencount":11999}