#version: 0.2
a n
a r
a m
c h
a l
i n
Ġ p
a t
a d
Ġ s
Ġ m
u n
Ġ v
Ġ k
a k
d i
Ġ t
Ġ ch
Ġ n
a s
a y
an i
a v
e s
u l
o n
t h
ar i
Ġ e
Ġ r
Ġ b
g a
e r
Ġp r
Ġ d
ar u
i s
u k
in ch
l o
e n
a p
Ġ an
e l
i t
u d
i k
un n
al u
in a
u t
a b
Ġ g
a g
an t
u r
s h
an u
e d
Ġ c
i r
i l
Ġ l
an a
al a
Ġ j
k i
Ġ a
e t
i d
ak u
an d
a h
Ġ o
un di
ad h
i p
an n
o r
un d
i v
Ġch es
Ġs am
at h
ad u
Ġch e
k a
an ga
y u
Ġm ari
e e
ul u
t i
Ġ h
ani ki
Ġmari yu
a j
ar am
in di
Ġb h
is t
u p
i m
a ch
o d
o l
ab h
unn a
u s
is h
y a
l a
r am
at i
ad am
e m
as h
un t
al o
Ġt h
o t
i c
Ġt el
a i
Ġ 1
Ġ 2
ann i
an di
at a
ar a
an am
en d
u v
u g
Ġs h
y am
Ġm ar
ay i
i g
o m
o s
in i
a ina
o v
u m
r a
Ġ f
an g
al l
ad i
Ġ in
al anu
b h
Ġ y
Ġ i
ud u
Ġv y
Ġan d
ap p
o g
at t
ay am
Ġe n
Ġk al
Ġche y
in g
e v
ch i
Ġn ir
p p
e k
as t
o k
Ġ av
ak sh
th a
Ġp ari
ad aniki
Ġv a
ul a
es h
ik a
Ġk ud
Ġ lo
r i
Ġ ad
al i
Ġ am
e c
a ga
ik i
Ġ ar
Ġkud a
ar y
Ġv id
Ġ ay
am lo
Ġl ed
unn aru
l u
Ġ '
et t
o j
Ġv ar
n i
Ġo ka
Ġm an
Ġn e
Ġan t
Ġ und
Ġk on
Ġm e
in d
uk u
el l
Ġ w
Ġ adh
en t
Ġs an
at o
Ġ2 0
Ġ unna
d h
Ġg ur
Ġches t
Ġp ar
Ġ unt
ad a
n a
Ġ ani
Ġ at
inch i
Ġp at
an e
ant i
s t
Ġv i
us t
Ġche pp
Ġm ee
on i
al lo
Ġa a
Ġ up
Ġpr abh
ash t
Ġp er
in e
Ġ di
Ġp ad
Ġm at
ak k
on di
ant o
uk ov
i th
ed d
al aku
Ġm a
ar inch
Ġi di
ab ad
o p
Ġk ani
Ġ as
Ġv ish
o y
Ġo k
il l
ar an
Ġm o
Ġ 3
u b
e y
ul o
ok ka
Ġr aj
t a
os am
on d
ak a
Ġs t
a c
Ġt ar
es t
Ġy okka
h a
Ġc om
am aina
on e
th am
e di
ip p
en u
Ġn a
and h
ach ch
Ġe m
Ġn i
al ani
t o
Ġe d
inch ina
ul anu
Ġk osam
uk unt
und a
Ġs ah
ar sh
Ġled a
am a
Ġ ud
Ġs th
ar th
inch aru
Ġ abh
at am
m a
Ġv iv
ee v
un chi
Ġ 5
Ġe k
ati on
l e
er s
ath i
Ġs r
Ġs w
Ġt ana
uk h
ant e
Ġtel ug
er u
Ġd h
Ġvy ak
Ġpr at
o c
ad d
ut v
Ġbh av
Ġ ipp
it i
ag g
un i
es s
Ġp ur
u sh
Ġn unchi
Ġpr ak
Ġch and
al am
Ġt e
Ġch it
Ġr end
ul aku
Ġprabh utv
Ġr oj
ut t
Ġv ast
u ch
Ġch ala
Ġn undi
Ġ 4
Ġ ga
an ch
app udu
e en
v ata
Ġk o
Ġbh ar
Ġp o
an k
un u
an alu
e p
ap ai
Ġpr ay
Ġth e
Ġt o
Ġk h
Ġv undi
Ġp ett
Ġm ah
em a
Ġk r
Ġp ol
Ġpr aj
Ġp ani
ed u
Ġc on
Ġm od
Ġn enu
Ġv ad
av a
Ġs p
Ġ al
Ġek k
w ara
Ġs ar
am e
u ga
ec t
Ġan e
ari ki
Ġv el
Ġk ar
Ġj ari
Ġp h
ant a
Ġan n
Ġd r
am p
Ġ20 1
ith e
uv a
al la
at e
Ġtelug u
an th
Ġm adh
Ġm und
u di
Ġm ukh
s th
Ġr asht
0 0
Ġa ithe
Ġl aksh
Ġs in
at lu
Ġv e
ath a
Ġay ana
Ġsan k
ch ch
ay a
Ġin t
Ġen n
Ġs adh
k u
Ġv ell
at ti
av as
ar ana
it e
Ġd wara
ar ani
Ġkal ig
Ġ unn
Ġup ay
Ġs ang
Ġe v
as am
inch adam
inch e
Ġsin im
Ġc in
y og
Ġg r
al s
Ġt r
Ġ iv
h i
ut undi
Ġ ap
Ġe l
Ġpr adh
Ġcin ema
id d
Ġk ot
Ġk ary
c e
Ġches aru
Ġmat ram
is uk
h u
th undi
Ġb r
Ġnir v
Ġch er
Ġpari sh
edd y
Ġupay og
el a
Ġj eev
ist undi
ak unda
am ani
b andh
Ġd es
Ġvid h
Ġn am
Ġp al
ag e
Ġm andi
Ġav as
Ġd a
inch adaniki
Ġ ak
ap ad
Ġj ag
t y
Ġgur inchi
ish t
Ġnir m
Ġunt undi
Ġv at
Ġk av
ar ch
Ġ it
Ġl ek
Ġches ina
p u
Ġrend u
e b
Ġn at
ann a
un e
at u
Ġr a
Ġ il
Ġjari g
b er
i on
Ġp edd
ed a
Ġvi j
an y
Ġ app
Ġs and
os t
Ġnirv ah
en i
in t
Ġen d
Ġtar vata
i y
Ġr am
Ġc or
ir u
Ġe r
o w
Ġva c
ti on
inch indi
Ġs a
ud dh
inch andi
Ġk end
Ġv en
ab u
all i
av i
ant r
Ġ ut
Ġp att
Ġn il
it a
c k
g r
Ġne w
ant ri
Ġko tha
Ġ 6
ar d
Ġna a
ari t
aram bh
im ch
ak i
Ġvish ayam
Ġk or
Ġt ir
Ġtel ang
Ġvar aku
un a
Ġch in
Ġlo w
end uku
Ġsam ayam
Ġva ari
Ġch end
Ġsam bandh
Ġj an
u bh
Ġpr am
Ġv is
Ġv anti
ik k
Ġr e
ut unn
Ġt agg
Ġme eru
Ġkon ni
av ar
Ġpr arambh
ak am
Ġbh ag
all u
Ġk ut
Ġn ag
Ġd in
Ġ un
Ġ on
Ġunna ayi
at iki
od u
Ġmadh ya
Ġh y
it am
ar ulu
Ġadh ik
ar s
Ġpar ty
Ġ adi
Ġn u
al ato
Ġ ag
Ġe la
Ġva aru
Ġcom m
o h
Ġprat y
i lo
p ad
uk unn
k et
Ġ1 9
Ġprabhutv am
Ġr av
Ġth app
ak t
Ġavas aram
Ġi chch
Ġt am
Ġ ist
Ġ ala
Ġb al
Ġpr ap
Ġv ir
Ġ 0
Ġman chi
Ġcom p
um b
at s
Ġav ak
ar e
ad anto
Ġd ev
f f
uk unna
Ġa ame
Ġs ari
Ġvid y
Ġk a
i e
Ġ 7
Ġv alla
Ġ1 0
Ġc o
Ġant e
ol l
aru g
ar alu
Ġmukh yam
p ai
Ġg o
ap u
Ġsam as
ic e
it o
ul lo
r e
Ġipp udu
ur u
Ġk adu
Ġr u
d er
Ġt ama
Ġan ni
n am
ip oy
Ġh er
ay ak
i ch
Ġiv v
ut unna
Ġs o
Ġled hu
Ġtelang ana
Ġp a
Ġchand r
Ġkani p
ad ani
Ġchand ra
Ġp ond
Ġvyak t
Ġ akk
Ġnir n
Ġprap anch
Ġm er
Ġkary ak
an al
Ġn el
Ġin d
Ġpur ti
Ġr ang
Ġmar in
Ġm iru
as s
Ġ 8
p r
Ġpari sth
n u
Ġvy avas
ar t
Ġv in
Ġd een
it y
c r
Ġg ram
Ġk ath
al edu
Ġnew s
Ġma a
Ġk ur
Ġpr athi
or t
Ġm ana
Ġpr ast
Ġmar o
Ġchey adam
y anga
Ġchey adaniki
Ġb adh
Ġenn ik
und ani
e ka
Ġches i
o th
Ġm and
l oni
iv r
av am
m an
ach u
uk uni
it t
Ġpr ash
e et
Ġp en
Ġchit r
h y
es i
ut u
Ġt an
Ġtel ip
Ġs ur
il la
ud ala
i al
Ġprak at
ee m
Ġr up
Ġ id
Ġp l
av achch
at v
Ġ20 2
Ġtel us
u th
Ġpat u
Ġcon gr
od h
al as
Ġjag an
Ġv achch
Ġr ak
ach aram
Ġ alo
Ġpat r
Ġd ur
k sh
Ġvy ap
k ar
g u
t u
Ġpr ad
Ġvij ay
Ġ 9
ann aru
Ġs ag
Ġkalig i
Ġv ach
Ġprabhutv a
Ġs abh
Ġ ikk
ad e
ch u
Ġch o
on n
Ġme eda
ar bh
am u
Ġvyak ti
v ats
ak ti
att u
on a
Ġmarin ta
at r
ik e
ika a
id h
Ġme di
Ġm em
at m
Ġcongr ess
Ġ ikaa
Ġprast ut
Ġut p
Ġt aru
Ġth isuk
Ġr o
av an
Ġpedd a
a in
ukov adam
ag al
i b
ut o
Ġs uch
Ġch up
Ġkal is
Ġpr as
Ġg h
Ġk an
Ġalo ch
Ġher o
ay y
iv e
Ġchandr ab
r ap
Ġv ari
Ġkut umb
Ġp un
et i
ay ani
Ġchey andi
Ġchit ram
Ġp an
i di
ay alu
ik sh
Ġv il
Ġp ary
u j
Ġv r
ar m
Ġmund u
Ġn iv
an s
Ġpani ch
Ġp ill
Ġadh ika
Ġch us
im p
ab b
Ġekk uva
Ġer p
ul ato
Ġi th
Ġam m
Ġd arsh
avachch u
Ġat y
Ġar th
Ġraj ak
Ġv im
ak h
Ġann aru
Ġpr av
ud d
Ġsamas y
ul l
m ch
av ant
Ġj arug
der abad
e el
Ġmatram e
e h
an alanu
Ġmar ch
Ġan um
Ġtel is
av u
ist unn
Ġrajak ee
Ġvac ch
Ġsamayam lo
ig h
Ġ ash
Ġo t
Ġhy derabad
ar anga
Ġa c
as e
Ġt ag
a il
j p
Ġk um
Ġmee ku
Ġdi g
am m
an alo
Ġay ina
ot e
Ġadh y
Ġt er
Ġvid udala
Ġand h
Ġda ani
Ġay y
Ġpen ch
al e
Ġabh ivr
i ga
aran anga
Ġb jp
Ġn aku
on u
at n
an ani
Ġb ah
Ġem p
Ġsam aj
Ġk ab
uddh i
Ġtaru vata
om e
Ġb ay
Ġchepp aru
Ġane ka
em ber
Ġm anam
Ġp ost
q u
Ġ1 2
Ġ utt
l y
Ġcor ona
Ġt ay
Ġed ur
Ġches indi
Ġmo tham
at aniki
Ġd agg
Ġch iv
Ġchin na
Ġavak asam
Ġc r
Ġok k
Ġv ay
ann u
Ġp or
en a
Ġchend ina
Ġviv arinch
Ġl e
Ġad e
Ġm antri
l ad
y an
Ġche p
t e
Ġmar g
Ġb o
Ġch ud
ini yog
in c
Ġv ip
Ġ1 5
ig i
ot s
Ġvi bh
Ġpradh ana
v a
er n
as ag
Ġf or
al alo
ac k
Ġche b
Ġches e
ati ya
al an
Ġsand arbh
Ġp ot
ari st
Ġikk ada
Ġil a
t or
Ġtel iy
Ġsah ay
as th
er ic
Ġgur t
Ġ yu
lo w
Ġant u
Ġr eddy
Ġipp at
Ġmo odu
in atlu
Ġt akk
Ġd o
ani c
Ġches uk
Ġe pp
Ġch et
Ġch ust
Ġkaryak ram
Ġud yog
Ġt anu
ak ap
v u
Ġt ol
Ġan ubh
Ġtelip aru
Ġn av
Ġch arch
y at
ak e
t r
as w
Ġs e
Ġl abh
ek sh
Ġl a
Ġs ev
th u
Ġchandrab abu
ar o
p oy
th alu
er v
Ġv ah
Ġsan s
Ġpr ath
Ġrasht ra
Ġn ayak
ar g
ti c
Ġj illa
Ġmar ket
Ġn im
Ġ is
Ġn o
Ġp amp
or e
inch adu
Ġb aga
Ġunt ayi
unt e
Ġchest undi
at la
Ġn ar
Ġs up
er i
adu thundi
Ġ indi
an aku
Ġn alu
Ġj ill
Ġan di
al apai
ani k
al ni
bh av
Ġk es
Ġan edi
ay anni
Ġand uk
Ġk sh
ub l
ok k
Ġn er
ay ana
Ġprastut am
d u
ut ondi
Ġmem u
Ġr ach
ist unna
Ġkalis i
k arinch
ad r
Ġan ch
ist unnaru
Ġf r
ind ani
Ġk od
Ġmer ug
Ġv iniyog
Ġk ad
Ġpad d
Ġd ad
ar og
uk k
er y
Ġper ug
unn ayi
Ġprabh av
p ath
inch abad
Ġp alu
Ġv ariki
Ġam eric
Ġk ol
Ġnam m
aram aina
Ġ1 1
ar ala
Ġvachch ina
Ġbhav ani
Ġend uk
Ġr as
il a
Ġm alli
Ġch ary
r ad
Ġarth ika
an j
Ġs idd
Ġv as
Ġp and
Ġch a
Ġm ug
o om
Ġv es
Ġan uk
Ġpray atn
Ġin ka
Ġk att
Ġkr ish
ic al
ath o
Ġni z
ut unnaru
Ġc ar
Ġv all
Ġt isuk
Ġv ent
Ġper u
Ġs n
i f
Ġas s
an anga
uk a
Ġkon asag
y anni
ist e
ind e
b b
th i
Ġs at
Ġt aj
Ġparisth it
Ġper k
in appudu
Ġith ara
aksh a
Ġdin to
Ġm in
Ġf ir
ec ch
Ġabh y
r ah
Ġp ak
r it
on t
ri ya
Ġv ed
Ġc l
ap ur
Ġp il
Ġmod ati
Ġ idd
av ah
Ġth is
ar j
Ġbh ari
Ġdi r
ai ah
k ur
on g
esh am
Ġm us
ig n
Ġsr isht
u c
Ġdarsh ak
Ġh ome
ak ha
Ġs eem
Ġpol ic
Ġkon d
Ġr ah
Ġ' '
Ġabhivr uddhi
el la
Ġen tha
Ġ adu
Ġandi st
Ġch ad
v ar
Ġv ey
or d
uk ondi
ind a
Ġh e
Ġk cr
Ġala age
uv aga
ot t
Ġp ubl
Ġerp atu
lo ki
Ġrasht ram
ak ar
asht am
Ġsam vats
ti m
is s
Ġk alu
Ġph al
Ġn ad
Ġlaksh m
ect or
ak al
h ar
Ġkab atti
Ġsang h
Ġg ant
Ġth ir
Ġo p
ant u
Ġn et
l one
Ġkh arch
d p
Ġva id
id ha
Ġpray oj
an ala
Ġtir igi
en s
Ġkend ram
ud h
Ġkar anam
ak r
ak ulu
Ġlek unda
Ġat ani
Ġo f
Ġat anu
Ġy o
Ġsh o
Ġman as
Ġr ec
Ġk ante
adh i
an anni
Ġ20 0
Ġpol ice
Ġe x
Ġrasht r
ch e
ip ai
ish ed
Ġ1 8
ist aru
Ġd ay
Ġm ig
an anu
Ġvi ch
Ġp ell
Ġjarig ina
Ġpr em
Ġviv idha
app atiki
Ġvidy arth
Ġchest unn
es am
Ġsam acharam
at ri
ir i
Ġv an
b e
Ġr es
Ġpal g
anu g
ik r
Ġb ag
ee p
inch uk
Ġpraj alu
adu th
Ġs oc
Ġun ch
Ġsam av
Ġ unnaru
Ġm ud
y ata
ach ar
als ina
Ġvat ini
Ġe t
inch alani
Ġm ad
Ġt dp
at ana
Ġnirn ay
Ġt w
Ġutp atti
am an
Ġf il
al ana
Ġkal p
Ġunt e
Ġt ra
Ġvad la
uv u
Ġenduk ante
Ġp anch
Ġar tham
Ġv aj
Ġ ir
en e
in n
ation s
Ġad d
yam lo
Ġpraty eka
Ġv ist
an ce
Ġ3 0
Ġp avan
al ap
v e
Ġg ata
Ġte es
y alu
s am
ov adam
Ġav i
o lo
Ġvid e
Ġok ati
Ġo ff
Ġb e
Ġo r
ulu ga
igh t
av ari
Ġpar ti
Ġvy avah
Ġtakk uva
Ġan g
t anga
Ġv ati
Ġd esh
Ġm aru
Ġippat ike
Ġk atha
Ġprak aram
ent s
u h
o us
Ġd abb
Ġmukhyam antri
Ġroj u
it r
Ġs y
av aram
Ġgo pp
Ġend uku
Ġd e
w ar
onn aru
Ġ202 0
Ġprash n
Ġper ig
Ġg od
ek k
ak alu
Ġs av
Ġne path
o od
er a
asw am
Ġch ell
Ġmo di
Ġph ot
Ġakk ada
Ġch ir
Ġmat lad
it anga
Ġm add
Ġn ee
id e
Ġr ep
id dh
Ġpolic es
ukov adaniki
Ġch att
Ġ201 9
ol u
Ġ1 4
l i
Ġs ec
Ġ 00
Ġg el
Ġr aksh
Ġbay at
Ġb ad
Ġs c
Ġsh akti
ip r
Ġk ev
Ġni j
ar ag
Ġl u
and r
Ġh al
Ġm ay
ad ar
Ġadhik ar
Ġthe es
Ġbh ash
Ġm ul
inch ali
Ġr ay
ara o
anam lo
Ġa arog
alu ga
ath u
i es
Ġund ani
Ġvidh anga
Ġd as
ip u
Ġp ath
ist ayi
Ġm ov
Ġpraty ek
in am
Ġid e
r u
Ġ -
Ġ isht
Ġma atla
kur ma
Ġkend ra
it s
Ġven k
Ġbhar at
oc k
an tha
Ġb ank
Ġsh atam
Ġve g
at alu
Ġanduk e
Ġ2 5
t er
Ġm ed
al oni
ist u
yam aina
Ġpr oj
Ġpari m
Ġm un
et a
Ġch utt
e lo
ang al
Ġkev alam
d am
Ġennik ala
Ġchest unnaru
l anu
Ġa ah
Ġp ed
Ġsoc ial
Ġsans tha
Ġg at
Ġlo p
on na
Ġrajakee ya
Ġ all
Ġproj ect
Ġ ath
Ġk ada
Ġmaatla ad
Ġ1 3
ust om
Ġn y
Ġind ulo
o ga
Ġyu v
an as
Ġekk uvaga
Ġv edi
Ġtel ust
or k
Ġmedi a
Ġd oc
Ġk akunda
e at
Ġchin n
ath ir
Ġe di
ip un
Ġvyavas th
Ġch arit
uk une
ac chu
Ġpr anth
av ad
Ġvaj be
Ġra it
Ġ1 6
ev i
Ġp utt
Ġr el
Ġand ol
Ġs ai
ar aku
Ġpari s
Ġpary av
in adi
ur i
Ġs ch
ar aj
er e
Ġsth ayi
Ġt al
atv am
Ġp ust
Ġg ad
Ġam s
Ġt eev
Ġabh im
c y
is th
Ġpr ant
bh ut
al ante
Ġsn eh
Ġvivarinch andi
Ġw eb
Ġd ar
Ġpr eksh
ug u
an ini
r y
Ġsam arth
Ġpett ub
Ġadhika arulu
ar n
om m
Ġavak as
Ġd em
Ġs ing
uk oni
Ġtay aru
ar ach
y as
Ġsam pr
Ġpubl ished
Ġ1 7
ic ket
Ġk anug
Ġp m
uk undi
Ġpari ksh
ist ondi
at anu
r o
ev aru
als i
el u
Ġmar p
Ġs on
Ġan and
Ġsam bhav
Ġj ab
Ġa h
Ġc ustom
Ġas alu
av achu
Ġprad arsh
Ġ à
Ġidd aru
Ġd ec
ukunt e
Ġvim ars
Ġw h
Ġ ab
Ġani p
v am
iv as
ari k
Ġsabh y
Ġvac chi
Ġt ad
Ġch ot
Ġparisth iti
ut aru
amp ai
ur e
Ġaty anta
Ġpo sh
Ġsandarbh anga
il i
l alo
up u
Ġvent ane
Ġr ev
Ġs m
ow n
Ġam alu
Ġs um
ots ah
Ġhal f
Ġvyakti g
v ara
Ġk arananga
h ya
Ġd el
ud e
ic k
Ġlek ap
Ġsank et
Ġ es
Ġn id
o b
Ġn adu
Ġpr ati
Ġgr ah
Ġb abu
en n
od a
y ap
at es
ar eddy
Ġedur k
Ġche ya
Ġst ar
Ġro op
Ġs ul
ar av
Ġvy athir
Ġp ai
Ġc ol
Ġpr otsah
rad esh
Ġi bb
Ġkot la
Ġund e
ub at
uk unnaru
Ġv aru
Ġled ani
al ayam
Ġbh oom
Ġkon ug
Ġar og
Ġsambandh inchina
Ġvyakt am
Ġchey alani
ar alanu
il e
ul e
Ġcomp any
Ġud ah
il u
Ġm ani
ec tion
Ġsampr ad
Ġjarig indi
Ġl eni
is thundi
ed ani
h am
o ur
Ġb y
iv i
di ga
ukunt unn
Ġte ch
Ġsh iksh
am ga
Ġch adu
Ġil anti
Ġh a
Ġka ani
p i
ak ala
aj i
ukov ali
Ġv ant
Ġepp udu
utunn ayi
Ġk am
Ġph one
m ent
uv anti
Ġan uv
add u
Ġpat ra
Ġvar sh
Ġv and
aru p
Ġan na
ar ini
Ġd ash
ul alo
Ġa id
Ġlo k
Ġbhar atha
Ġk il
Ġb i
Ġen ch
Ġpanich est
Ġt im
Ġch ik
k aram
Ġnepath yamlo
Ġs ara
Ġkum ar
r iti
Ġs ep
g h
und o
el lo
Ġchary alu
Ġvyak hy
Ġtelis inde
im a
ap r
in and
Ġel anti
Ġsr in
Ġre ad
ag am
ap aduthundi
im m
et ti
Ġvar g
Ġnirn ayam
Ġtaj aga
inch avachchu
atm aka
ari ga
Ġo pp
Ġvacch indi
Ġen g
Ġd ani
Ġanubh av
Ġk i
Ġroj a
av acchu
an aniki
Ġad ig
Ġpurti ga
Ġpr acharam
Ġp ap
Ġmaatlaad utu
Ġd arit
Ġc ov
Ġmund uku
Ġmo th
Ġl ev
Ġabh ipr
Ġve er
Ġag o
Ġdad apu
Ġkot t
Ġabhy arth
Ġk asht
ush t
Ġev er
Ġen to
Ġmerug up
oj u
Ġtam il
Ġsah a
f t
Ġkend r
Ġok ka
m ine
Ġdi s
Ġsank hya
Ġdagg ara
Ġv allu
em p
Ġadu g
Ġ5 0
im pu
Ġchest unna
r ic
Ġr ash
Ġkal yan
Ġdoc tor
g e
Ġ qu
Ġp od
Ġdem and
r aj
em b
Ġennik allo
Ġfil m
am i
Ġed aina
Ġ2 4
Ġchey abad
Ġprapanch a
on s
Ġs ay
abh a
ukunt u
Ġutp att
Ġn ov
ava aram
oll y
c o
al ane
id a
al ay
Ġs ri
en ce
ish y
Ġg aru
Ġst r
iv a
Ġr et
l aku
Ġni y
Ġphal it
Ġp akk
avant amaina
av e
ad as
Ġgopp a
Ġsadh arananga
um m
Ġbh ay
Ġs akha
Ġvar ini
Ġni yam
Ġsth ir
Ġb us
Ġd or
Ġbh adr
Ġ202 1
Ġand ubat
Ġan tha
uv ulu
Ġchus i
g et
ad arsh
Ġ201 8
Ġdes am
g y
Ġg ov
Ġjeev ith
Ġn annu
Ġsank sh
r aksh
ik anga
Ġindi a
Ġsan ch
Ġchey y
Ġandubat ulo
Ġ ur
Ġpari ch
d a
Ġvil uv
Ġd eb
Ġmukh yanga
at ed
Ġpreksh ak
Ġr ag
ur t
Ġp oy
Ġkar m
Ġ appudu
Ġiv i
Ġsan vats
Ġemp ic
ukunn adu
Ġd ata
ast a
ond a
Ġpell i
i z
Ġ one
Ġcho os
Ġameric a
ul apai
w ay
Ġjag r
Ġsahay apaduthundi
Ġsadh arana
Ġsah aj
Ġsam pad
Ġad es
Ġk aran
i ah
iss ion
e er
Ġmov ie
Ġichch ina
Ġniy antr
Ġm am
ek ap
ag ala
Ġpari g
Ġs ann
l esh
Ġsp and
w ood
um p
Ġap r
Ġvide o
in k
Ġan us
ar lu
Ġand ulo
l ine
Ġkon ta
Ġabhim an
Ġs el
Ġlaksh ala
ar v
Ġches adu
ri y
Ġo c
Ġsinim alo
Ġb andh
Ġc oll
Ġk ram
Ġad bhut
Ġparish ram
as i
Ġ us
ip ot
ak anga
Ġr od
o or
Ġdeen i
adu p
Ġnam od
avar anam
Ġdeen iki
Ġchest u
ut ayi
ga h
Ġmah esh
o ka
ish ti
Ġ2 1
ic s
Ġv add
ik arinch
ik ar
Ġsan sth
Ġvyathir ek
ev al
Ġvish ay
ch ina
Ġv et
Ġs ub
Ġund ali
m i
Ġdi v
Ġroop ond
Ġman ch
Ġed adi
Ġp os
l es
Ġup d
Ġed o
uk un
ip ad
Ġp as
Ġg an
Ġvir us
ey adam
in na
Ġvat av
d ay
Ġev aru
imch aru
j i
al one
in es
e ak
Ġsam s
Ġsamas ya
Ġl anti
Ġsth anic
t t
Ġnalu gu
s ip
Ġcomm un
Ġj ul
Ġtan aku
olly wood
Ġn uv
Ġr y
Ġsam adh
Ġm okk
Ġpai gah
Ġchadu v
ar p
en g
Ġudah aran
es e
Ġsamaj ic
Ġs ek
Ġma aji
Ġud d
indi a
o ol
Ġra il
Ġar dh
Ġmah il
Ġk ul
Ġchik its
Ġprad esh
Ġjeev it
Ġund hi
or s
an c
Ġpraj ala
Ġcomp ani
Ġsam ip
ar k
Ġand aru
rap radesh
os ari
inch in
ur av
Ġit eval
Ġj atiya
Ġa adh
ap a
aru d
e es
Ġst or
an ya
Ġk ir
i tha
alu e
ar dh
Ġs om
Ġm et
y ak
unn adu
akr ish
Ġsam achar
Ġb ab
Ġk ann
Ġparish karinch
ab le
Ġen th
Ġt op
Ġtelust ondi
y alanu
Ġvyaktig ata
Ġ2 2
Ġenn o
at ya
Ġy uddh
Ġd anini
Ġ att
ar ap
Ġm la
and ri
Ġr og
o o
Ġsrin ivas
Ġtr s
Ġvish lesh
Ġgat amlo
Ġb ang
Ġcon t
Ġsho ot
Ġt all
Ġanch ana
Ġprabh avam
Ġmo h
Ġn tr
Ġkonug olu
Ġt est
ari m
ad anni
Ġmig il
Ġpr ach
Ġbhar ath
et ini
Ġd at
Ġcheya ali
ud a
Ġc ase
akt ini
and am
Ġcustom er
un g
Ġne eti
Ġdir ector
ad o
Ġdes amlo
i a
uk ha
Ġt is
Ġman av
it al
er al
Ġs ib
Ġn it
Ġj arag
Ġ1 00
ie w
Ġrel e
Ġchest e
Ġsara in
Ġsam p
Ġb ill
Ġandh rapradesh
Ġa ug
Ġvenk at
at ayi
ala h
Ġkond aru
Ġne thalu
2 0
ab adi
inch al
Ġass emb
f or
Ġsup er
Ġr un
' '
Ġbr ah
ee ksh
Ġat m
Ġpram ukh
Ġkal am
Ġpr an
o sh
up ai
Ġk aga
as an
ar ula
Ġvid ya
Ġekk ada
Ġdr ishti
Ġnag ar
Ġà ¤
ukov alani
iti lo
at nam
Ġprav esh
Ġn adi
ukov achu
Ġm ur
ip i
Ġem m
Ġpar t
Ġroj ula
o ut
o di
Ġg und
Ġg andh
Ġk aru
Ġ2 3
Ġ im
Ġb ud
Ġcompani es
Ġassemb ly
Ġne eru
Ġak arsh
Ġal anti
Ġa av
Ġmani sh
Ġdeb b
ukunt aru
Ġsidd am
Ġmukhyam aina
Ġrec ord
ag ar
uk i
Ġan sh
Ġv ik
Ġsamav es
Ġa ch
Ġso uk
Ġin k
Ġadhy aksha
Ġkaryakram am
Ġin ti
Ġud yam
Ġadh aranga
Ġp aram
Ġpat la
Ġmar k
Ġrach ay
ur a
Ġem i
Ġpr iv
Ġs et
p a
ac e
Ġkutumb a
Ġn ot
Ġnim ish
Ġsang athi
Ġt ed
ag ane
Ġsw ee
Ġapr il
Ġok e
Ġb ig
ak ram
at ch
Ġperk onnaru
ut a
Ġn asht
ad iki
Ġutt am
di sh
Ġpradh ani
un ch
at l
Ġs cr
and a
att a
Ġm i
un anga
Ġav aga
Ġnalu g
Ġint lo
Ġman aku
Ġsinim alu
b i
Ġ ip
Ġmod al
at y
adh yam
Ġb a
Ġg n
c t
Ġsahay apad
Ġnil ich
Ġm as
ak alam
Ġadhik aram
ipoy indi
Ġm y
id u
Ġud h
Ġvast undi
am ika
ani v
ann y
Ġsam ud
Ġchutt u
Ġar r
Ġra o
Ġh ind
Ġtol i
ak aram
Ġchey avachu
Ġavasaram aina
Ġt it
und am
ant ram
Ġp aksh
Ġy aj
Ġanum at
Ġv sip
Ġr em
Ġb lo
Ġpan ulu
Ġc av
Ġvyap ar
Ġsambandh am
Ġl oni
Ġsar v
unt aru
ic ation
Ġvel d
ut und
at ra
ch aru
Ġund atam
Ġw ork
Ġbhav ishy
Ġsam sth
an alaku
Ġpr anal
Ġnir d
Ġv est
es aru
Ġparish il
Ġk inda
m e
in appatiki
Ġbharat ad
Ġel ect
Ġdarshak udu
g am
Ġe g
Ġon line
Ġdec ember
Ġavaga ah
Ġp et
Ġn um
j a
Ġjill alo
Ġe th
Ġparich ayam
Ġpraj alaku
Ġmer aku
Ġkes ulu
Ġkil aka
Ġcomp ut
t ember
Ġchest aru
Ġnag aram
any ata
Ġchepp ina
Ġre g
Ġem iti
Ġmod alu
Ġmadh y
ani mch
em ent
Ġh r
di ki
th e
av aru
em o
av adam
Ġh akk
ett u
ti e
t on
Ġit ara
Ġch at
Ġth ol
Ġb att
Ġbayat aku
Ġan anth
Ġvibh aj
Ġdh ara
Ġ undi
Ġg ari
Ġj une
i ya
Ġrele ase
Ġun it
Ġled u
in avi
Ġdi l
ang am
Ġandist undi
Ġmadd athu
Ġsep tember
Ġtech n
ation al
Ġmah ila
Ġchiv ari
Ġpari dh
Ġvat avaranam
c ort
ay anga
es indi
Ġaug ust
Ġoc to
Ġint ern
Ġav utundi
Ġt app
Ġar op
Ġm p
Ġkanug on
Ġbhag anga
Ġg op
Ġkrish na
Ġann adu
Ġn ati
Ġs ubh
r anga
Ġand ariki
Ġpram adam
Ġm antr
k al
ta in
Ġkar n
Ġaarog ya
Ġprak riya
Ġvast av
yat anu
Ġvin ip
Ġt v
ah am
Ġvad il
r eddy
o z
Ġant a
Ġch amp
Ġlo ck
av alas
v er
Ġam e
Ġ00 0
Ġdr ush
b andi
Ġunt aru
Ġf eb
Ġbh um
Ġrak ala
unn atlu
ing s
Ġvar thalu
Ġh ari
Ġpary at
Ġjul y
Ġch ina
Ġsa in
al anni
Ġandol an
Ġh it
Ġam ma
Ġtam u
o f
ak ud
Ġdh arm
Ġpram ukha
Ġeng ine
Ġsank hy
il oni
Ġpriv ate
Ġteev ra
Ġc ent
Ġthapp a
l ato
Ġdur am
Ġl eka
Ġmand al
l ing
Ġnav v
Ġocto ber
Ġvyavas tha
Ġpol it
as ari
Ġa ad
Ġm al
Ġg amani
at anto
ank ar
w er
Ġb ar
Ġsw am
Ġsai tham
Ġj ay
Ġp ack
av id
adi ga
Ġcho od
Ġvast e
adh y
n e
os s
Ġk all
aru du
Ġtar al
ir a
ond ani
os e
Ġprarambh am
Ġcomm itt
a a
ath ulu
Ġsthayi lo
Ġmod ala
Ġcov id
Ġmar ov
Ġdel hi
Ġvaid ya
Ġvi di
Ġtim e
anj eev
Ġd aksh
el lu
c tion
Ġapp at
ur s
Ġt var
Ġvidh anam
uk ol
Ġsing h
Ġant unnaru
Ġshoot ing
ang ane
Ġt alli
Ġpot tie
ti f
end ra
Ġpr ema
Ġfir st
o chch
Ġkh achch
Ġvish ayanni
Ġsah ayam
Ġt edi
u e
Ġs al
ch ary
Ġch akk
unn adi
Ġco urt
Ġj ant
Ġbh akt
Ġroj ulu
Ġanuk ul
Ġs ad
Ġkot te
ar ya
add aru
Ġtar ach
w as
Ġ2 6
Ġm imm
Ġn idh
Ġda aniki
Ġs ant
e ed
Ġant arj
esh aru
Ġpettub ad
Ġk asta
in attu
Ġsneh it
od e
olo gy
Ġc re
Ġsum aru
ol e
Ġmarov ipu
Ġj at
Ġananth aram
Ġar e
ass u
er p
Ġ2 8
Ġt ecch
Ġ4 0
ar ma
Ġnayak ulu
ak ka
Ġchir anjeev
Ġo oh
ani s
Ġtarach uga
l on
p h
Ġsamasy alu
ukunt unnaru
ab ot
Ġkharch u
as u
Ġbhag aswam
Ġtar ag
Ġsambhav ya
Ġjagr ath
Ġ2 7
Ġaloch ana
Ġch all
Ġnir as
Ġt y
ath am
p o
Ġniv as
al atho
Ġavagaah ana
Ġcharit r
Ġbhoom i
Ġsambandh inchi
ga a
Ġf in
Ġd anny
ek u
ukov a
is e
Ġman ava
Ġchikits a
uk up
1 9
il y
j ay
Ġpar v
Ġdes ign
am ma
Ġpur t
Ġmarg am
Ġpl an
ur th
ram a
Ġadbhut amaina
Ġarr est
Ġpill alu
Ġg en
Ġkanip inch
' s
Ġch ani
Ġgandh i
ay anam
Ġdr iv
Ġa ut
akap ote
er g
Ġant ek
Ġvaru s
ip oth
Ġvy ayam
Ġsh aktini
Ġper uto
Ġdin ini
Ġb aru
aru st
Ġn ish
Ġchey al
Ġd vara
anto sh
Ġvidy ut
Ġb ack
ut undani
Ġm ir
Ġm anu
Ġs uk
Ġm ach
Ġichch aru
p y
Ġv und
ip o
Ġh igh
Ġkot tu
Ġth all
Ġni bandh
Ġsp ashtam
Ġs ign
ak udu
Ġmimm alni
Ġev ery
Ġhero in
Ġudh ayam
Ġot ti
p or
Ġkon n
Ġw ith
Ġv alue
Ġrail way
Ġt andri
ayy aru
Ġs eni
Ġan ug
Ġne oz
Ġpar inam
Ġbhadr ata
Ġl at
Ġv esi
Ġprapanch am
Ġandh ra
Ġ aksh
Ġnov ember
et appudu
Ġsth ay
Ġdh any
Ġdo or
odh ana
Ġprat in
Ġtelus u
Ġsari ram
Ġsib bandi
Ġm all
Ġrend o
Ġshiksh ana
y aniki
em i
Ġprash na
um ar
Ġgram am
Ġs antosh
Ġd own
Ġa f
Ġcha ir
Ġfir y
Ġparyav aran
Ġit y
Ġ uch
Ġp ant
Ġm ag
Ġkal amlo
ru ary
Ġint er
Ġint iki
ti lo
Ġviniyog adar
uv ula
Ġven uka
Ġma ata
Ġsam raksh
Ġin st
Ġcar b
Ġj anu
ee tham
Ġkarm ik
Ġv alana
Ġbhar ya
Ġut s
Ġaid hu
Ġbadh yat
Ġg ani
st em
Ġsh iv
Ġg ala
Ġjan as
Ġfeb ruary
in y
unt undi
Ġp ort
Ġsam b
Ġtaj a
ch indi
Ġar j
Ġaah aram
Ġone india
Ġ2 9
Ġas akti
ip t
Ġsam ard
s on
Ġdeen ni
inch agal
Ġs eri
Ġraj u
Ġp emp
e g
Ġin dh
Ġr an
oy ina
at an
Ġsans k
Ġs un
Ġc ap
Ġna ipun
Ġsangh atana
Ġk ilo
Ġprastut a
am b
Ġpr odu
ukunt unna
Ġsam iksh
Ġin tha
Ġk apad
ap ett
Ġsamadh anam
Ġ201 7
Ġroj ullo
Ġa ir
Ġk ap
Ġn ipun
Ġcomm ission
Ġsanvats aram
Ġsup r
ab d
an o
Ġsy stem
al p
Ġchep att
Ġpad arth
ram aina
Ġa ayana
av ett
oh an
Ġh ot
Ġm aj
Ġprabhav itam
ar yam
Ġk as
Ġlek k
d d
Ġo ut
Ġdesh a
Ġdabb u
Ġkud in
s r
Ġdi sh
c ess
ast u
ah a
Ġka adu
Ġm ill
arinch ina
Ġjan m
k e
it amaina
Ġbh oj
Ġnir dish
Ġjanu ary
Ġd akk
l onu
up p
Ġprach ur
Ġches th
am ent
Ġ z
Ġt ap
unn arani
Ġmar osari
Ġsanket ika
Ġd eep
Ġviniyog ad
Ġmerugup arach
akrish na
Ġg am
ak alanu
Ġmedi alo
Ġko th
Ġvatav arana
Ġg anani
Ġm ore
Ġdarit istundi
Ġso ft
Ġkalig ina
Ġs akt
Ġibb and
inch ayi
Ġpo oj
Ġb atti
Ġipp atiki
Ġ ast
en ani
Ġvil uva
Ġ x
inch enduku
ap ati
v i
Ġgant ala
avant anga
Ġ ug
Ġj a
Ġsp asht
Ġchad iv
as on
s a
Ġd al
Ġsah it
Ġl ine
Ġpani t
Ġnuv vu
Ġb ut
ion s
ek har
Ġnamod hu
Ġgur uv
d r
Ġcon n
ul ni
Ġgur th
el s
Ġchest ayi
Ġparti es
Ġd ep
Ġvyakhy alu
ar at
Ġg al
inc adaniki
Ġmug g
Ġr atri
Ġpras ad
Ġkrish n
Ġpad av
Ġg adi
Ġgr een
Ġrajakee y
id andr
ay an
Ġrav ana
Ġbud get
aru t
ous e
Ġp aduth
ot a
Ġcor r
ama indi
ani st
ari ka
a ut
Ġmo b
Ġsand arsh
Ġh im
tim pu
Ġp av
ulo ki
Ġas up
Ġprakat ana
Ġl ab
Ġh as
Ġsamachar anni
Ġg ol
Ġsar f
Ġrang amlo
l an
Ġsh ock
Ġmandi ki
c al
ip al
Ġdur amlo
Ġcharit ra
Ġkor aku
Ġkani sam
ank u
Ġsamaj am
Ġl en
Ġm ukk
oy e
Ġand uv
ee k
is m
p ur
av y
Ġvy as
ov adanto
Ġp aina
Ġsm art
Ġte am
Ġkr m
Ġvel di
at ram
an yam
Ġvyathirek anga
Ġupayog inchadam
Ġunt undani
Ġant aru
Ġseni or
Ġmarp ulu
ak anni
Ġd adi
Ġv ani
Ġbhag am
Ġc ard
Ġtol ag
Ġ ull
Ġmanas ika
Ġantarj atiya
Ġchiranjeev i
adh a
Ġs erv
Ġniv edi
Ġn ak
ist an
Ġnij am
Ġnel ak
Ġbhash a
Ġel l
an apu
y ulu
Ġp ul
Ġkutumb am
Ġpr og
Ġam arav
Ġnirdish ta
Ġtit le
in s
Ġchust e
Ġupayog inch
li ament
Ġd anto
Ġnirm anam
Ġsabhy ulu
ari mch
Ġvij ayam
ac u
Ġbah ir
ok unda
Ġf l
ik aran
ch es
ud ini
ir eddy
Ġpray og
ati c
Ġt in
Ġb as
Ġgov ern
ant aram
Ġcor por
ay ya
Ġc y
ik arana
Ġtag ina
Ġny ayam
Ġk adani
Ġp ag
Ġbal mine
m ar
Ġs iddh
Ġrah ul
Ġk app
Ġc are
ik alu
Ġkrm amlo
iv ed
Ġma aku
Ġs od
Ġc ine
Ġs it
Ġp all
Ġpar liament
w ard
Ġmaro ka
Ġpr ac
abh am
atv amlo
Ġk anti
Ġupayog inchi
Ġcha ala
Ġv er
Ġmod ata
Ġp ush
Ġne th
Ġpo wer
Ġet t
Ġal av
o x
Ġn al
Ġm angal
allo ki
Ġup p
Ġsamvats arala
Ġad ananga
Ġjab it
Ġp arug
Ġel la
Ġvir al
Ġmarket s
Ġk ant
in at
Ġm umb
Ġchepp adu
ir am
x t
Ġas p
v as
Ġp adi
l am
Ġt at
Ġv ig
Ġkon ch
Ġkav adam
h il
Ġviv aralu
Ġcheb utunnaru
att uga
Ġupd ated
Ġlat est
Ġvip e
Ġj od
p e
Ġadhy aksh
arinch adaniki
Ġar t
Ġpr of
Ġprat ik
Ġpa ath
Ġsth anam
Ġch alam
Ġotti di
i chi
Ġk ashtam
Ġibb andi
Ġsar e
o und
ee ma
Ġpl ay
Ġprath amika
Ġvell ad
ut r
Ġa udi
Ġtagg inchadaniki
Ġbadh yata
Ġl anu
Ġb ollywood
Ġsam bh
Ġth at
Ġcoll ector
p ot
Ġweb s
Ġthees ukovadam
Ġd oll
Ġmat alu
ar indi
Ġjeev itam
und aga
Ġ3 1
Ġab out
Ġchandrab ab
Ġmigil in
Ġnir dh
Ġcarb on
Ġparig an
Ġbrah m
rah am
Ġs ir
Ġfor m
Ġavakas alu
Ġch ur
Ġras ina
on y
co unt
Ġb at
Ġo x
Ġprog ram
Ġs ast
Ġ19 9
Ġ ush
Ġc al
Ġm ott
y oga
Ġpr oc
Ġcommitt ee
ac t
Ġv am
Ġsouk ary
Ġs ab
Ġk ash
an undi
Ġin n
an allo
Ġrav adam
Ġjarug ut
Ġlakshm i
l aksh
Ġpray ath
Ġpo int
e pp
Ġtelug ud
Ġcharch a
id hi
und ane
Ġnat inchina
Ġmar tu
Ġtw eet
Ġbhar atiya
ara ga
l and
Ġm on
Ġg u
Ġ ill
Ġt od
er ing
Ġipp ati
m et
Ġad anapu
Ġthol ag
in anta
Ġar dam
b al
Ġsams k
Ġn eti
Ġay anaku
or u
r es
Ġkr itam
Ġg ay
Ġkur ma
Ġchit ra
iti on
Ġsch ed
r ata
Ġyo u
Ġth agg
Ġvish ayalu
Ġk allu
Ġk ala
Ġpettub adi
r ak
Ġcr icket
Ġ3 5
Ġm id
Ġr addu
Ġbr eak
Ġhy cort
am o
Ġj ail
Ġchitr anni
Ġadh un
Ġvel a
Ġch arg
Ġn indi
Ġmoh an
Ġam b
Ġvac c
Ġsh are
s o
Ġ201 4
Ġf ri
Ġmob ile
Ġvis w
Ġthall idandr
Ġcomm ents
ani r
Ġop er
Ġsp ec
Ġrait ulu
av utundi
Ġk ov
Ġint erv
Ġma arindi
ush i
for m
Ġnirm ata
Ġtisuk uni
Ġman ag
Ġund adu
Ġko oda
Ġb ath
on es
Ġen ter
Ġpraj a
Ġk anna
im chi
ay o
Ġsw at
Ġjab ita
Ġudd esh
Ġmari k
Ġsang eet
inch am
as ala
Ġtay ari
an unnaru
Ġj ap
Ġtam aku
Ġbo ok
Ġnum ber
Ġak att
Ġakk adi
u z
Ġjarug utundi
Ġkotha ga
Ġem it
Ġ abb
Ġkal ipi
Ġk eel
l im
Ġpo di
Ġvyavas aya
Ġk eta
Ġs unn
Ġn in
Ġop en
Ġsev a
l ish
Ġsul bh
Ġsinim acu
j an
en ch
Ġs im
el y
add a
as anam
Ġv yu
Ġj arup
en cy
et o
di p
Ġmanchi di
inc adam
al em
Ġaty adh
Ġpras iddh
und hi
Ġjanas ena
Ġsch ool
it ive
Ġmund e
Ġveg anga
Ġand uku
ul oni
ap aduth
Ġvij aya
abad d
Ġch arm
ac ch
Ġlev u
i an
Ġtechn ology
Ġs k
Ġan th
ud aina
Ġkary adarsh
Ġanug unanga
Ġchiv ariki
Ġl if
Ġk udi
Ġunn appudu
Ġn ut
and ra
Ġsh il
Ġprak riy
Ġtelip indi
ul ar
Ġday ton
Ġpalg onnaru
Ġny ay
Ġgram amlo
Ġb udh
Ġever aina
Ġjarig e
ip e
Ġsinim an
Ġa aru
Ġm ot
Ġven ak
Ġsan th
Ġanumat istundi
Ġt icket
Ġvar t
r anti
Ġf am
Ġmerug ine
Ġches enduku
ur n
Ġthapp akunda
Ġr ab
Ġgur thu
Ġnam un
Ġok aru
r ut
Ġvyakt ulu
Ġchepp indi
Ġprat ipad
eeksh a
ind o
ar ata
Ġbadh it
Ġm riti
Ġind ust
Ġvich arana
Ġsay antram
ay aniki
as k
Ġp adam
as a
Ġil lu
Ġin g
Ġsam arp
ev adu
Ġs if
ada alu
al aki
Ġc ur
ist adu
Ġkur ch
Ġrag h
Ġg unt
Ġcol le
abad indi
Ġintern et
av ya
Ġp atha
Ġm el
Ġnirvah ana
Ġscr een
Ġbr and
b abu
Ġpur ush
Ġsamsth alu
Ġpray anam
Ġtelugud esam
agal ig
esh war
ol a
Ġvidyarth ulu
Ġkarn at
Ġb la
Ġsh at
Ġmat ch
Ġg ud
Ġrod du
andi st
Ġl ag
ad av
ist er
Ġs ett
Ġv eru
Ġchad av
Ġproc ess
an ato
Ġivv andi
Ġpratyek anga
p ort
Ġper ag
m p
Ġkav achu
ection s
ad incharu
Ġm udd
unn am
Ġgur timpu
Ġarj un
Ġhr ud
und u
Ġay indi
Ġas akt
Ġoff ice
d ani
Ġisht am
anth anga
y anto
Ġvell i
itt er
Ġparti ck
Ġmund uga
r an
Ġn un
ha ir
ak avar
Ġvast uv
ar inchi
ay ina
Ġnir odh
Ġup a
Ġ201 6
tham andi
Ġed em
Ġd v
Ġvy adh
Ġteev ranga
Ġch ikk
Ġkalu sh
Ġne tha
Ġpak istan
Ġv ak
Ġva ik
Ġches ukunna
a z
av v
iv ers
Ġsambandh ita
en c
Ġva aram
Ġ ati
Ġkur s
Ġchair man
Ġbhar tha
Ġt anik
Ġs us
at ing
avar aku
w are
Ġh el
Ġprayath nam
at or
Ġam eku
Ġmod el
Ġprakat incharu
at ini
Ġteliy adu
Ġmod at
ie f
Ġthe er
Ġsang ga
Ġry thu
Ġandh r
Ġ4 5
v ad
Ġmarket ing
Ġpr es
at aku
Ġivv adam
Ġc all
Ġner ch
l d
Ġsahaj a
unn anu
oc ch
inand uku
Ġswam y
Ġkonch em
Ġn ay
Ġchepp i
Ġdh ar
Ġb and
Ġam od
ul t
ap h
ist am
Ġpak ala
Ġv unna
y ala
Ġund aga
Ġsr ik
Ġse ason
w ork
Ġl on
Ġh ecch
Ġvar l
Ġl ink
in eni
Ġtan anu
Ġt idi
Ġdhany ava
is ari
Ġhero ga
Ġp adhi
Ġsang eetham
Ġer pad
Ġt wara
Ġchud andi
ur al
Ġrah as
ar l
Ġprabhav anni
Ġd oh
Ġchatt am
Ġna aku
Ġnirm ana
Ġch aran
Ġameric as
s p
Ġpadd ati
Ġkhachch itanga
Ġmanish i
Ġna idu
Ġad r
Ġsamasy alanu
ul i
un am
Ġvach ayi
Ġtwara ga
b ad
Ġthisuk unna
Ġn em
Ġadh ine
Ġkr indi
Ġb ala
Ġsan uk
Ġnir up
Ġte er
aj a
em e
Ġp ann
Ġd uk
Ġand ari
Ġpadd ath
Ġn ani
ay ala
Ġdarshak atvamlo
Ġsuch isthundi
Ġdhanyava adaalu
Ġet uvanti
ay alanu
Ġw or
Ġkr ushi
Ġon t
Ġmumb ai
Ġc ey
Ġpad avi
Ġudaharan aku
ur am
Ġvyap aram
Ġe p
Ġan y
ar ane
p and
iti es
ow s
al edani
Ġfiry adu
Ġb ir
Ġcomput er
e th
Ġchep t
Ġre al
Ġchani poy
Ġvimars alu
ut e
Ġrup amlo
Ġpr iy
Ġr ed
Ġdig ital
ur alu
ch chi
Ġparyav eksh
and ha
Ġprath ip
ama inadi
av ani
od ve
Ġvan ar
Ġsambh ash
Ġf ol
Ġres erv
Ġay inappatiki
Ġmar ok
Ġpun arut
Ġchalam andi
Ġisht apad
e x
Ġ6 0
Ġkath alu
Ġtw itter
Ġn achch
Ġraksh ana
Ġsur y
Ġmangal avaram
Ġch il
Ġj ati
Ġs und
Ġkal ap
b o
es a
ap t
Ġat u
Ġak ram
Ġvi as
us s
ot u
ay udu
Ġguruv aram
uj an
Ġp og
Ġvedi ka
Ġj al
ant am
Ġs udh
Ġthapp u
Ġth ad
imch indi
tif ic
Ġjeevith amlo
Ġpanich ey
Ġn edu
Ġkary alayam
Ġbr it
Ġsamav esham
uk on
Ġpond ina
Ġj oh
Ġa i
Ġo d
Ġsar d
Ġdar akh
Ġpran tham
Ġsann iv
Ġvip l
Ġgh at
il anu
Ġapp ati
Ġsh ir
Ġtelug ulo
Ġd on
Ġmus lim
Ġm rit
Ġw ar
Ġp ut
Ġv ere
Ġches ukuni
Ġinterv iew
ank sh
Ġm il
Ġbhav odve
Ġid hi
tham ga
Ġparisthit ulu
Ġph ali
Ġm os
Ġpur og
Ġch al
Ġund edi
apur am
Ġin f
Ġde gr
Ġmed h
Ġ5 00
Ġav ut
Ġpranth amlo
Ġphot o
Ġsidd anga
l et
Ġt u
Ġsamprad aya
abad ina
og le
Ġindi an
aga a
aj j
Ġam enu
Ġpalu v
Ġtad vara
inchabad utundi
Ġy antr
Ġparish karam
m ir
utt u
Ġveld adincharu
lo r
o chu
Ġkan uka
Ġpos itive
iv araku
ar anni
Ġpakk ana
t ar
Ġman th
Ġva is
Ġst re
Ġnil va
Ġsamarth yam
Ġsar lu
ish k
anic i
ap ari
ri thi
Ġbah um
Ġprant allo
Ġne etini
Ġnel ala
Ġar ch
Ġpar k
Ġ u
Ġnirvah incharu
Ġsh ast
Ġner p
Ġvi f
o ot
Ġpr er
e w
aniv aram
Ġpatr alo
all y
uk r
Ġpal ak
on ic
Ġpram ad
Ġup adhy
Ġw ill
Ġprabh as
Ġad a
Ġr akt
Ġn an
Ġdoor amga
av ut
Ġat aniki
c le
a indi
Ġmar animch
Ġpamp ini
Ġksh am
arn ing
inch aledu
Ġadhine tha
Ġrend ava
Ġrachay ita
Ġbh inn
Ġ athi
Ġd ong
Ġunn atlu
Ġh ouse
Ġbaru vu
Ġd ars
Ġdr isht
Ġav v
Ġkr itr
m ohan
o tion
yam ani
Ġphali thamga
Ġsamvats aram
anu m
Ġbla ck
Ġsur aksh
Ġlakshm analu
Ġo ver
Ġprayoj analu
Ġhe ad
ic ipal
yam n
Ġun ivers
Ġmugg uru
Ġsh ow
k ot
at er
Ġkaryak alap
Ġpust akam
Ġchesth ondi
Ġlo ki
Ġk er
Ġjeev itha
Ġs antr
av ela
es day
Ġkh an
Ġsam an
n adu
Ġin th
up ati
e j
Ġn ell
Ġgo ogle
Ġcha it
iva aram
udi ga
n al
Ġrang u
d aniki
it iki
ab ett
Ġfr om
Ġsamaves amlo
Ġsamard yanni
Ġved uk
Ġmun icipal
Ġsh anivaram
Ġg atti
Ġprast av
Ġblo g
Ġr avi
y al
Ġb idd
anth i
ar as
end er
Ġvivarinch aru
Ġco unt
Ġ ik
Ġd hair
Ġarop anal
Ġanduv alla
in ation
Ġkor t
Ġa aya
ap adi
Ġgur l
Ġprav arth
z ar
Ġpett y
Ġkh at
Ġdil l
g en
Ġle ad
Ġspec ial
Ġm r
Ġr ek
Ġprat yamn
inch inatlu
Ġvar as
ipoy ina
Ġpratin idh
at anga
Ġpr om
Ġaad ivaaram
Ġh atya
ith i
tt p
Ġpedd aga
v esh
Ġn eru
Ġm uk
ag alu
Ġekk ad
Ġpradh anyata
analo ki
Ġdir gh
inchadam lo
id ent
Ġac t
Ġemit ante
Ġnad ip
al ak
Ġpari kar
Ġprakriy anu
Ġs uc
Ġpill ala
Ġtr ump
Ġg ang
Ġraj in
Ġt a
Ġc ab
een a
Ġakk ad
aku m
Ġad v
Ġvibh agam
Ġad av
Ġgamani mch
Ġmukh ya
Ġv ikr
Ġa ward
Ġsth ap
Ġpa iki
Ġb oss
ess ion
Ġchitr aniki
ev aro
Ġve ed
Ġsarf ara
Ġtal k
en ti
Ġsuch incharu
Ġmand alam
ekap oy
Ġpa ata
Ġmanu sh
in av
c c
Ġs eet
ur es
og rap
ub b
Ġudyog am
Ġva adu
t c
Ġniz aniki
ar asht
Ġn aga
Ġh ttp
at ik
pad aka
Ġenn ical
Ġbh ayam
Ġphot os
Ġoff ic
w ada
Ġlo g
r alu
Ġam y
Ġch enn
Ġa ar
inchabad indi
Ġf i
Ġsrisht inchandi
ar tham
Ġn ashtam
Ġp ass
Ġunna ayani
am loni
and u
Ġno pp
Ġkritr ima
ukunt undi
p atu
Ġch ief
Ġs ens
Ġk op
Ġsamasy anu
Ġw ind
ar ayana
th ula
Ġprapanch amlo
ap udu
Ġn ational
Ġnag arj
Ġs iv
ain adi
Ġyaj aman
Ġyuddh am
ari lo
Ġ19 8
yap tanga
ul am
Ġam it
Ġprabhutva aniki
ik anu
Ġte as
Ġot t
Ġc eyadam
Ġch ush
Ġtarag ati
Ġal ayam
Ġdirgh akal
Ġsain ik
an ka
Ġjari p
Ġo di
Ġamm ay
akk uva
Ġupayog inche
Ġabhivr ud
Ġand inch
Ġvast unna
ak amaina
Ġang ikr
Ġcl ass
abad e
Ġ201 1
Ġches ukovadam
Ġniz am
Ġsh ubh
Ġdaksh ina
Ġsulbh amga
Ġva iv
Ġtall ived
Ġelect r
Ġnet work
al y
Ġc am
Ġsh r
ed y
w al
Ġa ag
Ġraj adh
Ġtel iya
ann am
Ġlaksh yam
Ġkaryadarsh i
Ġst ation
Ġkes ulo
rad dh
achch u
Ġedurk ont
n agar
Ġhind u
Ġ umm
Ġabhiman ulu
ra z
Ġram esh
Ġneru gaa
Ġcon f
Ġen t
Ġs en
Ġnel la
Ġbo ard
Ġkanip istundi
is indi
ep u
Ġ allu
Ġk ind
Ġadhy ayanam
ell i
Ġsand eh
Ġt ala
Ġkon thamandi
r ay
Ġa ust
r al
Ġch akr
Ġr om
Ġlo t
at ala
Ġpanch ay
Ġga j
ff ic
Ġok asari
Ġv ers
Ġr ate
arist undi
Ġell appudu
Ġchep tt
Ġnee ku
Ġmat l
Ġanni e
Ġre f
and ariki
ant ra
Ġkon t
araj u
Ġv al
alo ki
Ġj am
Ġsh ankar
Ġh indi
Ġsth anamlo
Ġmig ata
Ġst art
Ġen ti
Ġlaksh man
Ġtra ck
Ġb alah
iv ey
Ġb angal
Ġpraj alanu
Ġnirn ayalu
und e
Ġjarug utunna
Ġh ir
im b
Ġm att
an unna
Ġch ett
Ġmokk alu
Ġnirvah inchadaniki
Ġfri end
var yam
Ġches ukunn
Ġconn ect
Ġthisuk uv
anam aina
and aru
Ġpari p
Ġtelis ina
Ġk ane
t el
Ġvel t
Ġthis ukov
Ġpubl ic
Ġjagrath aga
Ġs ol
Ġfilm ib
Ġb eng
Ġkaryak arth
Ġve etini
Ġb ur
Ġg aman
Ġk et
Ġgunt ur
in et
Ġcare er
Ġl as
ist s
Ġn en
oom i
Ġsabh a
Ġtisuk oni
Ġm ak
Ġsamvats aralu
Ġfilmib eat
Ġpap er
Ġand y
Ġm og
Ġter ak
Ġ ic
ast er
p ett
Ġp i
aran aku
Ġund ataniki
Ġspasht anga
Ġkram am
Ġj our
Ġann adi
Ġprayatn alu
Ġnar as
at ive
Ġ ess
Ġupay oga
Ġpradh ananga
y oth
o ch
Ġsw antha
Ġvani j
Ġh ami
Ġunna a
Ġok avela
Ġichch e
Ġal as
Ġvijay ayam
Ġtelang analo
edd a
Ġteliy aj
o bh
Ġlekap ote
Ġj anam
Ġsign s
Ġvir am
k h
Ġaut om
ch andra
Ġpaluv uru
Ġund alani
Ġkad al
ant amaina
Ġchepp adam
Ġt ak
av adi
ari g
ach esi
Ġgatti ga
ub atu
Ġvay as
Ġna atiki
Ġem ail
arap adi
Ġibband ulu
Ġgod avari
Ġprayoj anam
yak aramaina
Ġkod uku
Ġn imp
Ġt eem
Ġsh ail
ak riya
Ġ201 5
Ġapp le
Ġsamraksh ana
Ġprash ans
ol edu
Ġ3 6
Ġf ac
Ġbhari ga
als inde
Ġm ic
or y
aksh mi
Ġpalg on
Ġsw ayanga
il d
Ġmar y
Ġperig ina
f i
Ġdh aralu
Ġ3 2
Ġath adu
Ġviv aham
Ġag n
Ġst ock
Ġabh inand
ay al
Ġnamm akam
Ġbh ary
ar aniki
Ġsam m
ap tanga
Ġb alam
lo y
Ġunn appatiki
Ġc ode
Ġo l
Ġch ain
Ġs l
Ġpratyek amaina
Ġch ann
Ġgel ich
Ġmadd at
Ġsh raddh
Ġar h
Ġtvar alo
Ġsh ash
a ir
Ġcl ick
Ġme ga
ul an
Ġpray an
ut am
Ġi chchi
Ġcont ent
Ġchot u
Ġsadh inch
Ġkilo met
Ġpariksh alu
urth y
ar apad
Ġkalig e
d own
Ġpatr alu
Ġf eat
Ġpett ina
Ġlo ok
ayy e
avya aptanga
Ġtad it
_ _
ip ti
al anna
Ġmaru t
Ġvari lo
Ġg un
Ġpari j
Ġthir ug
Ġlok esh
Ġsthir mine
Ġr uch
Ġp el
Ġpo th
ann adi
at aram
Ġm en
ag an
Ġl y
Ġg lo
Ġparish kar
Ġsev alu
k am
Ġme g
r et
Ġd ust
Ġdebb at
Ġniz anga
Ġdor ik
ip ett
Ġiv anni
Ġs adup
Ġrait ulaku
is i
Ġp e
Ġs aksh
Ġpr achar
iv v
in ess
Ġprak rithi
Ġb l
Ġs il
Ġlaksh yanga
Ġsif ars
Ġches ukovadaniki
Ġanum ath
in al
ev a
Ġn ik
Ġn ind
uv ari
att e
adup ari
Ġjoh n
Ġh om
Ġkav adanto
Ġchet ilo
Ġsa adhyam
Ġkalu g
all e
ha a
Ġtees uk
ann e
Ġar tic
unt ayi
Ġp andi
Ġv ill
Ġp annu
Ġsh ukr
Ġ201 3
k k
all oni
it ini
Ġapp ag
Ġada im
i um
Ġt ur
Ġb om
Ġsanniv esh
Ġichch indi
Ġchud ali
Ġniyantr ana
Ġdoll ars
it ra
abh oomi
Ġk and
Ġsr ujan
ath ul
i h
Ġchepp uk
ra o
Ġprashn incharu
Ġm itr
Ġpor ad
ug ane
Ġprapanch avyaaptanga
Ġadh arapadi
Ġjan abha
Ġvyap tanga
Ġsek arinch
ul ik
inch ukov
Ġvell ina
Ġkav ali
Ġmahil alu
Ġsang am
Ġpat alu
Ġvach indi
Ġteem ramaina
Ġelect ric
uv v
Ġsom avaaram
inch arani
udi ki
Ġperk ondi
Ġmanth r
akud adu
Ġna it
Ġmarin ni
is ion
Ġsh ah
ak arinch
Ġd ary
Ġy erp
ant ara
ut i
r av
Ġch ettu
Ġ0 1
imp ulu
al eni
Ġah ara
Ġs ayam
Ġbharatad es
Ġox y
p et
Ġtir ig
aswam y
Ġy sr
att ulo
Ġrachay it
Ġseri es
Ġl ight
Ġupayog inchavachchu
Ġvad di
Ġemm ely
Ġsamarth avantanga
Ġa atm
Ġpar anga
Ġ ali
Ġan arog
Ġne et
Ġams alanu
Ġm udi
Ġbay al
Ġpak ka
Ġn all
Ġpett aru
Ġayy indi
Ġbr undam
Ġand inche
Ġpolit ical
Ġnat udu
idh anga
Ġsa aksh
Ġ201 2
ar ulaku
ov erg
Ġprayoj analanu
u ck
Ġnar endra
od y
Ġh aj
uch es
Ġved h
at aru
Ġwor ld
Ġp op
Ġsuc cess
al th
ut ti
Ġneoz ec
Ġanukul anga
ul aina
Ġpath akam
Ġn or
Ġmari e
Ġav unu
Ġg arbh
Ġthapp anis
Ġv int
ist anu
n og
Ġvel ug
Ġparis odh
ap alli
Ġc le
Ġvid esi
Ġk l
Ġjeevit anni
Ġmar t
Ġac tion
ad ag
ul lu
as m
Ġg add
a ite
p l
Ġb odh
Ġmah amm
Ġh am
e ar
Ġippat ivaraku
Ġksh et
Ġas th
Ġraj dh
ak ata
Ġsth alam
Ġabhipr ayam
Ġthad it
Ġ8 0
Ġtakk uvaga
Ġe en
Ġparigan analoki
Ġan k
atm akanga
ad ini
Ġd en
Ġmach ine
Ġund avachchu
Ġapp ude
Ġs ite
Ġor der
Ġprakat inchindi
Ġjarug utondi
ukun enduku
Ġs akh
inch ani
Ġchey ab
an apai
Ġgh atana
Ġlop ala
arsh ana
Ġrev iew
Ġan ti
Ġparidh ilo
Ġt om
Ġdabb ulu
v ey
an lo
Ġb edi
Ġparti lo
Ġ um
ar ak
ab dam
avalas ina
Ġshukr avaaram
Ġok ari
Ġstor y
Ġnid ra
ukova ali
and una
Ġaar op
ul la
Ġmah arasht
ak ur
all anu
Ġte j
elo p
al iki
Ġsangeet a
Ġnun che
Ġoxy gen
Ġap ello
Ġpr ag
Ġedem aina
Ġphal itam
apur v
Ġkath an
1 0
Ġkaryakram alu
Ġgr o
Ġengine ering
er m
Ġganani yamaina
Ġte g
e tha
Ġan ub
Ġtagg istundi
ik am
Ġ3 7
ig am
Ġgen eral
Ġvin od
Ġga ali
Ġvis esh
Ġs alah
Ġmodal ine
Ġant ar
Ġp age
Ġen tr
Ġchitr alu
Ġtra il
Ġav ine
5 0
Ġsar al
Ġme ant
w ari
Ġg or
Ġa ap
Ġayy aru
Ġphalit alu
Ġvenak ki
or ity
Ġ200 9
Ġvati lo
Ġchepp ali
in app
Ġga ani
Ġdes ala
Ġpatt inchuk
Ġush nog
Ġv alas
Ġadhik ari
Ġrep ort
Ġemp loy
k y
il lo
Ġvar ma
Ġn anna
Ġanus arinch
ipoy aru
Ġpun j
Ġparis ram
Ġin c
Ġenth o
Ġneozec overg
Ġpil ust
Ġday achesi
ap y
Ġtvar alone
Ġund andi
Ġme et
Ġrajin ama
Ġs u
edi a
Ġgund e
Ġprav ah
Ġkal asala
Ġtamil nadu
inch adanto
aru ga
Ġsp usht
Ġkr it
Ġes ari
Ġad ag
uc ch
Ġkarnat aka
v an
Ġsam ayanni
Ġteliya z
Ġrod d
Ġin v
ub ali
Ġbhoj anam
Ġunn adi
Ġswee karinch
Ġpor atam
Ġcheyabad ina
aku diga
Ġgovern or
Ġt ri
Ġindh an
Ġe c
Ġtadit ara
Ġche ck
avu thundi
ak aramaina
Ġg uj
Ġcommun ication
Ġ istundi
Ġva ipu
av er
Ġ7 0
est undi
Ġy og
Ġd ate
Ġtr ans
Ġven n
ayy ayi
k alu
avid y
Ġnut an
Ġd akh
Ġud g
g ane
p ut
ir iga
Ġa ash
Ġchet ulu
Ġemp ical
Ġk tar
Ġdev elop
Ġk ukk
Ġn ished
Ġprekshak ula
Ġnell ie
z a
Ġ est
Ġviv arana
Ġand amaina
Ġcon tr
Ġsh ak
Ġw as
Ġ19 7
Ġviluv aina
ang h
un aku
Ġk ak
Ġtelis indi
Ġal g
Ġst y
Ġsur esh
Ġnil lu
Ġperig indi
Ġparim itam
ar alaku
Ġtanik hi
ip ov
Ġh is
Ġj o
Ġper gu
as tic
Ġnagarj una
b a
is pand
Ġk at
Ġkav it
Ġk ish
Ġt em
r ali
Ġayy e
Ġman j
Ġrak amaina
lo ad
akap ov
il lu
Ġsh ar
Ġarog yakaramaina
Ġthadit arulu
Ġv itt
Ġsoft ware
as kar
Ġbr ind
Ġbo x
Ġj attu
Ġf ans
Ġand inchandi
Ġud yoga
Ġread y
Ġbi j
adam e
Ġek anga
inch anu
Ġvy asam
g ani
ana ga
Ġy evaro
Ġakk ade
Ġperug utunna
Ġupayog inchandi
Ġman chu
ri es
am andi
Ġrah ad
Ġsam antha
Ġdes alu
Ġpl at
Ġg iri
ist r
Ġnem m
Ġso und
es adu
h ari
Ġand aj
Ġch r
Ġches arani
Ġcho pp
Ġl and
Ġed uru
Ġjour nal
a it
ad alu
Ġth akkuva
Ġvacch aru
Ġprarambh a
Ġ3 3
Ġteliy ani
Ġterak ekk
Ġvay ida
Ġchaala a
Ġsa ari
Ġpad indi
Ġumm adi
Ġt alu
Ġsanuk ula
Ġbalah in
Ġ201 0
Ġsar kar
Ġantek adu
Ġvat iki
Ġit u
Ġc anc
uk e
Ġdirghakal ika
ak ula
Ġle arning
ee th
Ġlif e
Ġvyavah arist
al onu
Ġd us
Ġpar eeksha
ag alanu
Ġv ind
aku di
Ġs ach
Ġak hil
ag u
Ġch arya
Ġvant ivi
Ġaadh varyam
Ġvidh ananni
Ġv aram
avas ara
Ġanand am
inch u
Ġk arth
Ġpol ch
Ġams alu
ag iri
Ġnayak udu
inchabad ina
Ġprarambh incharu
Ġvyavah aram
Ġchesuk unnaru
Ġgo od
Ġasup atri
Ġw e
Ġson tha
Ġb all
Ġch am
Ġth r
Ġpan ulanu
Ġbus iness
Ġnipun ulu
Ġsec ond
Ġcent er
ok u
ro id
r uth
Ġvyu h
ti ce
ara c
Ġtra ffic
Ġnidh ulu
Ġv ecch
Ġsanth osh
Ġviniyogad arulu
Ġpanit ir
Ġvacc ine
Ġf ull
Ġdev udu
Ġm ass
ast e
Ġgr eat
Ġdh or
Ġbh o
Ġsah akar
Ġhe alth
Ġvijaya wada
Ġvatav aran
arinch adam
Ġansh am
y ana
adh ik
Ġma at
Ġsched ule
os a
Ġgant alu
Ġaarop incharu
Ġchet a
Ġpar sh
all one
Ġp uj
Ġmah a
Ġvis akh
os p
Ġne el
Ġfam ily
Ġaloch analu
Ġlo ve
e eda
Ġches anu
Ġvel uv
s u
Ġbudh avaaram
Ġfol low
Ġand inchadam
Ġb ed
d y
Ġadhik anga
ad y
Ġdoh adam
Ġchiv araku
Ġpunarut padaka
ic i
Ġhari sh
Ġm ina
Ġmanas u
Ġg ul
o pp
Ġvis esham
Ġanubh ava
Ġserv ice
Ġrajdh ani
Ġaust rali
Ġn ann
Ġnadu st
Ġcher ch
at ma
Ġv ol
Ġs een
Ġmadhya ah
Ġadh igam
k ekk
Ġekk uv
ed e
istunn ayi
Ġcur r
ap add
Ġanuv arth
Ġan vesh
ug h
Ġnirvah inchina
Ġlekap ovadam
Ġspusht amaina
Ġ202 2
Ġasakt ik
udd am
Ġperug utundi
Ġgram anici
Ġpravesh apett
Ġvy adhi
Ġdr uk
Ġpaath as
Ġanum ati
Ġvim a
Ġbrit ish
Ġvar n
Ġry thula
Ġm ath
ush a
Ġen im
me eru
Ġsari rak
akap ovadam
Ġr aledu
Ġsankhy alo
Ġches ukov
Ġj av
Ġlock down
atv a
Ġokk o
Ġb omm
w w
Ġandhr abhoomi
Ġp adh
Ġ0 5
Ġivv adaniki
Ġpill alaku
Ġan ukunna
Ġdi st
Ġpratik ula
Ġn is
Ġprabhutva alu
Ġemploy ees
Ġr akam
ek ar
Ġtag inanta
Ġsinim allo
Ġcar l
Ġsw ag
Ġvin n
id ay
Ġsur vey
Ġpa int
Ġkath in
poy indi
ir e
ond aru
Ġbal anga
ap addaru
Ġj ok
ol i
Ġutt ar
Ġparish odhana
Ġamm ayi
Ġvastav aniki
Ġled o
Ġch antr
end r
Ġsadh inchina
Ġb av
ash ala
op atu
Ġnimish alu
Ġind uku
Ġv itilo
Ġed u
Ġchenn ai
Ġn ars
Ġbang aru
Ġsul abham
Ġbharatad esam
Ġsp eak
Ġdani pai
Ġtar get
av arth
Ġkol p
ol d
Ġsar k
Ġvyavasth anu
Ġpol iste
Ġve eru
Ġokk aru
Ġnindi t
Ġo or
Ġth adupari
Ġ0 4
Ġpench adaniki
ed o
Ġenter tain
ir oju
isht amaina
Ġrashtr ala
Ġtel iv
Ġkal edu
Ġt ara
Ġchesuk undi
es ina
Ġparisthit ullo
s i
ik ram
Ġvat ch
Ġpraj aswam
Ġmeruguparach adaniki
Ġg adu
Ġraj amo
od d
Ġpett adam
Ġsanksh ip
Ġch or
Ġel lu
Ġsari p
Ġmatlad aru
Ġbedi r
Ġven uk
Ġs anni
Ġsandarbh amlo
Ġoff er
Ġs ong
Ġches inatlu
Ġbhav ana
th anga
Ġs ug
ee tha
istunna ayi
Ġnaras im
Ġm ut
aru k
ach chi
ots avam
w an
Ġ3 4
Ġsrisht inchadaniki
Ġint ell
Ġvyap ti
Ġivv alani
Ġameric an
ish n
atr iki
ar anam
Ġt udi
ipoy i
Ġmad iriga
Ġprak ash
ah ubali
ub adi
am anam
Ġm ish
Ġc bi
il aku
Ġpost ed
Ġdas alo
Ġabhipr ay
Ġprath ispand
Ġanip istundi
Ġadhun ika
Ġco ff
Ġtar v
Ġadh arit
Ġ uni
Ġsam uh
Ġches ukovachu
Ġniz amaina
Ġputt ina
Ġmud o
Ġ0 9
Ġparishkarinch adaniki
Ġtelus aa
Ġson tham
Ġrecord s
Ġjagan mohan
Ġsanksh ema
Ġn om
Ġj uni
Ġerp atlu
Ġsam yog
Ġvas ulu
Ġchust u
Ġstor ies
Ġch ay
Ġve eri
Ġvip arit
Ġth ipp
Ġbhav istunnaru
ell y
Ġdh r
s e
Ġh or
arust undi
Ġche v
Ġvacch e
Ġat uvanti
utunn adu
Ġcho op
in ar
Ġbadhyat alu
Ġko h
Ġ19 6
Ġ0 8
Ġbh aut
Ġter kekk
Ġgurt unch
Ġappat lo
Ġs utr
Ġsh ap
Ġf un
Ġroj uvari
Ġgant alaku
Ġkaran alu
Ġkum art
Ġvyakhy an
Ġcav alani
ox ide
a ik
Ġpo ti
Ġbah ula
Ġw ww
op y
Ġvish ranti
Ġpun arud
Ġp anta
ap oy
Ġprac re
Ġsari h
Ġg ir
Ġwebs ite
Ġ isuk
Ġk eer
Ġted in
Ġmodalu pett
Ġdel iv
Ġt aksh
n ey
Ġc raz
Ġrang am
Ġo s
anj anya
Ġtel l
Ġass ist
Ġenn y
Ġpond adaniki
Ġv itam
Ġkh ali
Ġcheb ut
Ġsanch alana
Ġvy at
al anam
Ġd aka
av anthanga
Ġla x
app a
Ġchoos ina
1 8
Ġp ay
Ġk aka
Ġt i
an alato
Ġpray anik
Ġk ang
Ġvibh inna
s ar
Ġr oy
Ġch ow
inch atam
Ġ0 2
Ġb u
Ġ0 3
Ġsakt iv
Ġkash mir
Ġadu gu
Ġpolit ics
u tha
Ġch alu
Ġin s
ondi mch
ga i
Ġha zar
inch aga
Ġg ame
Ġmus ic
Ġvr uddhi
Ġprathip aksh
Ġthisuk unnaru
Ġtidi pi
Ġthis ukovalani
Ġ uk
Ġjap an
Ġrajadh ani
Ġjeev ana
Ġm ess
g o
p addaru
am bh
r ol
am annaru
Ġw ik
Ġdesh v
ul ani
abh avam
Ġpatr ik
Ġk uk
Ġmahamm ari
Ġm iss
j ect
up ett
Ġkum arudu
Ġcharch alu
Ġs ak
ipoy ayi
inch ukunna
Ġvibhaj ana
Ġtr iv
d e
Ġk om
Ġb ull
ek h
Ġ9 0
Ġd amp
Ġpo ur
Ġtelust undi
Ġbahir anga
à ¤
Ġraj a
Ġmoth amlo
Ġcor ic
sh i
Ġpr analu
Ġpaathas alas
s ah
Ġthe at
Ġteas er
Ġvell e
Ġam al
Ġprasiddh a
n y
Ġh oda
Ġuch ita
Ġpatr ika
' t
op e
Ġbhar ti
Ġsouk aryam
Ġsam ag
Ġabhy as
Ġvyayam am
inch ela
Ġmarg adarsh
Ġvig rah
Ġintell ig
Ġga urav
Ġviv aralanu
Ġvidyarth ulaku
Ġup adhi
Ġm or
Ġup pu
Ġanch analu
Ġvan arula
er t
Ġsr ey
Ġroj una
Ġc lo
Ġbadh a
Ġvarsh am
Ġb ak
Ġrup ond
Ġund haa
Ġj iv
Ġdeshv yaptanga
Ġench ukondi
Ġsinim ato
Ġpod av
edi t
ar annaru
Ġm ant
Ġadhikaram loki
Ġpanich ese
Ġr tc
Ġkod diga
Ġvid ud
aran alu
ari ty
Ġpas upu
Ġkalig istundi
Ġvishay alanu
Ġm ik
Ġsand es
Ġ0 7
Ġjuni or
y alo
Ġsanket ik
Ġgh an
Ġches ukunt
a f
Ġac count
at one
Ġdi oxide
Ġrashtr allo
Ġne p
av o
Ġroj uku
Ġs ala
Ġsub b
Ġat anni
Ġvarus agaa
ap tu
Ġner aver
Ġam az
Ġbad uluga
Ġkam al
Ġs aram
Ġper son
as ad
im e
Ġdagg ar
Ġat ip
ul one
ag aram
andh ra
in ce
av anni
Ġir oju
Ġkharch ulu
ch ey
Ġmott am
ul atho
Ġperug udala
Ġst ate
Ġ4 8
is k
Ġchey agala
Ġatyadh ika
ul aki
Ġdary aptu
Ġniras ana
Ġmadhy alo
Ġparish eel
Ġeen adu
Ġc el
Ġdegr ee
Ġpench utundi
Ġsinim ala
Ġunit ed
Ġchot a
Ġvast uvulu
Ġt ab
av al
Ġvenkat esh
Ġan u
Ġnemm adiga
Ġentr y
Ġpranal ika
ad ev
Ġch akka
Ġspand ana
Ġbal akrishna
inch ada
Ġnir antaram
Ġd ach
ist amani
Ġnel alo
Ġm osam
av at
Ġp aduthundi
Ġvish vas
Ġcoff ee
Ġsup port
av ariki
Ġav ishk
ec chi
il one
g ar
r ik
Ġsamsk ruth
Ġche ek
Ġopp andam
Ġgro up
Ġedur uch
Ġan ukunn
ag aru
pad indi
Ġann am
Ġe ur
Ġsansth ala
Ġrajamo uli
Ġupayog istaru
Ġg l
y i
Ġgn ap
Ġwh ere
Ġmad yam
am s
al aya
Ġvast unnayi
Ġdr ug
Ġw ater
Ġmaat lad
int ini
Ġcomm ent
Ġvimars imcharu
Ġdish aga
Ġdruk path
an anto
Ġa ata
Ġbhar t
k aralu
m in
Ġ3 8
Ġp etti
Ġamarav athi
Ġunn arani
tic es
unn ara
Ġn inna
Ġsw achch
Ġvarg alu
Ġex p
it ch
Ġt able
Ġte esi
Ġev ent
Ġsev alanu
Ġn ig
Ġh osp
Ġsam athul
Ġrab oye
Ġw ed
Ġp ic
ach er
inch alsina
Ġat ag
v aru
Ġs ok
Ġk aj
Ġr ani
Ġar m
ang u
Ġg udi
Ġ7 5
w n
m aina
ak anksh
Ġpradh anam
Ġbayal ud
iv es
inch akunda
Ġsh arma
Ġs as
m ani
av ulu
uk o
Ġbala iah
Ġprat isht
Ġpl astic
Ġabhyarth i
Ġsupr en
Ġm aga
Ġv otu
Ġma ulik
an ak
Ġa j
Ġup arit
Ġtagg inchadam
Ġsa id
Ġlaksh am
oh am
Ġro om
Ġch ed
Ġr adh
ri th
Ġb andi
Ġcom b
Ġcov er
Ġcommission er
Ġev aina
ad em
Ġarog yam
Ġpr ess
and uku
Ġant arg
Ġkilomet ers
Ġnivedi ka
Ġvyavas ayam
Ġvadd aku
Ġsr iram
Ġ0 6
ay indi
ent o
Ġd et
Ġpanichest undhi
Ġtrail er
Ġsamskruth ika
ist undani
Ġvari to
Ġ15 0
Ġbangal ore
Ġr adi
Ġda ily
Ġ4 2
Ġh ar
er ial
Ġchey akunda
Ġsamud ra
Ġtir ug
Ġpilust aru
Ġb est
e ch
Ġd w
is thu
Ġvy arth
Ġpol y
Ġpradh any
Ġwar angal
Ġj eet
Ġn anyata
Ġbang aram
Ġche m
Ġyu va
at anni
Ġm inchi
Ġund er
Ġsr ust
Ġpr i
ayam lo
Ġbag undi
on ni
Ġmaru thundi
Ġakarsh ani
Ġo b
Ġchakka ga
Ġvay asu
Ġda ari
Ġsamyog akriya
Ġvast ayi
Ġpal an
Ġpil uv
aran alo
Ġnar ayana
Ġv adi
Ġcho ost
Ġr ath
Ġ3 00
Ġbhinn anga
unn ayani
Ġdash abd
av ai
ika ga
1 2
Ġdeliv ery
Ġatip edda
t am
Ġrach ana
Ġsala ha
Ġad arsh
Ġit uvanti
Ġudyog alu
Ġmukh am
Ġblo ck
av uth
Ġnirv ach
Ġchiv araga
Ġne xt
ed ana
pp ing
inch inappudu
aran anu
Ġdeen ipai
Ġb ann
Ġrasht rap
Ġlek ha
avar t
Ġjabit an
Ġ ya
Ġmar n
een i
Ġviniyogad aru
Ġk indi
Ġchey agal
Ġfir e
Ġpr int
ela ilu
Ġ19 4
Ġtisuk une
Ġed ug
Ġsuch analu
Ġr at
Ġcustom ers
un iki
erv are
Ġpath ak
Ġemm elailu
ak ante
Ġs ig
og al
Ġokk as
Ġpatr anu
Ġjill aloni
Ġgr anth
ad aga
Ġvay u
Ġrahad ari
av adu
aru s
Ġv ag
ith am
Ġ5 5
Ġvel ugu
Ġpad ay
Ġcheptt ina
m anam
Ġn ela
Ġpal ik
Ġvishlesh ana
Ġs ud
Ġphalit alanu
Ġs aj
Ġnalug uru
Ġs id
Ġcr edit
Ġcolle ge
Ġst ates
Ġpari t
k ir
y anam
Ġh and
Ġtir um
Ġpun ar
Ġganani yanga
Ġmadhyaah nam
Ġ apai
Ġintellig ence
g es
u ha
Ġvir uddh
Ġka alam
Ġund adam
ik ala
ab i
ast ar
op al
Ġpur i
Ġsansk riti
Ġnil ip
n enu
Ġwind ows
Ġw ervare
Ġutt ara
Ġd ush
Ġpust akalu
Ġsahit ya
en di
Ġg as
ant s
Ġcher k
Ġnim ag
Ġvanij ya
Ġanus andh
Ġcheyabad indi
Ġath adi
Ġbhavodve g
Ġe ff
Ġvar tha
Ġthallidandr ulu
Ġm alay
Ġpart iny
istunn anu
Ġm okka
Ġag r
Ġpaddath ulanu
Ġlek h
Ġbharatades amlo
ali tha
i o
al akshmi
Ġkr inda
h one
l lo
unn attu
bh a
Ġvanar ulanu
ak atvam
Ġaah arana
Ġaag raham
ut une
Ġpol ling
Ġgram a
Ġex ce
in ti
el d
Ġt iy
inch amani
atlu ga
Ġparisthit ini
Ġl alo
Ġh ost
Ġmodala indi
als indi
Ġani l
Ġkanip inche
Ġshraddh a
Ġcam era
Ġcel eb
Ġm amm
Ġa uto
as abh
utunn adi
Ġem ito
Ġkanip istondi
Ġnait ika
Ġlow e
Ġrajakee yalu
Ġvay assu
Ġsh atr
Ġmill ion
ah atya
el ugu
Ġsamud ram
Ġrep u
Ġnin nu
Ġdarakh astu
Ġn eev
iz e
Ġpari raksh
at alanu
on tu
Ġdev uni
istunn adu
Ġc es
Ġ ayi
Ġushnog rata
Ġpad m
Ġvast ondi
Ġs ukh
Ġchepp e
Ġcom edy
arinch e
lu c
Ġh aty
iv alla
Ġarog ya
Ġan j
Ġtr ip
Ġv o
Ġpr ot
Ġ udi
al ed
Ġa chch
Ġardh am
Ġvid esh
Ġbag ane
Ġsec ur
b an
Ġvaid yulu
Ġpras ang
ap atu
Ġvidyarth i
ad aina
Ġd and
ev er
Ġavine eti
Ġund ela
Ġsah akaram
Ġunna adu
k umar
Ġad l
Ġprodu ction
utunn arani
Ġr oh
Ġvadd a
Ġpanit iru
av utayi
Ġmar anam
Ġla w
Ġas vad
Ġsa f
ant one
Ġviv ah
ari ksh
Ġchest amani
Ġvan arulu
Ġy es
n aku
av utunna
Ġv it
ud o
amlo ki
Ġ4 4
Ġac cess
Ġchot la
Ġm ond
Ġug r
Ġsaktiv antamaina
Ġpand uga
Ġsupr eme
s in
est unnaru
Ġlabh isthundi
Ġsan jay
ayak udu
Ġanip inchindi
Ġp on
Ġprekshak ulanu
avett alu
Ġpoy indi
Ġcanc er
Ġaarog yam
Ġ arud
Ġpooj a
ag es
Ġmas k
Ġbar in
3 0
l edu
ep t
ipoy adu
Ġv unte
Ġsadh yam
Ġbh uj
Ġdo sh
ut y
Ġkir an
Ġn aksh
Ġb utt
Ġutpatt ulu
Ġf eed
Ġsahit yam
Ġrev anth
Ġm aster
Ġapp l
Ġbad ili
Ġchopp una
Ġs ush
Ġades imcharu
Ġadu p
c p
Ġsec ret
Ġvey adam
Ġbhavishy attulo
Ġm m
Ġvarl ala
Ġp ash
Ġsh antr
asth anam
Ġt int
lo re
Ġandubatulo ki
Ġspeak er
edi te
inch ukovadam
Ġnir laksh
as eb
Ġ200 8
ag r
Ġkutumb aniki
Ġgur i
Ġraj y
ath aru
it ed
Ġsag am
Ġlaksh yalanu
Ġl ast
anu bhut
Ġapp ud
Ġglo bal
v y
Ġon g
Ġc amp
Ġplat form
Ġb ell
id ini
ut ai
as karinch
Ġpray atnam
Ġnat imch
at ulu
Ġot lu
iv ari
Ġkosam e
Ġev ariki
Ġprabhutva anni
Ġsabh alo
Ġs uj
Ġsag atu
c ch
Ġf ood
Ġt en
Ġy adav
ok sh
Ġse x
Ġsari ga
at anam
Ġnag adu
l ly
Ġparsh ara
Ġbhaut ika
ub e
Ġs andh
Ġk id
sh ip
Ġparish odh
Ġpunarud dh
ak andi
Ġok ar
y ani
as ekhar
Ġunivers ity
Ġt emp
av adh
Ġbhavishy athu
Ġviv adam
Ġdaggara ga
el aku
Ġve elu
Ġch edd
Ġkary ach
Ġ3 9
Ġparim anam
Ġbah usha
Ġal ank
Ġand incadaniki
Ġvis ip
Ġj us
Ġan ukuntunn
Ġf it
Ġ5 2
Ġkath anu
Ġdad ulu
Ġanubhav anni
ath alu
uj i
Ġthis ukovali
avalas i
v alue
Ġve el
Ġgram eena
Ġrav adanto
Ġmat r
Ġch int
Ġav at
al alu
Ġandist ai
Ġvide os
Ġus er
Ġp ac
or pu
app u
Ġma il
Ġunn atha
av alu
Ġn ene
Ġvall ey
at in
ipoy e
Ġsat yan
Ġpani lo
Ġc p
Ġtelus uk
Ġaudi o
Ġpr arth
Ġru chi
ala ap
ut adu
Ġj uttu
Ġv esharu
apad indi
od du
Ġsifars u
av ali
Ġtriv ikram
Ġsanni h
Ġchestunn arani
Ġch edu
Ġpil up
Ġardh ika
Ġsur ya
Ġksh in
akavar gam
ar la
arg e
Ġb er
Ġvish was
Ġvel u
Ġnirvah inchadam
Ġpet ition
es ari
ap atr
Ġchey aledu
Ġalav atu
Ġund o
as p
Ġc ity
Ġd am
Ġsth iti
Ġvell aru
Ġs em
Ġn ett
Ġd op
tor s
inatlu ga
Ġkav itha
h aram
Ġikk adi
Ġg ali
ens ion
Ġn and
Ġcharitr aka
Ġra asi
ay ite
Ġh m
Ġand arini
Ġamaz on
ap am
Ġp edu
Ġt ane
ani yam
Ġvidudala ina
Ġcey adanto
Ġcontr ol
Ġm ett
Ġmar chu
ri h
f r
Ġprakat inchina
akal p
Ġpap am
n ess
Ġupadhy ay
Ġokkas ariga
d aru
Ġsho pping
Ġbe aut
ind hi
Ġsiddh anta
ul anga
Ġmandi paddaru
Ġyo ung
Ġth appudu
Ġl avad
Ġkal akram
Ġnirm inchina
Ġkaryak alaap
h ay
Ġkh ayam
Ġkur ag
Ġsus p
Ġl in
Ġpal p
Ġchesuk une
Ġch akram
Ġroj uluga
Ġadhik arika
Ġsh as
ukunt adu
Ġbreak ing
Ġc ut
Ġf eel
Ġh ave
Ġto orpu
Ġmoth anni
Ġp in
Ġk ast
Ġg et
Ġpan ini
Ġv ini
id evi
Ġth att
Ġrak ap
Ġgurt inchandi
Ġsamiksh a
Ġlakshman alanu
i j
Ġmedi cal
Ġch el
ut unte
Ġchepp andi
Ġpettubad ulu
an tham
Ġl ond
Ġsh arm
Ġatt avi
Ġh ai
Ġnel lore
Ġkram anga
Ġfun ction
us th
Ġkod di
Ġgari sh
Ġbhakt ulu
p atti
Ġv illa
Ġdes aniki
Ġb an
Ġan ant
Ġnel alu
Ġtar un
ak as
ish na
Ġmo od
Ġtam m
Ġ19 5
Ġnil abad
Ġv esh
sh atam
ip edia
anam e
Ġtara f
unna ayi
Ġavakas alanu
Ġà ®
ek am
f a
Ġb ind
all onu
uth u
Ġl aku
unn appudu
Ġg luc
Ġ4 9
Ġad avi
Ġok appudu
Ġcab inet
Ġte xt
Ġvr uddh
Ġc an
Ġvr utti
Ġrem ake
Ġv untundi
ind annaru
Ġj amm
Ġnirnay inch
Ġbhar ati
Ġn ara
Ġl ong
Ġjan abh
Ġooh imch
Ġviniyogadar ulaku
Ġnirm atalu
Ġcomm er
Ġdoctor s
oc i
Ġvas in
Ġtheer pu
u al
Ġchepp alante
g at
Ġt up
Ġvarg am
tu al
al ad
Ġj ad
anal apai
Ġvr as
Ġs ap
Ġprat iroju
Ġ4 3
or ith
Ġkal ay
Ġdakh alu
Ġdr avy
Ġray andi
Ġmish ram
Ġmar ina
v en
Ġand aga
Ġar un
Ġvaiv idh
Ġl are
Ġsam raj
Ġak ka
Ġkut uru
Ġantarg ata
atv anni
Ġpr avart
Ġsmart ph
Ġsark aru
Ġviv ar
Ġvaid y
Ġpreksh akulu
int iki
Ġgurt inchadaniki
Ġsamarth avantamaina
Ġpemp ond
is arlu
Ġdo ub
ut ion
anic y
een am
Ġjill allo
Ġthisukov daniki
Ġud a
Ġst ud
Ġle g
Ġbadh apad
Ġprav es
Ġsah akarinch
l ight
Ġf und
Ġst ore
ukol edu
Ġmanthr ulu
Ġga ji
Ġco un
akal amlo
Ġunch andi
Ġwik ipedia
Ġi yana
Ġtir upati
Ġkh ar
v iniyog
tion s
Ġkalu p
Ġvikr ay
ar ham
Ġdarsh anam
Ġalg orith
Ġ4 7
Ġnizam abad
Ġchesuk ondi
ant unnaru
ap aramaina
Ġpoint s
ud r
Ġabhivrud diki
ash a
Ġudd es
arinch indi
Ġyo ga
1 5
ar anna
ar tha
Ġb or
Ġd ag
Ġm elu
is a
s s
kot ta
asth ayi
if t
Ġvist ita
ad anam
Ġb ow
it ram
Ġand inchina
Ġraj yas
Ġsari kotta
Ġkonug ol
Ġk arim
av ir
Ġt ev
Ġmanag ement
Ġd ra
ens e
ur avam
arinch aru
el e
Ġrup am
Ġc m
Ġm ission
Ġc as
Ġmud r
Ġmoth aniki
Ġass oci
Ġjagrath alu
Ġh app
st o
Ġdesam loni
Ġport al
Ġprarambh inch
olo g
ane di
abad utundi
Ġap ram
Ġparug ulu
Ġt andr
Ġcon s
Ġanub andh
an and
aku p
Ġmund uk
Ġudyam am
Ġisuk a
Ġches ayi
Ġkh al
Ġ5 3
Ġtr end
Ġpett indi
Ġpiluv abade
Ġb eti
Ġvyap aralu
Ġsantr ipti
Ġdriv er
Ġand anga
ar b
Ġa z
Ġl onu
Ġprant ala
Ġkop am
Ġe ka
Ġth ank
Ġhttp s
unn adani
Ġrashtr aniki
Ġmahil ala
Ġp aru
Ġbh aj
Ġund atanto
Ġprati b
a e
ath anu
Ġedurk ov
Ġas antr
Ġdill ilo
Ġand roid
Ġunt adu
Ġ4 6
uth anga
Ġpres ident
Ġb on
Ġm up
Ġo m
Ġpil ich
Ġett una
et y
Ġkoh li
Ġn ach
Ġmaru st
Ġpramukh yatanu
Ġdown load
il ity
Ġpatt ana
akrish n
Ġnivedi k
ata ga
Ġas chary
Ġrup ondimch
Ġd om
Ġs ram
Ġk ag
Ġdagg araku
Ġappat ike
Ġk akapote
Ġan uch
Ġnit yam
Ġdor ak
Ġbaru v
als in
Ġmat am
Ġlok s
Ġrajakeey allo
Ġlo c
Ġ5 7
Ġph ones
Ġches ukovali
Ġatm ah
in nam
aksh am
Ġbhay apad
Ġseet lu
Ġp ov
Ġco lo
Ġlot aina
Ġpa ur
Ġsaman v
Ġgad ap
uv ulanu
Ġsambandh alu
Ġvand ala
id y
Ġid anta
Ġdhr uv
m ah
Ġgh or
g anam
Ġv ai
Ġdh an
inchuk unnaru
in j
Ġb iy
Ġa ush
Ġvr udd
Ġb oy
at yam
Ġf ace
Ġsat y
Ġcheppuk ochch
Ġpanitir unu
Ġch ent
yu di
Ġpraty aksha
Ġl im
Ġne g
o ff
Ġch ih
ee ga
Ġmah ill
Ġvad ana
Ġmond ay
al avari
Ġnimish ala
Ġchey alan
Ġsag u
Ġsamip amlo
Ġp ach
Ġadh arapad
Ġchend indi
Ġanumath imch
Ġn andi
Ġen ni
pr ess
Ġades alu
n ool
Ġgr aph
Ġvedika ga
Ġ5 8
Ġchann el
ag ram
Ġdis c
Ġgn anam
Ġk atch
Ġpr ote
Ġj ar
all aku
Ġep is
Ġtirum ala
Ġmic r
Ġak h
te ch
Ġl ist
Ġhy dr
Ġr akunda
Ġvatavaran anni
ir n
Ġcont ra
Ġker ala
Ġs ut
Ġv ine
Ġvent a
Ġsthay iki
Ġche kur
um dani
um a
Ġpedd alu
Ġcher ina
Ġhakk u
Ġams ampai
Ġth omm
Ġkaryakarth alu
Ġalgorith m
Ġsam ay
Ġgaman arham
est e
Ġvyakt it
Ġpradh amika
akap oyina
Ġfr iday
ith anga
Ġba ahubali
ug g
Ġcap tain
Ġs oni
ekap ot
Ġmeg astar
Ġg unda
Ġgen er
Ġsard ubatu
Ġsw adh
Ġwh o
Ġchus ina
Ġchud ataniki
Ġcommun ic
Ġbom b
onn adu
Ġtat kal
Ġt ann
Ġh ard
ur y
qu e
s w
ul ak
Ġvach adu
Ġr ast
Ġkh amm
Ġstr ee
Ġch uddam
Ġr isk
Ġpadd athulu
Ġaatm ahatya
Ġenim idi
unn i
Ġansh alapai
Ġm ost
Ġch iru
Ġr ank
s y
1 1
Ġves indi
Ġchakk era
Ġsamb andha
akanksh alu
d o
Ġan ush
Ġchesuk oni
Ġsr en
Ġto ur
Ġg e
Ġdev i
Ġkharch ulanu
Ġsupren cort
s c
udi lly
Ġsank alp
Ġsank l
Ġmokk ala
Ġim age
Ġkatch itanga
as r
ap atnam
Ġsam ananga
Ġvyathir eka
al k
Ġsam o
Ġgurt incharu
ash i
Ġ ari
ad ulu
Ġmaharasht ra
Ġchest anu
ik alo
Ġnir ud
Ġvastuv ulanu
Ġvish akha
Ġpand lu
g i
Ġn asanam
Ġsnehit ulu
Ġraj yam
Ġmun ig
Ġdhair yam
Ġg and
Ġdoc um
Ġprom otion
ang ana
Ġvyakhyan incharu
Ġg udd
Ġac c
oc ol
Ġco urs
Ġpradh anyam
Ġanum anam
Ġevery cy
n esday
Ġyaj amani
Ġkumart e
Ġd ubb
Ġne oj
ang e
v ani
Ġav utondi
Ġsahayapad atayi
Ġwed nesday
ell alo
Ġkad il
Ġudyog ula
Ġpratib imb
w s
Ġfin al
ta ur
achch ani
Ġprapanch anni
Ġvijay anni
m ana
at adu
p ulu
Ġem atram
Ġpett ukuni
Ġvir tual
Ġnid r
Ġuts ah
Ġres p
Ġparisthit ulanu
avett a
um u
ey andi
Ġd ari
Ġf lo
Ġpradarsh ana
Ġr ad
Ġg arv
Ġl i
Ġvitam in
ur na
Ġthe eru
sh m
Ġartic le
p er
ag ani
Ġy atra
Ġne udilly
ukunn ayi
Ġmanag er
p anch
ed am
Ġsinim aki
al annaru
Ġ5 4
Ġprad es
Ġadhy atm
Ġr ana
Ġkav i
Ġev ol
Ġkonn isarlu
Ġdin ivalla
Ġprodu ct
Ġo il
es ariki
Ġcorpor ate
Ġrupondimch andi
Ġipp ud
Ġtu esday
Ġudi k
inch an
Ġg anta
Ġc er
ap ana
Ġa alas
ish karinch
Ġ5 6
Ġ4 1
Ġvach ina
Ġnilich indi
Ġb en
Ġvacch inappudu
p ap
ag rah
Ġven di
Ġvij j
Ġl ing
Ġadhikar ula
Ġparij ganam
Ġ5 9
Ġer r
Ġupayog am
Ġak rama
ah ar
Ġfi x
arac ter
Ġkanip inchindi
Ġidd ari
Ġrashtram loni
Ġnis ch
Ġd att
Ġperug ud
Ġp aniki
ib le
atik appudu
Ġtis ina
av adaniki
Ġpust ak
Ġutpatt ulanu
Ġsecur ity
Ġtra in
Ġcent ral
Ġkendram lo
Ġgad ip
Ġhim s
utunn atlu
Ġdrush tilo
Ġr anga
Ġmm elly
Ġnov el
Ġst udi
Ġgop al
Ġvellad inchindi
inch ukuni
Ġas adh
Ġdir ect
unn y
Ġpanich es
ag adam
Ġcount er
av allu
Ġpad ina
ary n
Ġ q
Ġsah ayak
Ġsth itilo
Ġv unt
ut aku
Ġpur atana
Ġsanch alanam
Ġsahayapad ataniki
Ġoper ation
m ee
2 1
Ġkane esa
Ġsneh ith
Ġpettubad id
Ġichch adu
av el
ar ath
Ġsankship ta
Ġp end
Ġr ight
Ġgurl inchi
Ġd y
Ġvish n
Ġvall aku
raj u
Ġs uv
am sam
av athi
Ġsw atch
avachch ani
l ines
Ġl aga
Ġshiksh a
Ġupd ates
ograp hy
Ġb ike
et s
Ġchestunn adu
uk alu
unna i
us e
enu e
Ġsul abh
Ġs ath
ini lo
Ġennik alaku
Ġjabit alo
Ġb el
Ġant ariksh
Ġv ale
m andi
Ġsp o
ama in
Ġnat istunna
Ġull angh
Ġvar th
Ġs i
istunn arani
Ġrav ind
Ġvey adaniki
Ġpramukh yata
Ġman ass
ama inavi
Ġal age
Ġvidyarth ula
Ġhecch ari
Ġcurr ent
Ġn okk
ap ill
Ġbayalud er
Ġas ah
al ann
Ġvand a
Ġgan ank
Ġvast undani
c l
Ġb lu
Ġpurog ati
Ġth urs
Ġpatt ukuni
Ġres taur
Ġkarim nagar
ot o
Ġpraty arth
Ġvyakt ula
Ġsandeh am
Ġindust ry
Ġvist atanga
Ġbh u
Ġve eti
Ġsansk rit
Ġr add
n ap
w a
Ġvar un
Ġpal pad
Ġcorpor ation
Ġassist ant
Ġand incharu
Ġvyakt iki
Ġvyakt ini
Ġm alu
Ġcher indi
Ġpen s
Ġtel up
Ġtaru v
Ġvik ram
ip ovadam
Ġviv ek
Ġp indi
Ġlo pu
Ġpras aram
Ġlavad ev
Ġsel f
Ġjus tice
Ġh ad
Ġhero ine
Ġkarmik ulu
Ġbij iga
Ġgluc ose
Ġsam y
Ġaty avasara
Ġreg istr
Ġrangamlo ki
Ġprogram m
Ġmud ava
Ġch aracter
Ġco ol
Ġshir sh
istunn atlu
Ġkhachch itamaina
Ġswat antr
Ġaustrali a
Ġthurs day
Ġar padindi
andam uri
arg am
Ġud ay
avidy alayam
ag ott
Ġrashtrap ati
p al
Ġv ic
ul d
Ġso ura
Ġepp atiki
Ġmot or
up ad
Ġnirvah inch
Ġvibh ag
Ġnim m
Ġvishay aniki
Ġt or
Ġchest unnayi
Ġdarit isindi
Ġhot el
Ġs adar
achch a
Ġkod uk
m chi
Ġmamm alni
Ġj att
Ġtelis i
Ġac adem
Ġtaraf un
Ġb alo
Ġf e
Ġsast riya
Ġvell adam
Ġda iv
Ġg ar
Ġraj ki
Ġviniyog am
l in
Ġvyavas thalu
Ġanubh avam
Ġchadu vu
k o
Ġsantosh anga
Ġavas aralu
Ġm anug
ap at
ellu ga
Ġpadarth alu
Ġnayak atvam
Ġv ign
Ġash ok
Ġayy ayi
Ġla unch
Ġsam akur
Ġcy ber
Ġlon ey
Ġkrit ajj
Ġsh ank
ok ki
Ġperk on
j ana
Ġy atr
Ġant ata
Ġity ale
Ġkal asi
Ġpanich eyadam
Ġcolle ges
Ġvers ion
yoth i
ad es
Ġpr anam
Ġo op
Ġvaid yam
c i
Ġud rik
Ġhecch aryn
Ġant o
Ġvast avam
Ġkathan ay
Ġksh anam
Ġthir ch
Ġkil akamaina
n alu
th iga
Ġnet rit
Ġphot ol
Ġly n
Ġkr im
Ġpandi t
ant ar
Ġunn at
ipo thundi
ett er
Ġdash alanu
Ġhigh light
Ġsamasy ala
Ġkap oor
Ġmand ulu
Ġprabhav alanu
Ġeff ect
Ġl ive
Ġr ole
Ġann anu
Ġmadd atu
Ġavas aralanu
Ġrak th
is ina
Ġchot uches
ayy adu
Ġmin ister
Ġshast r
n anga
Ġg m
ok e
Ġro ad
Ġtar achu
Ġopp and
Ġd ance
adam lo
v ari
ort s
Ġyo ur
Ġv anta
Ġkurch uni
Ġviniyogadar ula
Ġpr ee
ish a
Ġjari gai
Ġpl ant
Ġpart il
Ġamarav ati
ig er
ish ta
b r
Ġchud atam
Ġvedi k
Ġar av
Ġvipl av
as karam
Ġp la
Ġcharm am
Ġtheat ers
Ġchey alsina
Ġpunj ab
Ġrup akalp
Ġsuk r
ant ivi
Ġkaryakalap alu
Ġadd uthanga
Ġnir ash
Ġtan ak
ur thi
Ġ5 1
Ġmand ali
Ġma in
Ġkath anam
Ġt ata
Ġneev u
b ot
Ġ inch
ul onu
usht ini
Ġbahum ati
Ġeduruch ust
Ġprotsah incadam
Ġmov ies
Ġj ack
Ġgo uravam
Ġpench am
poy i
Ġe ta
Ġprath am
adu g
apurv aka
in ations
Ġg anu
idh ar
aseb uck
up alli
Ġte ga
Ġuni on
ad aru
Ġrang e
es w
Ġguj arat
Ġsth anik
Ġsp andist
alas ina
Ġkan abad
Ġnid rap
ik ulu
Ġkes ula
Ġnij ame
Ġyuv athi
Ġsari ra
Ġchir un
Ġantek akunda
Ġity ali
at amlo
adu thu
Ġne ed
Ġkatt ubadi
Ġl al
Ġf oot
Ġparisram ic
alo sin
Ġkond a
Ġk ing
Ġpravart ana
Ġbatt ery
Ġnibandh analu
Ġcl arity
Ġbhagaswam yam
Ġpot t
Ġsav al
Ġor g
g ala
Ġmeruguparach adam
b ar
ad an
Ġb og
Ġb ody
Ġrash ya
ang i
Ġveg am
Ġa adi
add ani
Ġbhav anam
Ġsadh ana
Ġay udh
Ġcraz e
Ġsh was
po thundi
Ġdop idi
Ġsuk shm
ad ine
Ġay anam
Ġidi la
ain avi
Ġshr eni
Ġd av
ik aina
Ġj ac
Ġadug ulu
Ġp uvv
unn amu
Ġkal ip
c ial
Ġcav alosin
Ġfeat ures
in o
arsh i
Ġfr ee
ar ant
al unnayi
Ġbhag avant
amm eeda
Ġlond on
ik alanu
us arlu
Ġb uj
Ġy epp
Ġkalig inche
Ġk it
Ġisht amaina
Ġshat abdam
Ġaalas yam
Ġprof ession
Ġrup eel
Ġras ayana
ee ch
Ġsubh akankshalu
Ġswadh eenam
Ġst ep
Ġtin adam
ul eni
iv ud
idi ato
aj an
Ġkapp u
Ġsam ayaniki
idd aru
Ġshast ra
ga z
Ġj ob
Ġpratinidh yam
alavari ga
Ġbalo pet
Ġme idiato
r oj
Ġp ir
Ġm ind
Ġche pad
Ġchadav andi
Ġpr ov
Ġparim ita
er ence
Ġso ur
Ġscr ipt
Ġch ance
Ġb ol
ok ap
Ġchest adu
Ġsur yam
y y
Ġ yam
Ġpo or
Ġparig animch
Ġpol avaram
Ġpr anti
ar ulanu
Ġe thu
Ġpet rol
Ġche kk
Ġindust ries
Ġk anch
Ġgr uh
Ġkor e
Ġkur nool
Ġf asebuck
Ġem otion
Ġal so
Ġkritajj atalu
Ġbay atiki
Ġadhikar ulaku
Ġsamp urna
Ġkal la
Ġvalas a
Ġcheek ati
Ġbann er
ap atam
Ġg eet
Ġvar ada
ast ulu
Ġrak ark
Ġash chary
Ġnar ayan
Ġroopond inchina
Ġany ayam
al on
Ġle chi
u tham
Ġmik u
Ġnil ad
Ġh arsh
Ġsrisht inchadam
ath er
Ġra atri
Ġchary alanu
Ġmott ammeeda
Ġpraj al
at ors
er gy
Ġbeng al
Ġmarik onni
ar ante
Ġn andamuri
ur ali
Ġtar k
Ġchiv ar
ir m
Ġket ay
od di
alo gu
Ġdev arak
Ġgurt inchadam
ath ayi
abad dh
Ġhaj ar
Ġk und
Ġrash aru
Ġmukk alu
Ġmarg alu
Ġnepath yam
Ġsh e
Ġbhar osa
Ġkadu p
unn amani
Ġchey atam
Ġc ell
Ġdr uv
Ġkot l
Ġpatt anam
l ey
it ya
Ġgr ound
j eev
Ġm adr
Ġl angu
l ed
Ġasp atri
ukov alsina
Ġnet ala
in atl
ab oth
Ġjagr atha
Ġdriv ing
tific ial
sh an
end u
es ar
Ġniv arinch
Ġmukhyam antr
Ġkrish nam
inch a
Ġl ic
Ġbi har
ar apu
utunn appudu
Ġchust unna
Ġuch itanga
Ġkooda a
pp udu
Ġor ig
e gr
l er
Ġpr amani
Ġsah as
Ġt ul
Ġund avacchu
Ġutt arv
arik anga
Ġkal ak
Ġpett e
Ġpadarth alanu
Ġpe op
Ġmottam od
uv uga
est u
m ents
ant ic
Ġcomput ers
Ġarh ata
Ġnil ust
Ġparyav arana
avas aram
Ġpl us
i ent
Ġm ucch
Ġ9 9
Ġches inappudu
Ġhrud ay
Ġpracre alo
ay og
Ġut pad
Ġchus e
Ġrav adaniki
poy e
ik it
Ġj e
Ġkalush yam
Ġn ote
Ġbhav an
ah as
ava ipu
at ip
Ġgan esh
ed aina
Ġst at
Ġavasaram aite
Ġsabhy udu
Ġkuk ka
y s
Ġtees ukunte
viniyog am
uk osam
Ġkanip istayi
avant am
Ġadh ip
Ġla abham
Ġtem india
Ġkaj al
Ġkhamm am
ast ram
Ġper unu
Ġavakas anni
ay anto
ag o
Ġniv arinchadaniki
Ġnij anga
Ġas w
Ġsang ath
Ġsar adaga
ol ic
Ġnat imcharu
anik e
Ġ uh
Ġpari karalu
Ġvr utt
Ġlead er
n er
ek ki
Ġak asm
Ġinst all
end ar
Ġip l
Ġsuraksh itanga
abh ai
Ġled ante
at lo
ath vam
Ġchey an
Ġpad alu
z ation
Ġprad esham
Ġhel p
ir aj
Ġth ey
Ġok esari
Ġnam odu
Ġthappanis ariga
Ġthr ill
h er
ad ars
Ġch an
Ġn any
Ġkav adaniki
Ġanuv art
or ies
Ġpatt u
Ġsim h
Ġand ukunna
Ġsach iv
Ġappud appudu
Ġb add
Ġpraj allo
Ġkaryakram anni
Ġneti z
Ġpratyamn aya
Ġprer ep
Ġm ata
Ġdes i
Ġmet res
ad ri
Ġf ound
end a
Ġgel uch
Ġgrah am
Ġprekshak ulaku
Ġprocess ing
al in
ik h
ath ini
Ġc lu
Ġink o
Ġchantr alo
Ġsatyan arayana
an ap
Ġth in
Ġvah analu
Ġdoub le
Ġnil abett
b and
Ġont ariga
Ġm atha
Ġpad artham
Ġjag ann
Ġcor on
Ġvarsh ika
Ġeka ika
Ġjarig ite
Ġmill ions
Ġkalakram ena
Ġad min
Ġsarih add
Ġr itilo
Ġbh askar
uddh a
Ġprof ess
g ic
Ġp edite
Ġg adhi
Ġb ot
av addu
Ġprarambh inchandi
Ġooh inchani
o ok
Ġsankhy anu
Ġprak as
Ġthisuk ell
ch adu
Ġsy m
Ġs v
Ġd ub
Ġam ina
Ġudg aralanu
Ġmanj uru
ach i
Ġle ak
Ġs iva
Ġmed ha
Ġcoll ections
Ġadhikar ulanu
ad esh
Ġch ak
Ġtaral incharu
Ġad ah
Ġw eek
Ġtel indi
Ġnir antara
Ġsadh inchadaniki
tic s
ak ash
Ġd inilo
Ġadhun atan
ist a
Ġspand incharu
Ġtar aha
Ġno one
inch avacchu
Ġan aga
Ġmarg anni
Ġseri ous
Ġsw ayam
Ġmul am
Ġmina hay
Ġgel up
Ġott idini
es war
Ġvast uvu
Ġkary alay
ak aranga
Ġakk ineni
j am
est aru
Ġgo urav
Ġpod upu
Ġpr ab
Ġviv adas
Ġneet ilo
av ada
Ġviv arist
Ġgol d
ap ti
Ġp id
Ġp eda
as abha
Ġnaipun yam
Ġsched ul
Ġin ni
ine lo
un ani
al adi
Ġme pp
Ġtam anu
app ati
Ġvi ew
Ġraj asth
Ġchust unte
Ġ ub
Ġsth anal
Ġsamy uk
k ara
Ġm uth
ek alu
Ġudyog ulaku
Ġray alas
al ekapoy
it va
apad ina
Ġproject s
Ġchepatt aru
Ġday s
Ġv ipp
Ġmug impu
ev idhanga
Ġmund astu
Ġkanugon adaniki
Ġsanksh em
Ġsing le
Ġth ot
Ġsr il
Ġvah anam
Ġdrisht iki
Ġb is
Ġa atma
Ġlabh inchindi
Ġswee ya
Ġdi es
Ġb udd
Ġmarg amlo
Ġbir th
Ġadhyatm ika
Ġp y
ee di
Ġm is
Ġparishram alo
Ġsunn it
Ġj un
Ġen j
Ġpari karam
Ġpalg ont
le x
inch alsi
Ġdi alogu
Ġneozecoverg amlo
Ġr ock
Ġb ail
el anu
ers on
ull one
ap arach
Ġsandarbh allo
Ġst and
Ġakk adiki
Ġdust ulu
al d
Ġsn anam
Ġprati bh
Ġabhyarth ulu
Ġgovern ment
Ġp ich
Ġsam ardh
Ġches etappudu
Ġar adh
Ġvi z
uv an
Ġkeel akam
Ġf re
ing lo
Ġf ight
Ġsp ace
avad ulu
Ġchest am
Ġkaryakram aniki
Ġn ipp
Ġg all
Ġcon st
Ġdal it
Ġnat an
Ġbr e
Ġtees ukunt
in apudu
Ġanand anga
Ġudah arana
Ġnel aku
Ġbhag amlo
Ġkath alo
Ġprav een
c u
Ġk e
unt a
Ġdebb a
Ġrev enue
Ġrav ite
is ariga
ig ina
Ġm ann
Ġchestunn atlu
Ġinv est
Ġs omm
Ġveluv ad
Ġpram adanni
Ġmarp idi
Ġ akup
Ġ4 00
Ġpond adam
Ġdars akatvam
Ġne er
Ġpr e
Ġvyavasth ap
araj a
Ġnuv v
1 7
Ġaarog yanni
Ġnal g
c er
Ġvar e
Ġist aru
tif ication
Ġ imp
yam u
Ġtelus ukovadaniki
Ġg ariki
Ġdh oni
Ġadug ula
an ati
Ġist e
Ġchani p
ur oj
Ġc opy
pad e
Ġk n
Ġk arig
Ġyepp atikappudu
eri a
Ġamod am
Ġve ela
Ġnird arana
b ab
Ġm ent
Ġ6 5
p ar
uga a
Ġme ere
Ġvad ul
Ġmaj ority
Ġkeel aka
it er
Ġbh ad
um e
Ġupayog istam
Ġrup ayal
Ġutpatt ini
Ġik apai
Ġgr and
Ġjarig indani
Ġweb b
Ġjill ala
ch aryam
Ġnel allo
Ġty pe
Ġkathin amaina
Ġnav ig
Ġpodi g
Ġnopp y
Ġst ations
Ġcheb utaru
Ġgram allo
Ġviruddh anga
Ġrestaur ant
Ġdr ive
Ġvisakh apatnam
Ġneoz akavargam
akk u
Ġraj yanga
Ġikk ade
Ġvarsh alu
Ġnirdh arimch
Ġsal es
Ġpratin idhi
Ġshantr avettalu
inch ad
Ġgm t
Ġprarambh inchina
ann adu
Ġth odu
ondi st
iv ity
Ġrend ella
r oom
Ġkann ada
Ġch lor
Ġokk okk
Ġpranti ya
a ar
Ġsh yam
Ġprat ip
Ġkan undi
Ġkaran ala
Ġpalg onna
h al
Ġsr is
Ġkot a
Ġgh ananga
Ġmanas ulo
Ġchit t
Ġsabh ula
akum undu
Ġupayog inchadaniki
Ġanant apur
Ġlim ited
Ġbalopet am
f ul
Ġvish nu
Ġthank s
Ġk os
Ġy s
Ġtakk uv
Ġnird esh
Ġvo ice
it es
Ġkhar aru
Ġbhav ananu
Ġprasiddh i
inch ab
Ġtag il
Ġbeaut y
Ġa ff
Ġepp udaina
Ġchakr avarth
l apai
Ġd aniki
Ġdr ushtini
Ġprarambh inchindi
Ġcheyab aduthundi
Ġth andri
Ġav in
Ġw ord
Ġup ash
Ġpill alanu
Ġpooj alu
Ġfac tor
aniv v
Ġs ow
Ġit r
Ġdo ok
Ġsanvats arala
Ġch ick
Ġko bb
Ġvel ite
Ġunna anu
Ġsr usht
Ġkum bh
ig aru
Ġw ats
Ġte acher
Ġko ti
inchuk une
Ġl ato
ip s
Ġmar indi
ev ariki
Ġintern ational
Ġr atr
adu gu
Ġmand ini
Ġfr ont
Ġheccharyn charu
Ġr um
Ġbh aram
Ġb c
ag ari
Ġkal alu
p athi
Ġd war
Ġhero ines
ash ekhar
Ġunt undo
Ġsambandh alanu
Ġso uth
Ġreg ular
Ġay an
to or
Ġas thi
Ġokk asari
Ġinst agram
Ġnelak ondi
ul anni
Ġsamud r
ani sh
Ġpas ch
Ġlax mi
uk one
Ġsar asan
Ġer gat
Ġjeevith am
Ġkanugon adam
Ġex c
t m
Ġn oru
Ġrakt am
Ġhead lines
v asam
Ġticket s
ai lo
Ġsh ish
Ġsah ity
Ġbhoom ini
ukup oy
Ġsudh ir
Ġupayoga p
pap er
t s
Ġt ipp
anu sh
Ġmund ugane
Ġvishayam ai
Ġdevarak onda
in avaru
ap ot
Ġtod ay
Ġb aj
Ġdarshak athvam
Ġprap yata
Ġpary atana
Ġgol us
Ġn okki
ust er
Ġbhagaswam y
er la
Ġme gh
Ġroh it
ak atanu
on o
Ġl ay
Ġy ad
Ġma adhyam
Ġchad ivi
Ġupd ate
Ġrang ulu
Ġviluv alu
aksh i
Ġipp ude
Ġvad ili
Ġcle an
uv unu
Ġsinim alaku
Ġchitr alanu
ed adi
Ġabh in
Ġassoci ation
in ta
Ġanth aku
Ġn ight
Ġmark adaniki
Ġk em
r or
Ġant aga
Ġdh arala
atla ite
Ġerpad ina
Ġkl up
Ġg ontu
Ġswat antra
f an
Ġanuk ula
Ġtw o
Ġong inelo
Ġh ollywood
Ġpamp in
c ling
ov er
Ġappl ication
Ġr anj
Ġsr eem
Ġart s
Ġhosp ital
Ġt ollywood
Ġd esham
Ġpaddati lo
1 6
Ġsun il
Ġnirdharimch ukondi
Ġc ir
Ġna alu
Ġdep os
adag ina
Ġsulabh ataram
Ġsangath ana
em ents
Ġas charyam
ad dh
Ġs rama
Ġgur ain
Ġkh are
Ġabhivrud di
Ġhapp y
ri b
Ġn ity
akap ovadanto
eri es
Ġkada a
ot la
p ada
Ġa as
Ġand am
Ġunn anduna
Ġmun upati
Ġadig adu
Ġoffic er
Ġb alu
ist amu
ak ulaku
Ġlo th
Ġvijj apti
ev allu
oc chi
Ġnam una
Ġputt inar
Ġgadi lo
Ġchait anya
Ġch alana
Ġteesuk ell
Ġth eda
Ġjarug utunnayi
Ġnum chi
Ġamm ak
Ġop tim
Ġinst it
om ani
Ġund avu
id hy
Ġsamaj ik
Ġmarp ulanu
Ġse g
Ġkalu s
Ġpanchay at
Ġal aya
Ġsam anya
ec k
Ġvis m
u thundi
Ġkot laku
ak ul
Ġsrujan atmaka
Ġsam any
art ment
Ġchepp anu
Ġmarg alanu
Ġvis ir
Ġprarambh amaindi
Ġru j
Ġchat ur
Ġbhav ish
Ġsinim ani
am ulu
un ika
Ġchey i
Ġnirvah inche
ff er
Ġro und
Ġnirdh arinch
m ed
ivr itt
Ġprayatn inchandi
1 4
ak aya
Ġbath uk
Ġg inn
Ġj ud
Ġmat ti
Ġtidi p
Ġrach analu
Ġlop aliki
Ġaav ida
Ġcre ed
Ġmadr as
abh ivr
Ġsund ay
Ġadhik arikanga
al eka
Ġte chch
ost e
Ġtol isari
abh av
Ġkant ent
Ġvah an
Ġde al
enn o
Ġsanksh obh
em iti
Ġvell indi
Ġvibh ed
Ġrashtr alu
Ġaf ric
al ini
atam e
atam ga
Ġsank ranti
poy ina
Ġdesh allo
Ġman alni
Ġsp orts
Ġash ray
Ġdish a
g ina
Ġk anu
Ġsth it
ek t
Ġmat ala
Ġk amm
Ġkasht alu
Ġyuv atha
Ġdies el
Ġsiddh ant
an ath
Ġchitr ala
eel u
Ġsol ar
esh wari
Ġkor ukuntunn
Ġmand u
Ġprofession al
Ġm ap
arm aina
Ġkaryach aran
Ġ iru
Ġnirm incharu
agalu g
Ġkaryakalaap alanu
v in
Ġbjp k
Ġnimag nam
Ġs end
ak undane
Ġsanvats araniki
Ġp ib
Ġal ane
Ġvr itt
Ġj ai
Ġal ant
Ġchud avachchu
Ġing lish
op ic
Ġnar esh
Ġbig g
Ġman aki
Ġ19 3
Ġvari pai
Ġrec y
Ġh ect
a uk
Ġ arug
ad ane
Ġchey agalig
Ġchit toor
Ġg inj
unt adu
agal adu
Ġpo ina
Ġpush kal
Ġjok yam
id ani
Ġf ail
Ġgur ich
Ġpram adas
Ġrup ayalu
Ġpranth alaku
s k
Ġb et
ukunn anu
an ulu
Ġam arch
Ġandol analu
Ġperson al
Ġvast uvula
Ġsa ar
Ġeg um
Ġsannih it
ar ni
Ġwh ite
Ġmeet ing
Ġpilup uni
Ġayy adu
Ġpadd aru
Ġbayat apad
Ġah lad
Ġlangu age
ent a
Ġsamp ada
Ġta x
Ġsamag ra
Ġneoj akavar
Ġkot tha
Ġcre ate
Ġsanketik at
Ġadh aralu
Ġma id
Ġprag athi
Ġpaday atra
Ġj abb
Ġam ar
Ġdr av
Ġdhor ani
Ġvachch indani
Ġno tices
Ġred di
Ġes py
Ġams anni
Ġrakark ala
Ġant akante
Ġasaktik aramaina
ev o
adh am
Ġprarambh amlo
Ġnid arsh
Ġd anik
Ġas am
Ġkor ata
Ġbab a
Ġasup atr
Ġv em
Ġsahayapad e
akk ala
Ġnirm ananiki
Ġsari k
Ġsthir anga
Ġbhavodve ga
Ġkurag ayalu
Ġn ato
ag ali
Ġnews paper
e ga
adh ikar
Ġpond indi
Ġir avai
Ġresp ons
Ġkad apa
Ġthis ukunt
Ġsub ject
Ġ alu
and aram
al yam
Ġa jay
Ġsth ananni
Ġmerugup arustundi
Ġpr o
Ġlop am
Ġ ara
Ġsaral amaina
Ġviluv anu
Ġpriy anka
Ġpras naku
Ġandh raj
Ġyo ut
Ġnetiz ens
Ġt ok
Ġb it
inch alan
Ġy ap
Ġaloch analanu
Ġhakk ula
Ġess ie
v aram
Ġcommer cial
Ġp ala
Ġpradhanam antri
Ġyes u
Ġvif alam
Ġshubh ram
Ġil age
ast am
Ġsrujan atm
Ġprant alalo
Ġsh anti
Ġjournal ist
Ġvima anam
Ġkav ith
utunn anu
Ġperag adam
r ayam
ag alam
Ġlek ka
Ġl av
Ġnished h
Ġlyn gic
Ġw atch
Ġram arao
Ġrav alani
Ġint aki
Ġtay ar
Ġn alla
Ġsth al
v at
Ġd os
Ġthappanis ari
Ġd u
ok aru
Ġunn adu
Ġun iki
Ġn as
id er
Ġyout ube
Ġvishayam pai
Ġto uch
Ġvy avadh
Ġyajaman yam
ani t
ab atti
and ari
Ġokk ate
anubhut i
il s
Ġer upu
Ġveer iki
iv ar
avar ini
Ġdin ipai
Ġw ash
Ġmodala inavi
Ġshil aja
Ġled ha
Ġprabh akar
Ġtar ap
Ġshash w
Ġr ama
Ġd ina
Ġchick en
Ġy ear
Ġsat ur
Ġmid uga
Ġm ang
Ġgh atan
Ġsamaves alu
ki m
ep a
Ġchall ani
Ġi f
Ġpranal ikanu
Ġsaksh i
ar antu
Ġan tim
Ġkut ur
Ġtal ett
Ġkr man
l l
Ġpett adaniki
Ġeur ope
on om
Ġb act
Ġj or
Ġram ana
Ġmarch adam
Ġc e
Ġk riy
Ġnird arinchadaniki
Ġanush ka
Ġvr ay
Ġh at
Ġind r
Ġthisuk urav
an m
Ġtel ik
Ġunt oo
Ġavas aralaku
Ġvach an
Ġash a
Ġparidh iloni
Ġchandrabab uku
Ġsag ar
Ġpur v
Ġroj ul
Ġlop al
Ġadr ust
ul on
Ġram akrishna
Ġdegr ees
na a
Ġ200 7
m c
Ġcol po
Ġvyu ham
s n
Ġav utundani
Ġnil abadi
Ġpakk ane
Ġsnehith udu
Ġpond avacchu
Ġloks abha
r r
al ine
ant aru
ir ek
ill anu
Ġdani to
Ġklup thanga
Ġt t
Ġan ksh
Ġchepp adaniki
Ġkut ra
Ġvish w
Ġtees ukundi
Ġsahaj anga
Ġnachch ina
Ġc c
Ġper igi
Ġsav allanu
Ġkarmik ula
ind ante
uni ga
Ġvip ula
Ġdiv y
c om
Ġh od
ul ala
Ġkort ulo
Ġbiy yam
ash ekar
Ġprath in
anas abh
Ġyuddh a
Ġaf ter
Ġg adup
Ġvall aki
Ġedi tor
Ġp v
Ġk y
Ġvell adu
Ġvah anala
Ġvyavasth alo
Ġmam ulu
Ġp ud
Ġg upp
ist une
uv aina
Ġy er
Ġkshet r
Ġr ating
ist und
Ġkrman lone
an atmaka
Ġsth alanni
Ġsatur day
Ġprotsah isthundi
ul anta
Ġutt ej
Ġadig ithe
Ġlab di
Ġl ib
Ġpun arv
Ġmed adu
Ġret urn
Ġvidi ch
r ant
ot ti
Ġvyavah arinch
Ġn ow
Ġr ish
Ġsant akam
Ġm ake
Ġpal uk
Ġcheb utu
Ġchust unnaru
m o
Ġs atta
Ġdev alayam
Ġfil e
Ġcav alsin
al antu
Ġvidh analu
Ġpanchay ati
Ġcheya ga
Ġshil p
ch ima
Ġbh arinch
ug uru
inch agala
Ġjan yu
Ġip udu
Ġg att
Ġbh akti
Ġw rit
Ġsp eed
Ġkur ip
Ġsar panch
Ġram ach
Ġsec tion
th aru
Ġkan apad
Ġdash alavariga
Ġm ito
agal aru
Ġdep uty
Ġsamav esh
Ġuttam am
Ġk upp
Ġkr id
Ġparinam alu
v el
Ġh ayamlo
Ġparisth ithi
Ġakarshani yamaina
Ġgand arag
Ġa ga
Ġviv aran
Ġadhik ara
apa iki
Ġs or
Ġdrush yam
Ġch av
Ġpari man
Ġunt ayani
Ġprayoj anala
Ġvayas ulo
al amaina
al ake
Ġdig um
bad dh
Ġmodat isari
an anda
Ġt ank
Ġd anni
Ġot ami
Ġsom avaram
Ġmet ro
Ġvijay avanthanga
Ġnarasim h
Ġrajasth an
r alo
Ġdabb unu
Ġt avv
Ġl ep
Ġde f
Ġbad ulu
Ġsa w
Ġvinip istunnaayi
Ġmam ata
h ouse
ac y
Ġgh ana
Ġveg avantamaina
Ġprer ana
y ark
Ġas auk
Ġsand esam
Ġvari ga
Ġj anta
Ġfr ench
b u
Ġp eg
esh a
Ġgur uvu
Ġdiv ision
uk ont
it ic
Ġtapp aka
Ġsrik anth
Ġmedh assu
Ġfeat ure
Ġf ed
ett y
Ġpary avaranam
Ġs is
Ġsit aram
ak ulam
Ġf ast
Ġnadu m
Ġbrah man
Ġtarap una
th er
Ġmul t
ind u
Ġcher aru
Ġprati chary
Ġven aka
Ġnil up
Ġlekap ovadanto
Ġsantr ipt
Ġm it
Ġniv asam
Ġlas chima
Ġadup uloki
r at
end ram
Ġupayog inchabadutundi
Ġjod inchandi
Ġsoukary alu
Ġmaj or
Ġalav at
Ġenj oy
Ġd eeksha
Ġanubh avas
j iv
as epu
Ġudyog i
inchagal adu
Ġs f
Ġg eetha
Ġm ich
Ġko di
Ġsand adi
Ġfr ance
Ġpoy i
Ġparip alana
Ġchow d
Ġkh ata
Ġatmah aty
Ġas ia
Ġok adani
Ġcon c
Ġan uh
ab abu
Ġbatt ala
Ġvyat yas
bh avam
app ude
Ġaudi ence
Ġarud aina
Ġprofess or
s lo
Ġ6 4
ipot undi
Ġnaipun yalanu
Ġg ra
Ġches am
Ġlo ad
Ġar ab
Ġf ar
Ġip hone
Ġravite ja
Ġekk ado
Ġn iss
et ic
Ġvar dh
Ġcheb utundi
av utondi
Ġh on
Ġpett adu
Ġcheb utunna
Ġkes unu
Ġmatlad ina
ay e
Ġpost er
Ġkaryakram alanu
iv al
Ġr eb
er o
Ġma amsam
Ġsangh am
anal alo
g al
ut ondani
in unchi
Ġutt ama
Ġkendr anga
Ġch ukk
Ġan aly
Ġunt und
Ġkir anjanya
Ġrog anir
Ġfin ance
Ġvel ig
Ġen ergy
lu ga
Ġkal akalam
lo t
Ġf ash
Ġshail i
Ġpushkal anga
Ġj on
Ġrajyas abha
ah o
Ġokk ariki
Ġsy n
Ġk ey
p un
Ġund annaru
sth undi
Ġsharm ila
Ġ unchi
Ġpari v
idd am
Ġpan ulaku
Ġpratyek ata
Ġsneh am
Ġmodat lo
Ġnit in
ap ada
Ġsuk umar
Ġthagg inchadamlo
Ġt ension
Ġamm akalu
Ġter ich
Ġakup achcha
Ġdev alay
Ġdon ga
on am
Ġmar ee
Ġann ad
Ġarth ikanga
Ġpens ion
ik ata
Ġman oh
Ġpat inch
Ġpranth alu
Ġha ani
Ġadug upett
Ġsambandha anni
il ato
Ġlev ani
Ġnirud yog
al ing
ag ir
Ġin ella
Ġlaksh ya
Ġm ol
Ġem e
Ġmaga z
Ġnirlaksh yam
Ġrajakee yam
Ġhir olu
Ġthomm idhi
as y
Ġw icket
Ġaadh aar
Ġpib adine
Ġdo ch
Ġsury udu
Ġd ah
Ġdh anyam
Ġbhash allo
at ul
andh i
Ġvir at
arist aru
al eru
ullo ki
Ġkanip inchadam
Ġk ill
Ġad evidhanga
ikr ita
Ġbill ion
Ġpack age
Ġbhavish yat
Ġk athi
aru di
Ġches ukunnadu
Ġsam ikaran
Ġka avu
Ġbh eem
Ġsoc i
Ġdor uk
Ġupayogistam di
Ġcher uv
Ġmodala iah
Ġsen tim
Ġkeer thi
Ġraj ashekhar
Ġvich innam
Ġwats ap
Ġv ata
uku ga
Ġrang allo
Ġdagg am
Ġchutt up
ay annaru
Ġr ap
ukunn adi
Ġvall anu
__ __
adh ya
Ġcomb ination
Ġdocum ent
av ish
Ġsah aya
Ġkal ash
Ġchay alsi
Ġvishvas ani
Ġmo ham
Ġdh yanam
Ġpo ol
Ġny aya
Ġpeop le
Ġs att
Ġtan ani
Ġt aram
Ġbrahm in
Ġva ip
Ġgelich ina
Ġv unn
Ġk analu
ari ch
sh a
Ġdh arinch
Ġabhipr ayalu
ga p
Ġith arula
Ġbharat lo
Ġvin ay
Ġlabh alu
ukup ot
Ġf ib
Ġpo thu
Ġmah ab
Ġsamip amloni
it lo
Ġpaduth unnaru
Ġruch ik
Ġbu ild
Ġcours e
Ġe qu
Ġkal ag
Ġvish v
Ġva ir
di t
Ġjeev an
Ġse arch
ches in
ist arani
Ġmukhyam ainadi
Ġerp at
Ġbah ya
Ġvey yi
Ġkov v
Ġkar t
Ġsens or
Ġgurtunch ukondi
Ġjeev anas
Ġpal analo
Ġnaipun yalu
Ġpramadam lo
Ġpa wan
Ġfin anc
Ġkish an
Ġc ost
Ġprapanch aniki
Ġuparit alam
Ġran unna
Ġg atam
Ġkad ul
utund aga
Ġchus anu
arj un
Ġparyat aka
Ġreserv ations
Ġb id
Ġok ate
Ġass alu
Ġpath akalu
Ġj u
Ġm ok
Ġchitr ikarinch
Ġgod ava
Ġuts ava
Ġoohimch ukondi
c es
Ġv enu
Ġr andi
Ġarm y
Ġy e
Ġivv ali
up athi
ug ulu
Ġrak alu
Ġnad ap
avuth ondi
Ġsmartph one
Ġa har
Ġkur r
Ġdur m
Ġmir iy
Ġvilla in
Ġp le
Ġsrisht inchina
ur lu
Ġrog i
Ġsus th
ik ini
ang ula
Ġek eral
Ġter esa
Ġpush p
Ġcolo ur
Ġel ections
Ġnat inat
Ġmarik ondaru
kir anjanya
Ġh uz
oc chindi
Ġteer ch
Ġsrust istundi
o oth
ir uch
Ġkal anga
Ġne h
Ġtr ust
Ġsangh alu
Ġvig raham
Ġinth aku
Ġsam ithi
odh aka
Ġepp udo
Ġtop ic
Ġ100 0
Ġvar ala
Ġshashw ath
od aniki
Ġsh op
ers e
Ġsw ecch
Ġsw abhavam
imp unu
Ġno tification
Ġparishkarinch adam
w in
anam u
Ġdar unanga
Ġ ul
Ġk ri
Ġav utunna
Ġchadiv ina
Ġdes k
ud ha
istunn adi
k aramaina
Ġg umm
Ġh o
Ġsh a
Ġdis count
Ġsansth alaku
ath ula
Ġgel ip
Ê ¹
Ġr ich
Ġtr ad
Ġnirn ayanni
Ġson ta
Ġedurkont unna
ev ed
Ġvijay avantamaina
uc t
Ġsal man
inchabad atayi
Ġvelug uloki
Ġs ava
on ani
Ġvachch aka
Ġvyavasth alanu
Ġaav ishkarinch
Ġg ont
Ġf ees
Ġudrik t
Ġbr ows
Ġkav alante
Ġyuv akudu
Ġpramukh ulu
Ġnavv uthu
Ġbidd a
Ġasupatri lo
Ġprak asam
Ġrahas ya
g an
Ġgel upu
ikar anam
Ġsukr avaram
Ġsunnit maina
Ġb unny
Ġam ayak
Ġves avi
Ġchad avadam
Ġdook udu
Ġing land
Ġstre el
2 2
Ġm ayam
ud em
Ġdrug s
oth er
ivr ata
Ġprakat analu
Ġdur adr
er ation
os o
ay at
Ġad aya
akk ada
av ay
Ġpr op
Ġraj asekhar
Ġkarm ika
Ġchanipoy ina
Ġschedul ed
p s
Ġb ase
Ġches ukuntu
imch andi
Ġcr oss
Ġh ack
aram m
Ġkor s
iksh a
Ġuts aham
Ġches ukovalani
Ġman ast
Ġvish al
Ġmatl ade
Ġst eel
Ġte pp
Ġvir uch
Ġperk onna
Ġcer tific
p ri
ubl ic
Ġm aya
Ġsh ort
Ġmart ulaku
Ġw arm
Ġchus indi
Ġvim arsh
Ġth im
ind er
Ġpand ug
y e
li esh
Ġgam es
Ġprayog am
Ġkane esam
Ġj ust
iv aru
Ġmandi r
Ġsann ah
Ġvam shi
Ġdur ga
Ġret ri
Ġn inn
Ġenn ika
Ġkadu pu
Ġprashn alaku
ip ur
imch ina
Ġnind ina
ar allo
Ġb ott
alan opp
Ġpanichest unna
Ġviparit amaina
Ġb anis
anu s
Ġgat edadi
Ġnak ili
Ġpunar avar
Ġpat el
Ġkh am
Ġray adam
c il
Ġw om
ukunt anu
Ġviparit anga
Ġpett andi
Ġnirm inch
Ġsc ore
Ġma ari
Ġsamasy alaku
ak ara
Ġd ant
adani ke
Ġbhoom ipai
Ġbahir g
av acch
Ġadh isth
ipo indi
Ġsudhir la
eet a
Ġc up
Ġprant alanu
Ġupp agr
Ġvis vasam
Ġraksh inchadaniki
Ġd umm
ic in
Ġv ang
Ġse qu
Ġcy cle
Ġragh av
ag od
Ġkal ch
Ġme ch
Ġabh ish
Ġdig uva
m ad
x y
Ġv ecchi
und er
Ġis lam
Ġbhum ulu
Ġvar d
e arch
Ġchey alane
Ġbe ach
Ġtarun amlo
es in
Ġchest anani
Ġtan apai
Ġkalug utundi
Ġm utt
est unna
Ġang ikarinch
el ato
b adi
ar ah
ch esi
Ġach arya
Ġelectr onic
Ġsand eep
Ġsign al
Ġbudh avaram
Ġs ide
Ġb ord
Ġcheyabad atayi
Ġp illa
Ġb ai
Ġsh ri
ect ive
Ġp it
Ġr ee
Ġabh iruch
imch enduku
Ġemp e
Ġcharg e
ar atri
Ġg ate
Ġadig ina
Ġing liesh
Ġantar ayam
Ġthees ukondi
Ġprapancham loni
y t
Ġmukhyamantri ga
Ġkendr aniki
ev u
anal oni
ass unu
evi ous
pl ay
d s
Ġvir g
Ġtan adaina
Ġsh aik
ayi ga
Ġkonasag utunna
ram e
Ġkot lu
Ġpatr alanu
d ev
Ġmup pu
Ġm arug
Ġt atv
Ġres earch
Ġchlor op
Ġpond utaru
Ġanum analu
Ġnadu p
Ġvol unte
Ġchandr ashekar
Ġfi eld
Ġkarth ik
Ġsap eksh
Ġmahill aku
Ġchowd ary
ar nu
Ġbhag alu
Ġjill aku
Ġmun ch
Ġp uni
av anth
Ġl anch
are era
Ġm aku
ak att
Ġt ecchi
Ġpr iya
Ġsa il
Ġmarch ip
Ġchend utunna
Ġchup utundi
inchuk oni
Ġgul abi
Ġvisip y
Ġb eema
ap anch
Ġnig ha
Ġkal ashala
g aru
h e
Ġpr evious
Ġmedi um
Ġasp atr
Ġneel am
Ġupash amanam
Ġprarambh inchadaniki
Ġedur uga
apaduth unnaru
Ġprashans alu
Ġvy aty
Ġsw ar
avas th
Ġnew yark
ull i
Ġmarch e
g alu
Ġchey ani
Ġaarog yaniki
Ġpod avu
Ġdig gaz
Ġmadiriga ane
y o
Ġ20 00
Ġnamun alu
Ġret ail
Ġdes alaku
Ġrun am
Ġwork ing
Ġceleb r
Ġn rit
Ġsy areera
Ġkat ina
Ġvyaty asam
ad evi
Ġem o
Ġsamvats ara
Ġmur ali
Ġgiri jana
Ġcolpo en
ak ulanu
Ġlaksh yanni
Ġrag ane
di k
Ġprash anth
Ġcheb ite
Ġnirnay incharu
Ġmay or
ric t
Ġs ulu
m er
Ġint ini
Ġnet a
j ee
Ġvel adi
Ġkutumb alaku
udd in
Ġsr idevi
Ġabhinand ana
Ġt att
Ġmam idi
m ika
Ġsaram s
avir us
Ġvast u
utunn ayani
Ġdig ina
Ġsrik akulam
at el
Ġbhag anni
Ġsty le
inch evaru
Ġh ous
Ġorig inal
Ġ6 00
Ġprash anthanga
Ġanubh ut
Ġvist arinch
Ġst ambh
Ġregistr ation
ul ap
Ġh arik
all am
Ġash ir
Ġchestunn anu
Ġveed hi
Ġchey anunnaru
Ġar tificial
Ġut k
Ġpraj apr
Ġvim uk
Ġsett ing
Ġjav ab
Ġcontra ct
ma a
ches ina
Ġcham uru
oso ft
ag h
Ġner am
Ġsain yam
Ġkavit vam
alo k
Ġpadh e
Ġunn attu
Ġengine er
2 5
Ġvar anta
Ġsah od
Ġpan ula
Ġgant allo
Ġyerp aduthundi
Ġk ula
iv er
Ġth er
Ġmar ayi
Ġnamun alanu
Ġk itt
ap ar
Ġkal av
Ġchakk ani
Ġvyavah ar
Ġbab y
Ġsreem athi
Ġch h
abh ipr
Ġrom antic
Ġchepp u
ukunn appudu
Ġchur ukuga
Ġves e
Ġsyareera aniki
Ġsh ant
Ġmah arshi
Ġvecch ani
v ish
Ġs ind
Ġk un
Ġcar on
Ġpolic y
Ġdaksh in
Ġp ichi
Ġat l
Ġpo the
Ġves ukuni
ok ati
Ġinstit ute
Ġgandarag ol
Ġpraj ekt
Ġist amani
laksh ala
Ġvidh analanu
Ġpod d
Ġtis uku
apt op
Ġviram am
Ġsoni a
Ġcher i
ass ulo
e ela
ag ano
Ġpar oksh
Ġprem anu
Ġcharg es
Ġkem er
p t
av utunnayi
adh arit
ukov atam
poy aru
Ġadd ank
ag adda
Ġmarok ati
Ġvipl avam
Ġasaktik aranga
Ġplatform s
v alla
il onu
ey adaniki
Ġtu fan
Ġanuk oni
Ġbhaj pa
y ank
Ġh anum
Ġtagg ina
Ġthisuk occh
Ġunch adaniki
Ġkasht apadi
2 4
or a
Ġsev ala
Ġbag und
Ġsamo oham
Ġdad ap
Ġtim es
ag i
Ġh ow
Ġter a
Ġgopp aga
w am
Ġpant alu
Ġhakk ulu
Ġp d
at alaku
Ġb ari
Ġsh anthi
hi ch
Ġsankl ishtamaina
th ondi
Ġo h
Ġret ir
Ġretri eved
1 3
Ġt ask
ay alaku
Ġav utunnayi
st ar
Ġvi ac
Ġcommunic ate
alam b
Ġil la
Ġmud ra
Ġnirnay inchindi
arim chi
ab andh
st e
Ġvari ant
Ġrun alu
ar wal
ak aran
Ġr en
ol p
Ġgr uha
et al
Ġlekap oyina
Ġgadu vu
j u
Ġbi opic
Ġj odi
Ġvid hi
Ġok kar
m as
Ġr adu
Ġspasht ata
Ġentertain ment
Ġher ol
Ġtar ang
Ġmadh yam
Ġela ga
Ġmoth anga
Ġme h
Ġarav ind
Ġlaksh anam
Ġadhyaksh ulu
Ġva ish
Ġtag s
Ġprati di
k anga
Ġmadh yap
Ġpanich esaru
Ġfash ion
Ġtel ch
Ġto h
Ġnasht alu
b as
Ġunn adani
Ġram g
Ġsel av
Ġchakk ati
avan tham
Ġnamm ak
Ġprotsah incadaniki
Ġamb ed
Ġkhat alo
Ġkantent nu
Ġsava al
Ġay ur
Ġthapp adu
Ġkharch uto
Ġedi t
Ġmarp ula
Ġw est
Ġchur ch
Ġpop ular
Ġh ani
Ġy ash
ukunn am
Ġvisw avidyalayam
w aj
y ath
Ġsth anallo
Ġalo c
Ġprachur yam
b c
ud di
ukunt ondi
Ġikk ad
Ġclo ud
Ġm inchina
Ġah med
Ġr ose
Ġb ond
Ġvast ava
Ġop tion
Ġart ist
Ġsir is
asthayi lo
Ġantim anga
Ġm ith
Ġt os
abh im
est o
Ġchood alani
Ġclu b
Ġdadap uga
Ġc iv
Ġraj esh
Ġepis ode
Ġsinim apai
Ġthees uk
Ġvenk ates
Ġbahir ang
Ġvine yog
and ali
Ġtan aki
Ġg rih
Ġl aptop
Ġmark ulu
Ġd avid
and er
Ġrav ali
anik anth
Ġmina ha
Ġbh ug
Ġsw ath
Ġnep adhyam
l em
Ġp ada
Ġd eeksh
it ri
Ġa akulu
Ġche th
adi y
Ġkan uk
Ġwh at
n anni
al and
ed anni
Ġund evi
Ġint alo
Ġcongr es
inat le
Ġlink s
Ġs ik
Ġsh ani
os is
Ġag ent
Ġparisthit ula
up t
Ġprat id
Ġpedu th
Ġrajki yanga
ed di
Ġpell iki
Ġutpatt ula
Ġsig g
unn ar
Ġtagg adam
Ġperig e
Ġm umm
Ġb ant
Ġsh ekhar
w ala
Ġpat ak
Ġvis sar
che pp
Ġcheb utondi
il on
Ġs aruk
Ġsr im
Ġench ukunna
Ġsep u
Ġvik as
Ġshak thi
ath anga
Ġsub s
Ġt ot
Ġadd am
s m
um di
Ġsar asw
Ġdr ess
Ġshock ing
Ġsamvatsaralu ga
ama ite
ush ti
Ġiv ey
ber t
Ġpariksh ala
Ġjav abu
Ġvad analu
Ġot la
arika ina
Ġarog yanga
ut anu
Ġaty utt
Ġtra c
Ġh ung
akh and
Ġprem alo
Ġkul al
Ġs ta
Ġa uth
Ġed uc
Ġanuvart anam
Ġv addu
Ġg utt
Ġsth itini
Ġind ukosam
Ġabb ay
Ġmottamod ati
Ġpuni chesin
ay ane
Ġo ly
Ġnat istunnaru
Ġpatr ala
Ġvyavasth ala
Ġsod ari
d ar
Ġmus e
l en
Ġsr ikr
Ġsod ara
Ġd ati
ukunt a
Ġrel i
Ġm avo
o un
s el
Ġin j
Ġdig i
Ġ25 0
Ġsow m
Ġt end
Ġsamaj aniki
Ġjeevit amlo
aksh amlo
Ġte ka
Ġanubh uti
Ġmug icin
Ġprathip aksha
c a
Ġw hich
inapp ati
aksh anga
Ġgud lu
Ġsalah alu
Ġk oll
Ġy eh
Ġlo tu
Ġchitr allo
Ġasakt ikar
Ġmess age
th y
Ġb ots
Ġi b
Ġcher ukunna
Ġapp atiki
Ġtt d
u x
in attuga
Ġt ish
Ġay ane
Ġunn ayi
Ġvin na
Ġaloch anal
Ġkshet ram
Ġka abatti
Ġith arulaku
Ġtdp k
at alo
Ġparishram ala
Ġch ocol
ari sh
Ġmo ola
Ġjarig i
Ġc ondi
Ġy antram
Ġtr y
alan ukunte
Ġnit ito
Ġdarakh ast
Ġa way
Ġhajar ayyaru
Ġs age
id aka
Ġ uth
en ni
Ġan ukunte
Ġniv aran
v o
Ġpray ana
Ġint r
Ġpatr allo
Ġadd e
ad ala
Ġmicr osoft
Ġe ch
Ġmar an
Ġmantri ga
Ġparishram alu
Ġund adanto
Ġab d
achchi th
Ġch alla
Ġchit kalu
Ġchitr anto
Ġchesuk un
Ġcommun ity
Ġbom ma
Ġtagg utundi
Ġdig aru
Ġor d
Ġraksh as
Ġambed kar
Ġn ill
Ġr asam
ana anni
Ġrak ul
Ġupayogap aduthundi
Ġk omm
uk ain
Ġsend riya
Ġhect ar
og en
Ġaav edana
k r
Ġp am
Ġg ard
ur iki
Ġtaksh ana
Ġrupakalp ana
ic es
ec ut
ind ane
Ġco ach
Ġ200 4
Ġv unnayi
Ġb arilo
Ġan the
ukh i
int aga
Ġpond andi
Ġcheb utunnayi
v es
Ġb ible
Ġmi x
Ġpack ag
Ġbhav alanu
Ġpond e
Ġcoron avirus
Ġend aro
Ġag ra
Ġasakti ga
el t
ut ta
Ġak as
Ġnim itham
Ġvyapar anni
Ġvest unnaru
Ġench ukovadam
s is
Ġled annaru
Ġag ni
asth alam
Ġsrin u
arap radesh
ai di
Ġbhav inchi
Ġtelus ukondi
Ġb ali
ga j
ara ina
Ġvish am
Ġindi alo
Ġveg avantam
Ġoper ating
Ġnaalu gu
ar adu
Ġman ak
ots av
Ġmandalam loni
am ah
Ġlaksh yalu
Ġvif al
uk ogal
rap r
Ġdus uk
Ġvast und
Ġpadav iki
Ġmarok aru
Ġatyadh ikanga
off ice
Ġsangh ala
Ġvist arinchi
Ġconf erence
Ġadrust am
ath iki
Ġmar ri
Ġgr up
Ġdeen ito
Ġchell impu
Ġadig aru
ag ad
Ġavas aranni
in att
Ġk ra
Ġviv idh
Ġ8 5
Ġparinam alanu
in ada
Ġs andi
Ġak ali
Ġsuch ana
lon y
Ġnor th
Ġto wn
Ġvyakt ulanu
Ġsek arana
Ġrem ote
Ġchuttup akkala
Ġr ub
Ġkonasag utondi
Ġte en
Ġpatt ub
Ġag rah
our s
esw aram
Ġruchik armaina
Ġad ayanni
Ġdi kk
Ġaah v
al enu
av utunnaru
Ġabhipray apaddaru
Ġchey inch
Ġtr ade
Ġpary avas
Ġvyaktig atamga
Ġpurog atini
Ġfound ation
Ġm onn
ic ations
Ġadbhut a
Ġsag indi
a iki
av addani
ic tion
agal ara
Ġkul am
Ġsambhash ana
Ġputtinar oju
Ġraj anikanth
Ġcheyadam e
Ġrashtr alaku
Ġkov vu
Ġches amani
Ġsr idhar
Ġkutumb anni
Ġsarf ar
Ġsuraksh itamaina
Ġdi ab
Ġkh ani
Ġvel ikit
Ġprajaswam ya
Ġparim ith
Ġaward s
t v
Ġm udu
Ġg ow
Ġche yamani
Ġw ine
Ġpad ey
Ġkar unu
Ġap k
Ġvaik hari
Ġpr ob
ap analu
Ġa ada
ash akti
Ġmadh ur
Ġvidh anamlo
Ġsari r
tic y
h ic
Ġvidh ulu
Ġkendr alu
Ġsek arinchina
Ġfiry ad
Ġtelusuk undam
Ġpr inc
Ġh all
Ġad il
Ġdi ffer
Ġsag utondi
Ġz one
tel ugu
Ġan ek
ach e
ett a
Ġempical on
Ġkanug ont
Ġnidh ula
Ġcle ar
Ġcr ime
Ġbhash alo
Ġsamsk aran
ist ondani
Ġparish ubh
Ġanand anni
Ġupayoga pad
Ġavishk arana
en ge
Ġvyap t
Ġkan ab
Ġlekk alu
Ġantek aka
Ġphotol on
b all
Ġch app
Ġdesh anni
Ġp ok
adi lo
Ġgur u
Ġtatkal ika
im s
Ġkor utu
Ġj antu
Ġvaid yas
Ġmad yalo
Ġ imm
Ġc la
Ġemp ele
Ġvey andi
Ġvaaram lo
Ġjarip ina
Ġt ene
Ġtelus ukunna
Ġcharch aniyam
Ġadhikar ulato
th ulu
ik ato
Ġjan agan
Ġvil inam
r ita
alan ukuntunn
Ġpariganimch andi
ya ga
iti ga
Ġterakekk ina
Ġt urn
Ġsamm el
Ġcheppukochch aru
b atu
o ki
v v
Ġm ala
Ġch id
Ġb een
adh ip
Ġd g
Ġtagg inch
Ġacadem y
c or
Ġh um
Ġcon tain
arup am
inchin attu
ul ake
en tha
Ġav anni
Ġvil lu
Ġsrinivas arao
an loni
Ġan avas
Ġsh iva
Ġse at
av es
Ġj irn
Ġav utayi
Ġchest undani
Ġunn avaru
Ġandist unnaru
ip ar
Ġsh eet
Ġvijay as
Ġpranth aniki
Ġoc t
uv ulaku
Ġpol l
av all
Ġan asu
Ġcharitr anu
Ġbact eria
Ġs er
Ġc ad
Ġc pi
ov a
Ġay ipoyindi
Ġvijay alu
Ġsandarbh am
Ġjanagan ana
Ġv antu
Ġchepp avachchu
Ġunch am
Ġgir l
m ission
Ġsp r
ard r
Ġnalug o
Ġrespons e
Ġlop ali
Ġsannivesh alu
l ak
Ġnirm ulan
Ġvist arana
Ġsamp oor
Ġsrik aram
an ula
Ġvad akam
Ġrep ublic
Ġnan yamaina
Ġnished ham
g ant
un iti
Ġj h
Ġpat anam
Ġga p
Ġnasht ap
istunn am
ukun ela
ne ws
Ġchandrabab un
Ġreserv e
Ġwash ing
Ġe ar
Ġf arm
Ġpun arn
Ġenth agano
Ġest ate
Ġtalu pu
Ġg erm
Ġpatr aku
Ġprath ipad
Ġshare era
Ġnayak ula
ukov adanto
Ġprabhutv ampai
Ġkalig indi
Ġchary ala
Ġjant uvulu
Ġnyayam urthy
Ġcharg ing
Ġpanichey adaniki
Ġth om
Ġpog ott
Ġtel ga
Ġnad aka
Ġprem ium
Ġcr ee
Ġanip inch
Ġades inchindi
anir d
Ġsut ram
ach al
Ġdi m
Ġsari pothundi
Ġk uch
ari es
Ġbhav incharu
alan ukune
Ġsav e
Ġpemp udu
Ġkas epu
Ġcal ories
Ġfit ness
unt u
Ġchup incharu
arist u
Ġadig indi
Ġphalit ala
Ġjeet am
Ġkaran alanu
Ġkudi r
Ġmr ud
Ġdevelop ment
Ġbahirg atham
ar h
ud alla
Ġash imchina
Ġfriend s
Ġabh iv
Ġsentim ent
Ġp ind
Ġg um
and arini
asth e
Ġem b
Ġsadh incharu
Ġpranth anni
Ġpradesh amlo
Ġkobb ari
z er
ad in
ina gar
ash akha
Ġkud ur
Ġ200 6
r ess
ar angam
ukunn arani
Ġnetrit vam
Ġav ir
Ġsar as
Ġtelus ukovadam
Ġ aru
Ġgram ala
Ġelectr on
Ġvyat irek
Ġpilupuni charu
Ġnidarsh anam
ad ik
Ġv eeksh
Ġsam aya
Ġre ch
Ġind ex
Ġbrah ma
Ġprat isari
Ġsthay ilanu
Ġperag adaniki
ad ina
Ġbhay ank
Ġsamsth aku
Ġdist rict
el i
ace ae
at le
Ġsam aik
ind ra
ell e
Ġbandh am
Ġnibandh analanu
Ġs odh
atr ika
Ġc ali
Ġmudd u
Ġme er
Ġsw as
Ġaga in
ev araku
Ġlek unte
Ġbl ag
Ġright s
Ġm onna
ul es
esh wara
Ġsoukary avantamaina
Ġvaiv idhy
Ġshas n
Ġve chi
Ġde ad
Ġha ir
Ġc ake
Ġj y
akal anga
Ġghan ata
Ġsam ana
bh ag
Ġchel are
at ani
Ġt ivrata
Ġn ath
Ġcher ukundi
Ġniv ed
Ġr ut
ir it
Ġman assu
Ġprav esham
Ġrayalas eema
ut ayani
Ġshareera anni
ad ata
Ġpr ang
Ġtw ist
Ġmanush ulu
Ġj og
Ġunit es
Ġbharati y
lish ta
Ġroganir odhaka
id s
ati ga
Ġpad atam
Ġbr o
Ġsudh eer
Ġkan p
Ġref r
Ġl ike
Ġav aman
ipp ing
pri yamaina
ett ina
Ġbho ug
p adi
ist ara
Ġsadh imchindi
Ġpench e
Ġsadup ayalu
Ġmanug ada
ul andariki
Ġg st
Ġj c
Ġaash alu
Ġbutt on
in ate
Ġw r
ill s
Ġunn am
Ġsansth alo
Ġvenkat eshwar
Ġviniyogadar ulanu
Ġadhisth anam
Ġt arig
imp aj
Ġkalp istundi
Ġvenk ata
Ġanubhav imch
r athanu
Ġbhav analu
Ġnav een
Ġnipun ula
Ġj ama
Ġin form
Ġshakti ga
Ġmantr itva
Ġtel ec
Ġnirvah inchi
Ġabhy asam
Ġreli ance
Ġb ac
Ġi as
Ġpond aru
Ġdani lo
Ġneg ative
Ġsank lishta
Ġsadh anam
Ġview s
ch andr
Ġj osh
Ġf an
apurv akanga
Ġmah an
rap arach
Ġmanch am
Ġmaddat uga
ak alo
Ġar ach
Ġenn adu
Ġdir ection
Ġraj eev
alas i
Ġpun ah
Ġs s
Ġr ow
Ġtam anna
Ġdruv ikr
Ġsankshobh am
Ġv adh
Ġvel la
Ġac tor
Ġpag es
Ġv ina
ir y
ots ava
Ġvich aranaku
Ġtann ula
Ġveg anto
Ġdat ing
inc ina
Ġmug is
Ġjaganmohan reddy
6 0
Ġs ome
ag ue
ti ga
att aru
Ġant ardr
Ġw ave
Ġak asam
umb ers
Ġsamay allo
Ġuttarv ulu
Ġsam r
Ġaty unn
Ġgerm any
er jee
Ġth ond
Ġrend usarlu
Ġvishlesh akulu
Ġdv ip
Ġkal aniki
Ġvell ipoth
Ġdash alu
Ġsam anam
ish th
Ġtel iste
Ġchepp alani
Ġvel lu
Ġint egr
Ġsach in
Ġs qu
Ġut c
Ġvah inchina
Ġvide on
Ġsabhy ulaku
Ġgan uka
Ġvyarth alanu
Ġv uha
Ġn ayam
Ġo dish
Ġnirm istunnaru
Ġpand u
Ġnibandh anal
Ġh ayiga
Ġad aran
Ġpo ota
Ġmadh av
Ġint avaraku
udd ini
Ġved ini
Ġgadi ch
ag n
Ġpatt ukoni
Ġmug imp
Ġudaharan alu
Ġvyuh alanu
Ġt ake
Ġw all
Ġprastut aniki
Ġkutumb alu
Ġbus y
Ġviruch ukup
2 3
Ġennik alu
Ġcheya alo
Ġkalap ali
Ġparisodh akulu
Ġshasn asabha
Ġma c
Ġer ra
Ġro ut
Ġall ah
id o
Ġcher ukunnaru
Ġhrud ayam
Ġec onom
Ġanksh alu
Ġj io
unna anu
Ġtel ev
Ġyu g
Ġthir manam
Ġrec ent
Ġpos i
an ki
ul andaru
Ġsh ip
Ġsh ataniki
Ġte ja
Ġnirvah istaru
Ġsahay anto
Ġbag untundi
Ġparidh i
Ġmatch lo
Ġchinn ari
Ġvyas alu
us thundi
Ġmam uluga
inchagal avu
Ġprogramm ing
ud ram
ur ance
iv et
Ġf ut
Ġudyam a
Ġch ill
Ġnilich ina
Ġsamathul yatanu
Ġd anam
Ġsw eet
Ġkar ulo
Ġang la
arik am
Ġnil uv
Ġ arik
Ġv itiki
Ġr ot
ig e
lad esh
Ġdad iki
Ġconn ection
ug ga
Ġag arwal
Ġex press
annam ata
Ġbell am
Ġasantr ipti
Ġh ist
Ġpad e
Ġtay arav
inchabad d
Ġmishram anni
Ġpariv art
ev ari
esh adu
Ġvist rut
Ġabhiman ulaku
Ġradi o
es p
il alo
Ġl akk
Ġtisuk ochch
Ġpath akanni
Ġwarm ing
Ġk adh
ath uga
Ġnaksh atr
Ġhani kar
Ġr al
Ġev arikaina
Ġtir askarinch
Ġkanip istunnaayi
Ġpurt isth
Ġlib r
ist anani
Ġpett ukunna
Ġbank ing
Ġl ee
Ġantariksh a
Ġmadhyap radesh
Ġc et
im i
Ġve th
Ġnany atanu
Ġch ap
Ġg y
Ġ9 5
Ġp ump
Ġch eti
Ġpari haram
Ġak anksh
Ġvyaktig atic
av yaptanga
Ġlo cal
Ġprak hy
Ġint lone
Ġn umbers
Ġe ck
et e
Ġmar intaga
imp ula
Ġdarsh akudiga
Ġmrit ade
Ġnaga babu
Ġloth uga
Ġnirm istunna
Ġvachch indi
Ġpaduth unna
Ġsecret ary
Ġf oc
Ġna at
Ġsr av
Ġel ection
inchuk un
Ġsudh akar
Ġmarut unna
Ġsath yam
Ġpat uga
Ġperug utayi
Ġkaranam ani
Ġram an
Ġpratyek inchi
Ġparam anu
atl edu
g ur
k ort
Ġgiri jan
Ġprajapr atin
Ġt one
abad da
ukunn atlu
Ġbuj ji
and e
Ġh em
Ġthe ir
Ġsandes anni
al ek
Ġpad ite
Ġmas ala
Ġdh arimchi
Ġautom atic
Ġm uh
Ġchest une
Ġann oun
Ġvidh vam
Ġpratinidh ulu
Ġaspatri lo
Ġv asth
Ġpraj ad
Ġnirvah akulu
Ġtol iv
Ġret l
Ġcheyy i
Ġsannah alu
ep ai
Ġnirm anamlo
Ġcam er
Ġsaj eev
Ġpat ram
Ġhuz ur
Ġchary alaku
Ġme th
Ġprayog alu
Ġneojakavar ga
an loki
en es
all alo
ev e
Ġvitt analu
im at
Ġna an
Ġtelus ukov
al ity
Ġk rith
Ġr abot
Ġvel upalli
Ġkanip inchadu
Ġrak tha
Ġrach a
Ġmug isindi
Ġoff ers
Ġanduv alana
Ġdialogu e
Ġkr istu
Ġchend aru
ipot ayi
Ġb old
Ġsanket alu
Ġprarambham avuthundi
Ġasauk ary
Ġabhyarth iga
Ġsarv is
Ġuddesh yam
Ġstart up
Ġp ovadam
iy ar
oth u
Ġparisthit ulalo
rah man
Ġkall aku
4 0
v anni
in ka
Ġtagg inche
8 0
z z
ant aga
Ġchatt alu
Ġkanip inchina
Ġinterview lo
r ala
ey alani
Ġvas ati
Ġhr s
Ġkanugon andi
Ġgop yata
p alli
Ġprabhav avantamaina
Ġokati ga
Ġsay s
Ġcont in
ya an
ov adaniki
Ġpett ukoni
ak ta
ey ali
Ġkath ala
Ġprakat analo
Ġha asan
Ġrajy angam
Ġtel chi
Ġani m
Ġter ichi
Ġneraver ch
Ġh ol
Ġdi dd
Ġdin otsavam
Ġergat uku
Ġjarugut umdani
Ġc ond
ella ga
Ġabhiman ula
Ġt s
Ġpray anist
Ġram akrishn
i er
v ir
Ġtarag at
v amlo
lo ga
Ġkh and
Ġtom ato
Ġches evaru
end uke
Ġar ag
ain anta
Ġr abad
ich and
Ġdash ala
Ġdat ab
Ġbox office
Ġpad ma
Ġsang rah
Ġswag atham
en ga
ap ote
Ġchep alu
Ġsari pot
Ġjeevit aniki
Ġjay al
Ġb ash
Ġkut ami
Ġchad arapu
Ġyaj am
Ġclass ic
Ġum a
Ġd eh
Ġnag arik
Ġrashtr anni
Ġconc ept
Ġc b
Ġj utt
il es
Ġnam asthe
imch e
Ġsat yam
gap ore
in undi
Ġpar adars
Ġpat ti
av yam
int lo
Ġnagar aniki
Ġmak ers
Ġsarih addu
Ġshastr avetta
Ġdiffer ent
Ġt eep
Ġn r
Ġdes alalo
er ga
onn ata
Ġanch or
ch al
Ġstor age
Ġjant uvula
Ġe etal
ap etti
Ġsam ikaranam
Ġbhav istaru
Ġoop iri
Ġoly mp
Ġkaryakram ala
Ġpranal ikalu
Ġveed h
Ġtoliv elugu
Ġg lam
Ġnir akarinch
Ġtar abadi
Ġtelug un
Ġanuk ondi
Ġsif arus
Ġkhare edaina
Ġk atti
Ġk ej
Ġb ra
Ġd eng
Ġviac esar
Ġr ekk
et ram
Ġped alaku
Ġgreen house
Ġsid dip
Ġr s
ab les
Ġo dd
Ġsr iv
Ġgala xy
uk undam
od yam
Ġchus ukondi
Ġpravesh a
Ġchain alo
Ġan ati
Ġman oj
Ġsw alp
Ġs imp
Ġches ukunte
ee lo
Ġven na
Ġvyakt ulaku
Ġparisthiti lo
Ġgurth uku
Ġterkekk utunna
Ġsoci ety
ac tion
Ġbull et
ag uji
Ġvell ada
Ġchet iki
Ġbang ladesh
Ġmoh amm
Ġm upp
aj iv
unt ai
Ġ8 00
Ġvijay aniki
Ġvip u
Ġidd ariki
Ġperig ayi
v ed
Ġmari poyindi
Ġdi p
avas am
Ġist u
Ġdriv ers
Ġksham apanalu
Ġst adi
Ġtelik apati
ani p
Ġh et
Ġkh ari
Ġrak anga
Ġgl ass
Ġfinanc ial
Ġsam akshamlo
Ġchepp inatlu
Ġhe at
n ala
Ġk odu
Ġsam me
ti ck
Ġanum athulu
Ġvyathirek ata
Ġatyutt ama
Ġswee y
Ġlead ers
ul ai
Ġant adu
Ġvish adam
Ġdh aralanu
Ġrele as
Ġfl ash
Ġasth ulu
Ġm ondi
ab da
Ġg os
Ġin jan
Ġal ex
Ġyo uth
Ġcommun ist
Ġaut on
Ġcard s
bo ard
Ġvistrut amaina
Ġs ell
aku mar
Ġbh ram
Ġchest amu
Ġraj ani
Ġkh achchith
Ġtr e
Ġcharch aku
Ġvyaktigatic arinchina
Ġad igi
ug aru
Ġnamm uth
v alu
y alato
Ġm aramm
inch alane
Ġpurush ulu
it u
Ġbh uvan
Ġpat an
Ġanubhav alanu
Ġkaryakalap ala
Ġvai bhav
imp ulaku
Ġbots a
Ġvineyog anni
Ġs odhana
ana ina
Ġno ti
Ġeng land
Ġrek ett
Ġparikar alanu
Ġvar aniki
Ġsav allu
Ġasup atriki
Ġn ame
Ġb ul
Ġvast aru
tim p
Ġpariksh a
Ġrash mika
Ġch art
Ġb cc
Ġat adini
Ġnidh ulanu
Ġmett aga
w ord
ev ar
Ġchest arani
Ġev ar
Ġist unnaru
Ġperug utondi
unn u
Ġpost s
Ġkort uku
Ġthatt ukol
uv y
Ġrend ent
Ġsin gapore
Ġvell anu
Ġelaga ina
Ġkhani j
d as
Ġparish ad
Ġmerug ga
Ġswat ant
Ġkar un
Ġann ayya
Ġjan vari
Ġgad di
Ġaav iri
arl edu
ik udu
Ġl ad
Ġnar endram
Ġvarg ikarinch
Ġnadi che
Ġatag allu
al anga
Ġbr ath
Ġcher ukovadaniki
Ġneth alaku
ipp udu
Ġtal ent
Ġcommitt ees
uk og
id di
ka iah
Ġcomm on
Ġpond up
Ġmin or
Ġsc enes
h alo
Ġkalu st
or i
Ġbhar ata
Ġex ecut
Ġadr usht
Ġpla ce
Ġbh ale
Ġev o
Ġvidh amaina
Ġher ole
Ġchestunn ama
Ġsambhav istundi
Ġmid aku
Ġveduk alu
Ġparishkar alanu
Ġcondi tion
Ġa ik
Ġche k
Ġth ere
att am
Ġkal akar
Ġprarambh amaina
Ġvidy uttu
Ġyo ch
Ġdesam lone
Ġmunicipal ity
Ġkalay ika
Ġhanikar mine
Ġprakat inch
Ġsangh arsh
inchuk undi
Ġcoun cil
Ġm op
Ġd an
ik osam
Ġj ala
Ġj im
Ġpad ala
Ġrecy cling
Ġp ull
Ġk enn
ag ol
ast ri
arth i
aduth unna
Ġalas yanga
Ġcp m
Ġj arg
ol s
u ce
Ġsh am
Ġsadh aranam
Ġpm k
Ġeng lish
Ġbhakt ula
Ġt alam
Ġg ift
Ġok at
Ġr ation
Ġpraj as
Ġkutumb amlo
Ġvall ani
b ack
Ġt ut
Ġnid hi
Ġkumbh ak
Ġpr ana
Ġgur inchina
Ġvijay avad
Ġvima anas
Ġpaathasalas o
Ġghatan apai
z e
inchin appatiki
Ġprach ina
Ġprac tices
Ġbh eema
Ġpa ine
ipot unna
p adam
Ġches inattu
Ġipp udi
Ġ6 7
Ġdepos it
Ġvid es
dh i
Ġrup ayala
inand una
ardh an
Ġch arma
ik aram
sh am
Ġsh asw
Ġlakshm in
Ġfoc us
k at
Ġs esh
Ġk ana
Ġ19 0
Ġot am
Ġcr y
Ġmaru s
Ġgener ate
Ġavas arala
Ġapp ly
Ġpariraksh ana
Ġoptim ize
Ġr bi
Ġin sp
Ġlu ck
Ġsh uddhi
Ġjeev a
Ġvis ual
Ġpadav ulu
Ġtaksh aname
oth ondi
Ġmaranimch aru
Ġvolunte ers
k ala
ath ala
Ġme ede
Ġsc or
Ġkish or
ov y
Ġav alamb
Ġvijay avantham
Ġpanichest ayi
Ġugr avad
Ġge or
Ġl ady
mch aru
Ġsc ene
Ġpedu thundi
Ġmuse um
lo ck
Ġth es
Ġapp ulu
Ġnirvah inchandi
Ġkalis ina
Ġaid uguru
apr asad
inchal edani
Ġset s
Ġins urance
Ġboy apati
h anni
v eda
uk und
Ġpad ardh
Ġviv arala
Ġvell andi
Ġ12 0
Ġsamachar anto
Ġspo on
av alla
Ġr atn
Ġbhag angane
olog ies
em it
Ġayy aka
Ġabhyarth ula
Ġsad al
Ġbrit on
Ġdigum ati
ar ta
am am
Ġp ata
Ġs erial
Ġem ina
Ġlabh inche
Ġsabhy ulatho
Ġdemand s
Ġact iv
b el
ch a
Ġd alitha
Ġchey ali
Ġsp ain
Ġanuk okunda
Ġsav aran
Ġsahod yog
Ġp ong
Ġp ick
Ġk anal
ig ur
Ġman alo
Ġtayaru ch
Ġbhadr atanu
Ġchakravarth y
x ic
Ġe ast
ol lu
Ġy ella
aksh ana
Ġupayog inchina
Ġreg ister
Ġmaj hi
Ġnirmana anni
ad ur
ak at
Ġcollector s
Ġshat abd
Ġksham inchandi
Ġt and
Ġnat ural
Ġkum m
Ġent ante
Ġvag d
ch aran
Ġs ivas
Ġk ari
as nu
uk okunda
Ġchey ataniki
anth ara
Ġpatt anamlo
Ġcheyy adam
p att
Ġth o
est ondi
Ġsadh imchi
Ġvah analanu
Ġnirnay aniki
ad anna
als ind
Ġ7 2
Ġthis ukovachu
Ġbhash anu
Ġpolch andi
Ġ asht
Ġw ell
Ġchest und
Ġsw arg
istunn amu
Ġudyog ala
Ġmodi ki
adar ula
Ġmanav ulu
Ġbhav am
Ġkri tham
Ġuppagr atalu
Ġund evaru
Ġviv aha
Ġsag at
Ġsel avu
Ġyog i
aku diki
ip udi
Ġdi mp
Ġvach aru
Ġbe g
Ġhel ic
Ġpaint ing
Ġbari loki
Ġs atam
Ġthisuk ondi
Ġabhipr ayalanu
Ġnyay avadi
Ġs itt
Ġm ast
ya c
Ġkor atala
Ġnirodh aka
Ġparisodh analu
Ġdra w
Ġad ir
iti ya
Ġjamm u
Ġkriy ash
Ġc at
Ġtel ep
ali lo
Ġar s
Ġkon am
Ġsadh inchadam
Ġniz ayi
Ġpalg oni
Ġs ani
Ġrend avadi
inch ataniki
Ġbandh uvulu
Ġudd esham
Ġveld ulli
Ġvidich ipett
ar ay
Ġv ice
Ġd uh
Ġvay uvu
Ġhe g
Ġloc ation
Ġsthanik anga
Ġk alanu
Ġr oll
ag ra
Ġkar ona
Ġfl at
ah aram
Ġtel upu
Ġbal avantanga
Ġkn ow
al ekap
ak anna
Ġg ot
od dani
Ġvy dy
Ġnim dit
Ġnamm akanni
Ġkalap andi
Ġple ase
Ġr ettu
Ġrup anni
Ġbag unt
Ġdar un
Ġveld e
Ġparv atrika
Ġdrisht ya
Ġanubandh am
e al
Ġv iste
Ġf iction
utv am
Ġkalig istayi
Ġnat imchindi
Ġanch analanu
Ġdamp atulu
Ġuddes inchi
ap ed
ol lo
Ġpett alani
Ġgod av
Ġcont est
Ġekkad aina
Ġsanthosh anga
al en
ap arust
Ġf a
Ġd um
Ġd rama
Ġgo utham
Ġpand aga
akud ani
adhik arulu
Ġchor av
Ġvidud alaku
inch adani
Ġc ra
Ġsah asam
Ġot ing
Ġvyavasth aku
Ġbhay anto
Ġpic t
ad atta
Ġm ai
Ġaloch imch
Ġmaatlaad atam
Ġtaruv ati
Ġbog gu
ch arya
Ġev ari
Ġpa ik
Ġprathi bha
Ġcl ient
Ġatt ack
Ġadil abad
Ġprajapratin idh
y asam
Ġkarmik ulaku
Ġjati y
Ġstre am
Ġeurope an
Ġv ery
ist onna
ic y
Ġcr im
Ġbo ot
Ġpil av
Ġrog ue
Ġutsah amga
Ġanasu ya
Ġvall ane
alap atu
Ġyuv akulu
Ġthol isariga
Ġpav itra
Ġpartil uk
Ġ6 6
Ġvaik apa
Ġm ama
ik anth
Ġsc oot
Ġchamp ion
arit anam
Ġvadil esi
Ġjat ulu
Ġaush adha
m edi
Ġdeep avali
Ġch ar
ash iksh
Ġsarv as
Ġp adu
ik al
ik ula
iv ing
Ġsh asan
Ġar d
oni es
elo r
Ġnasht alanu
Ġkore a
Ġs akram
Ġr ing
Ġto ti
Ġnasht anni
Ġk aram
ach alam
Ġev varu
Ġnat akam
Ġdharm am
o i
Ġth od
Ġgop ichand
Ġvinip istondi
Ġsthay ini
Ġbadhyat alanu
ud ra
Ġsangh arshana
Ġtell avaru
Ġgarish ta
ann ing
Ġtech ina
Ġm ade
Ġth an
Ġgod uma
Ġha z
Ġbhavishy att
Ġpr yath
Ġparis odhana
Ġvidi p
Ġt alap
Ġbhoj an
Ġnelak olp
Ġfib re
Ġp c
Ġt adi
uv vu
ukunt am
Ġlok am
Ġduk anam
Ġtrain ing
g er
is aru
Ġga aru
Ġsamasy alapai
Ġchocol ate
m en
Ġpad ak
Ġsr ushti
Ġbayat apett
Ġgov ind
Ġmar adam
Ġad ivas
amp alli
Ġter m
Ġvas an
Ġvey ali
Ġsanthosh am
adhik ari
Ġsw ay
Ġfix e
Ġk ank
Ġay id
Ġunt arani
Ġte erp
Ġrajakeey alloki
Ġmon ey
Ġgreat er
Ġkolp ovadam
Ġm antram
ak arulu
Ġan ur
it ene
Ġpad alanu
ers o
Ġvil as
Ġvip aksh
Ġgurt inchina
Ġdar unam
Ġdush pr
k ey
Ġpr ep
Ġparinam am
Ġvidud al
c omm
p m
Ġp acch
ud am
Ġpad akunda
Ġdirector s
Ġthallidandr ula
Ġspandist u
Ġjagann ath
ud ani
ut untaru
ir oj
ang at
Ġvad iki
Ġpen chi
ag ulu
Ġanuk unnaru
Ġkid nap
Ġvaividh yamaina
Ġsinim alato
Ġt okk
ov ery
Ġkon ukk
Ġnij angane
Ġneh ru
ara in
Ġivv aledu
Ġchup istundi
Ġanuv ad
Ġstre ela
in antha
Ġunn avariki
ail am
Ġsams ung
Ġdon ald
m it
Ġan ukuni
ag adu
Ġsam e
ev varu
Ġpett ali
Ġbhag alanu
Ġaloch analo
Ġdig uv
arist unna
Ġperugud alaku
Ġthrill er
aru ch
im ir
utv ak
Ġmil it
y araj
Ġsh ram
Ġnirm analu
Ġcomp let
Ġj varam
Ġroj uroj
anth o
Ġvay id
j il
ug ani
Ġav utunnaru
iti ons
Ġmah asam
Ġtr avel
Ġbjp lo
n ath
Ġemotion al
Ġteep i
l eni
ch ait
Ġay annu
Ġsuch inchindi
Ġdrush ti
n an
Ġtamil amlo
Ġparishkar anni
ak riy
Ġj eb
Ġches edi
Ġtelus a
arist e
poy adu
Ġchept unnaru
Ġdong il
Ġkathin anga
l as
at antra
Ġkal as
Ġph il
Ġtelip adu
Ġnagar allo
Ġkak inada
Ġ ubh
at w
Ġv s
et ers
Ġsh abd
Ġtal uk
Ġcall s
Ġc ast
Ġpradh an
Ġparim it
Ġdy nam
Ġpryath n
ad arulu
Ġt ine
il ak
Ġsw ap
Ġadbhut am
Ġsuj atha
unn aro
Ġf ish
Ġay idu
Ġansh al
Ġnirmata ga
k alanu
ak elaku
Ġr ik
Ġprash ant
Ġtan ato
Ġis s
po on
Ġanub andha
Ġparishil incharu
Ġparisram ik
Ġbhar athi
Ġkilo la
Ġasadh arana
Ġhelic op
j id
th o
ip y
Ġvin ayak
Ġhe chch
Ġp eel
Ġvad ini
Ġsa ik
Ġk ishtamaina
Ġn on
Ġg anga
ing e
Ġraj ender
Ġekk adiki
Ġanduk ani
Ġpramani ka
Ġk adha
Ġf est
Ġkal v
Ġek er
Ġrang areddy
Ġvishay ala
ust u
Ġma ans
Ġparish k
Ġth em
Ġpil ichi
c in
in iki
Ġp cc
Ġsam etha
Ġtagg inchavachchu
Ġmodal ett
Ġinter f
Ġact ive
tm l
Ġch en
Ġkor indi
pai ga
ich e
Ġmodati di
Ġprem isth
Ġqu e
Ġbcc i
Ġa akh
Ġpracre al
Ġo oru
ey y
Ġunn ata
Ġsamaves aniki
Ġparishil inchi
Ġpann ulu
Ġbhug arbh
Ġt alas
Ġre qu
Ġvall e
Ġphot on
Ġparikar ala
Ġbhoug olic
c ine
Ġnirvah inchalani
Ġabhivr uddini
ure a
Ġbatt ing
Ġgadi china
ar laku
Ġchin ese
Ġvidy anu
Ġcap ital
Ġbeng alu
Ġd ak
Ġraj inam
Ġnirvah istunnaru
for man
Ġvinod am
Ġnirm inchadaniki
Ġsec ons
Ġsek arinchi
Ġaksh ay
Ġgu ide
Ġm ini
Ġand ala
Ġvey y
Ġw ait
Ġmarg allo
Ġett aina
Ġpramad akaramaina
n ic
Ġt av
ul abh
it ramaina
ram am
Ġvim ana
for ni
Ġcricket er
Ġrachayit alu
r ag
al aloni
Ġbh a
Ġpad anni
abad dam
Ġnish k
Ġvacc ination
Ġvyadh ulu
Ġsiddip et
Ġsand arb
Ġvivadas pada
Ġt itt
Ġf rame
Ġpa ul
Ġrek h
Ġkind aku
Ġdravy ol
Ġs akalamlo
alu g
aph is
Ġteliv aina
it or
Ġund adani
Ġcher uvu
Ġtisuk uv
inchuk ol
Ġroopond incharu
Ġdep artment
akapov achchu
Ġhaty aku
Ġlic ense
id ev
Ġapp u
Ġabhy antaram
Ġuddesh anto
Ġbhinn amaina
Ġpravarth ananu
Ġtelev ision
Ġgr eek
Ġjan ata
Ġvin tha
iz ha
Ġt iger
Ġsadh analu
Ġ7 7
Ġnij ay
Ġyuv ath
Ġnivas inche
Ġviram ana
Ġroy al
Ġk eep
Ġt eda
Ġsan h
Ġasp atriki
m on
s oni
Ġg ayalu
Ġas aktini
Ġgo ud
Ġhe art
Ġsamprad ay
Ġspand inchina
Ġjat ula
Ġvaividh yam
Ġin put
Ġkas ar
Ġr us
ud adu
aga ane
Ġann attu
Ġtr ag
Ġpedd ala
Ġ6 8
Ġabhipr ayanni
Ġsanuk ulanga
Ġvasth unnaru
am eric
Ġap ar
Ġkotl atho
c on
o ha
at ito
Ġm ust
Ġpr a
Ġrang ulo
Ġerpad atayi
Ġyeh ov
as alu
Ġan agane
Ġunn ath
onn ayi
Ġarth ik
Ġsamaj anni
Ġatyunn ata
ap aranga
Ġpur vam
Ġavasaram ani
Ġaloch inchandi
Ġgod a
Ġthisukuv achch
k onda
ari che
Ġth ivr
Ġad o
Ġas ale
Ġvat ito
Ġchatt anni
Ġkasht apad
Ġcre am
Ġjo in
Ġitr ulato
an unnatlu
Ġsh it
Ġav utaru
Ġw arning
Ġchest unte
Ġandol anku
Ġvuha alu
m od
at ar
adh ana
Ġidi var
Ġdina chary
Ġpo w
Ġ6 3
Ġmaranimch ina
Ġdav akh
Ġsamyuk tanga
g ing
Ġvidh aluga
Ġprapancham lone
Ġswachch anda
Ġdag ara
Ġinch arge
adh anam
Ġth alap
Ġsidd eva
Ġkalp ulu
Ġakarshani yanga
Ġchalla ga
r ig
Ġm d
Ġb ach
Ġin co
Ġdas ari
Ġmed ad
Ġvast ayani
Ġgr adu
Ġmarus ati
ut undo
em u
Ġpat ala
Ġmas jid
Ġshirsh ika
Ġsam ar
end la
Ġve et
Ġvin ooth
Ġith ivritt
ikr itam
Ġmaru m
Ġram udu
ans am
Ġà¤ ķ
Ġces indani
ate g
asag ar
Ġjam es
Ġtarv ate
Ġp anth
av atam
Ġsar ve
Ġbadh yatanu
Ġduradr usht
j agan
av utundani
en th
Ġsinim alanu
utunna ayi
Ġamm ai
Ġ'' '
Ġpust akanni
Ġqu arant
Ġm idi
Ġgani ta
Ġlif t
Ġmot ors
Ġvers us
Ġdub ai
Ġbhav inchina
Ġvan aru
Ġsulbh amaina
Ġkeer th
Ġnetritvam loni
el an
Ġtelug uv
oc china
o int
aj u
Ġth amm
Ġsat ya
Ġuttamam ina
f er
ap aksha
Ġj atha
Ġsp urthi
Ġsuch analanu
Ġvarg aniki
Ġnamod ayyayi
in ad
Ġc a
ist undaga
Ġen count
Ġte ach
ard asth
Ġter av
Ġv akr
Ġter apai
Ġkaranam avutundi
Ġjarag adam
Ġsulu v
ti es
Ġchepp aledu
Ġjari mana
oth unnaru
Ġro b
ayani k
Ġbay ati
Ġprodu cer
Ġnarendram odi
ay anna
Ġj yoth
Ġrup ee
Ġcheyabad d
Ġbharatad eshwari
Ġokar oju
Ġann atlu
Ġlaksh yanto
Ġgurt uch
Ġsamadh analu
Ġsad viniyogam
Ġchush aru
p at
Ġpad at
Ġpal ana
tim e
Ġett akelaku
