{"<pad>":0,"<unk>":1,"<s>":2,"</s>":3,"!":4,"\"":5,"#":6,"$":7,"%":8,"&":9,"'":10,"(":11,")":12,"*":13,"+":14,",":15,"-":16,".":17,"/":18,"0":19,"1":20,"2":21,"3":22,"4":23,"5":24,"6":25,"7":26,"8":27,"9":28,":":29,";":30,"<":31,"=":32,">":33,"?":34,"@":35,"A":36,"B":37,"C":38,"D":39,"E":40,"F":41,"G":42,"H":43,"I":44,"J":45,"K":46,"L":47,"M":48,"N":49,"O":50,"P":51,"Q":52,"R":53,"S":54,"T":55,"U":56,"V":57,"W":58,"X":59,"Y":60,"Z":61,"[":62,"\\":63,"]":64,"^":65,"_":66,"`":67,"a":68,"b":69,"c":70,"d":71,"e":72,"f":73,"g":74,"h":75,"i":76,"j":77,"k":78,"l":79,"m":80,"n":81,"o":82,"p":83,"q":84,"r":85,"s":86,"t":87,"u":88,"v":89,"w":90,"x":91,"y":92,"z":93,"{":94,"|":95,"}":96,"~":97,"¡":98,"¢":99,"£":100,"¤":101,"¥":102,"¦":103,"§":104,"¨":105,"©":106,"ª":107,"«":108,"¬":109,"®":110,"¯":111,"°":112,"±":113,"²":114,"³":115,"´":116,"µ":117,"¶":118,"·":119,"¸":120,"¹":121,"º":122,"»":123,"¼":124,"½":125,"¾":126,"¿":127,"À":128,"Á":129,"Â":130,"Ã":131,"Ä":132,"Å":133,"Æ":134,"Ç":135,"È":136,"É":137,"Ê":138,"Ë":139,"Ì":140,"Í":141,"Î":142,"Ï":143,"Ð":144,"Ñ":145,"Ò":146,"Ó":147,"Ô":148,"Õ":149,"Ö":150,"×":151,"Ø":152,"Ù":153,"Ú":154,"Û":155,"Ü":156,"Ý":157,"Þ":158,"ß":159,"à":160,"á":161,"â":162,"ã":163,"ä":164,"å":165,"æ":166,"ç":167,"è":168,"é":169,"ê":170,"ë":171,"ì":172,"í":173,"î":174,"ï":175,"ð":176,"ñ":177,"ò":178,"ó":179,"ô":180,"õ":181,"ö":182,"÷":183,"ø":184,"ù":185,"ú":186,"û":187,"ü":188,"ý":189,"þ":190,"ÿ":191,"Ā":192,"ā":193,"Ă":194,"ă":195,"Ą":196,"ą":197,"Ć":198,"ć":199,"Ĉ":200,"ĉ":201,"Ċ":202,"ċ":203,"Č":204,"č":205,"Ď":206,"ď":207,"Đ":208,"đ":209,"Ē":210,"ē":211,"Ĕ":212,"ĕ":213,"Ė":214,"ė":215,"Ę":216,"ę":217,"Ě":218,"ě":219,"Ĝ":220,"ĝ":221,"Ğ":222,"ğ":223,"Ġ":224,"ġ":225,"Ģ":226,"ģ":227,"Ĥ":228,"ĥ":229,"Ħ":230,"ħ":231,"Ĩ":232,"ĩ":233,"Ī":234,"ī":235,"Ĭ":236,"ĭ":237,"Į":238,"į":239,"İ":240,"ı":241,"Ĳ":242,"ĳ":243,"Ĵ":244,"ĵ":245,"Ķ":246,"ķ":247,"ĸ":248,"Ĺ":249,"ĺ":250,"Ļ":251,"ļ":252,"Ľ":253,"ľ":254,"Ŀ":255,"ŀ":256,"Ł":257,"ł":258,"Ń":259,"an":260,"ar":261,"am":262,"ch":263,"al":264,"in":265,"Ġp":266,"at":267,"ad":268,"Ġs":269,"Ġm":270,"un":271,"Ġv":272,"Ġk":273,"ak":274,"di":275,"Ġt":276,"Ġch":277,"Ġn":278,"as":279,"ay":280,"ani":281,"av":282,"es":283,"ul":284,"on":285,"th":286,"ari":287,"Ġe":288,"Ġr":289,"Ġb":290,"ga":291,"er":292,"Ġpr":293,"Ġd":294,"aru":295,"is":296,"uk":297,"inch":298,"lo":299,"en":300,"ap":301,"Ġan":302,"el":303,"it":304,"ud":305,"ik":306,"unn":307,"alu":308,"ina":309,"ut":310,"ab":311,"Ġg":312,"ag":313,"ant":314,"ur":315,"sh":316,"anu":317,"ed":318,"Ġc":319,"ir":320,"il":321,"Ġl":322,"ana":323,"ala":324,"Ġj":325,"ki":326,"Ġa":327,"et":328,"id":329,"aku":330,"and":331,"ah":332,"Ġo":333,"undi":334,"adh":335,"ip":336,"ann":337,"or":338,"und":339,"iv":340,"Ġches":341,"Ġsam":342,"ath":343,"adu":344,"Ġche":345,"ka":346,"anga":347,"yu":348,"Ġmari":349,"ee":350,"ulu":351,"ti":352,"Ġh":353,"aniki":354,"Ġmariyu":355,"aj":356,"aram":357,"indi":358,"Ġbh":359,"ist":360,"up":361,"im":362,"ach":363,"od":364,"ol":365,"abh":366,"unna":367,"us":368,"ish":369,"ya":370,"la":371,"ram":372,"ati":373,"adam":374,"em":375,"ash":376,"unt":377,"alo":378,"Ġth":379,"ot":380,"ic":381,"Ġtel":382,"ai":383,"Ġ1":384,"Ġ2":385,"anni":386,"andi":387,"ata":388,"ara":389,"anam":390,"end":391,"uv":392,"ug":393,"Ġsh":394,"yam":395,"Ġmar":396,"ayi":397,"ig":398,"om":399,"os":400,"ini":401,"aina":402,"ov":403,"um":404,"ra":405,"Ġf":406,"ang":407,"all":408,"adi":409,"Ġin":410,"alanu":411,"bh":412,"Ġy":413,"Ġi":414,"udu":415,"Ġvy":416,"Ġand":417,"app":418,"og":419,"att":420,"ayam":421,"Ġen":422,"Ġkal":423,"Ġchey":424,"ing":425,"ev":426,"chi":427,"Ġnir":428,"pp":429,"ek":430,"ast":431,"ok":432,"Ġav":433,"aksh":434,"tha":435,"Ġpari":436,"adaniki":437,"Ġva":438,"ula":439,"esh":440,"ika":441,"Ġkud":442,"Ġlo":443,"ri":444,"Ġad":445,"ali":446,"Ġam":447,"ec":448,"aga":449,"iki":450,"Ġar":451,"Ġkuda":452,"ary":453,"Ġvid":454,"Ġay":455,"amlo":456,"Ġled":457,"unnaru":458,"lu":459,"Ġ'":460,"ett":461,"oj":462,"Ġvar":463,"ni":464,"Ġoka":465,"Ġman":466,"Ġne":467,"Ġant":468,"Ġund":469,"Ġkon":470,"Ġme":471,"ind":472,"uku":473,"ell":474,"Ġw":475,"Ġadh":476,"ent":477,"Ġsan":478,"ato":479,"Ġ20":480,"Ġunna":481,"dh":482,"Ġgur":483,"Ġchest":484,"Ġpar":485,"Ġunt":486,"ada":487,"na":488,"Ġani":489,"Ġat":490,"inchi":491,"Ġpat":492,"ane":493,"anti":494,"st":495,"Ġvi":496,"ust":497,"Ġchepp":498,"Ġmee":499,"oni":500,"allo":501,"Ġaa":502,"Ġup":503,"Ġprabh":504,"asht":505,"Ġper":506,"ine":507,"Ġdi":508,"Ġpad":509,"Ġmat":510,"akk":511,"ondi":512,"anto":513,"ukov":514,"ith":515,"edd":516,"alaku":517,"Ġma":518,"arinch":519,"Ġidi":520,"abad":521,"op":522,"Ġkani":523,"Ġas":524,"Ġvish":525,"oy":526,"Ġok":527,"ill":528,"aran":529,"Ġmo":530,"Ġ3":531,"ub":532,"ey":533,"ulo":534,"okka":535,"Ġraj":536,"ta":537,"osam":538,"ond":539,"aka":540,"Ġst":541,"ac":542,"Ġtar":543,"est":544,"Ġyokka":545,"ha":546,"Ġcom":547,"amaina":548,"one":549,"tham":550,"edi":551,"ipp":552,"enu":553,"Ġna":554,"andh":555,"achch":556,"Ġem":557,"Ġni":558,"alani":559,"to":560,"Ġed":561,"inchina":562,"ulanu":563,"Ġkosam":564,"ukunt":565,"unda":566,"Ġsah":567,"arsh":568,"Ġleda":569,"ama":570,"Ġud":571,"Ġsth":572,"arth":573,"incharu":574,"Ġabh":575,"atam":576,"ma":577,"Ġviv":578,"eev":579,"unchi":580,"Ġ5":581,"Ġek":582,"ation":583,"le":584,"ers":585,"athi":586,"Ġsr":587,"Ġsw":588,"Ġtana":589,"ukh":590,"ante":591,"Ġtelug":592,"eru":593,"Ġdh":594,"Ġvyak":595,"Ġprat":596,"oc":597,"add":598,"utv":599,"Ġbhav":600,"Ġipp":601,"iti":602,"agg":603,"uni":604,"ess":605,"Ġpur":606,"ush":607,"Ġnunchi":608,"Ġprak":609,"Ġchand":610,"alam":611,"Ġte":612,"Ġchit":613,"Ġrend":614,"ulaku":615,"Ġprabhutv":616,"Ġroj":617,"utt":618,"Ġvast":619,"uch":620,"Ġchala":621,"Ġnundi":622,"Ġ4":623,"Ġga":624,"anch":625,"appudu":626,"een":627,"vata":628,"Ġko":629,"Ġbhar":630,"Ġpo":631,"ank":632,"unu":633,"analu":634,"ep":635,"apai":636,"Ġpray":637,"Ġthe":638,"Ġto":639,"Ġkh":640,"Ġvundi":641,"Ġpett":642,"Ġmah":643,"ema":644,"Ġkr":645,"Ġpol":646,"Ġpraj":647,"Ġpani":648,"edu":649,"Ġcon":650,"Ġmod":651,"Ġnenu":652,"Ġvad":653,"ava":654,"Ġsp":655,"Ġal":656,"Ġekk":657,"wara":658,"Ġsar":659,"ame":660,"uga":661,"ect":662,"Ġane":663,"ariki":664,"Ġvel":665,"Ġkar":666,"Ġjari":667,"Ġph":668,"anta":669,"Ġann":670,"Ġdr":671,"amp":672,"Ġ201":673,"ithe":674,"uva":675,"alla":676,"ate":677,"Ġtelugu":678,"anth":679,"Ġmadh":680,"Ġmund":681,"udi":682,"Ġmukh":683,"sth":684,"Ġrasht":685,"00":686,"Ġaithe":687,"Ġlaksh":688,"Ġsin":689,"atlu":690,"Ġve":691,"atha":692,"Ġayana":693,"Ġsank":694,"chch":695,"aya":696,"Ġint":697,"Ġenn":698,"Ġsadh":699,"ku":700,"Ġvell":701,"atti":702,"avas":703,"arana":704,"ite":705,"Ġdwara":706,"arani":707,"Ġkalig":708,"Ġunn":709,"Ġupay":710,"Ġsang":711,"Ġev":712,"asam":713,"inchadam":714,"inche":715,"Ġsinim":716,"Ġcin":717,"yog":718,"Ġgr":719,"als":720,"Ġtr":721,"Ġiv":722,"hi":723,"utundi":724,"Ġap":725,"Ġel":726,"Ġpradh":727,"Ġcinema":728,"idd":729,"Ġkot":730,"Ġkary":731,"ce":732,"Ġchesaru":733,"Ġmatram":734,"isuk":735,"hu":736,"thundi":737,"Ġbr":738,"Ġnirv":739,"Ġcher":740,"Ġparish":741,"eddy":742,"Ġupayog":743,"ela":744,"Ġjeev":745,"istundi":746,"akunda":747,"amani":748,"bandh":749,"Ġdes":750,"Ġvidh":751,"Ġnam":752,"Ġpal":753,"age":754,"Ġmandi":755,"Ġavas":756,"Ġda":757,"inchadaniki":758,"Ġak":759,"apad":760,"Ġjag":761,"ty":762,"Ġgurinchi":763,"isht":764,"Ġnirm":765,"Ġuntundi":766,"Ġvat":767,"Ġkav":768,"arch":769,"Ġit":770,"Ġlek":771,"Ġchesina":772,"pu":773,"Ġrendu":774,"eb":775,"Ġnat":776,"anna":777,"une":778,"atu":779,"Ġra":780,"Ġil":781,"Ġjarig":782,"ber":783,"ion":784,"Ġpedd":785,"eda":786,"Ġvij":787,"any":788,"Ġapp":789,"Ġsand":790,"ost":791,"Ġnirvah":792,"eni":793,"int":794,"Ġend":795,"Ġtarvata":796,"iy":797,"Ġram":798,"Ġcor":799,"iru":800,"Ġer":801,"ow":802,"Ġvac":803,"tion":804,"inchindi":805,"Ġsa":806,"uddh":807,"inchandi":808,"Ġkend":809,"Ġven":810,"abu":811,"alli":812,"avi":813,"antr":814,"Ġut":815,"Ġpatt":816,"Ġnil":817,"ita":818,"ck":819,"gr":820,"Ġnew":821,"antri":822,"Ġkotha":823,"Ġ6":824,"ard":825,"Ġnaa":826,"arit":827,"arambh":828,"imch":829,"aki":830,"Ġvishayam":831,"Ġkor":832,"Ġtir":833,"Ġtelang":834,"Ġvaraku":835,"una":836,"Ġchin":837,"Ġlow":838,"enduku":839,"Ġsamayam":840,"Ġvaari":841,"Ġchend":842,"Ġsambandh":843,"Ġjan":844,"ubh":845,"Ġpram":846,"Ġvis":847,"Ġvanti":848,"ikk":849,"Ġre":850,"utunn":851,"Ġtagg":852,"Ġmeeru":853,"Ġkonni":854,"avar":855,"Ġprarambh":856,"akam":857,"Ġbhag":858,"allu":859,"Ġkut":860,"Ġnag":861,"Ġdin":862,"Ġun":863,"Ġon":864,"Ġunnaayi":865,"atiki":866,"odu":867,"Ġmadhya":868,"Ġhy":869,"itam":870,"arulu":871,"Ġadhik":872,"ars":873,"Ġparty":874,"Ġadi":875,"Ġnu":876,"alato":877,"Ġag":878,"Ġela":879,"Ġvaaru":880,"Ġcomm":881,"oh":882,"Ġpraty":883,"ilo":884,"pad":885,"ukunn":886,"ket":887,"Ġ19":888,"Ġprabhutvam":889,"Ġrav":890,"Ġthapp":891,"akt":892,"Ġavasaram":893,"Ġichch":894,"Ġtam":895,"Ġist":896,"Ġala":897,"Ġbal":898,"Ġprap":899,"Ġvir":900,"Ġ0":901,"Ġmanchi":902,"Ġcomp":903,"umb":904,"ats":905,"Ġavak":906,"are":907,"adanto":908,"Ġdev":909,"ff":910,"ukunna":911,"Ġaame":912,"Ġsari":913,"Ġvidy":914,"Ġka":915,"ie":916,"Ġ7":917,"Ġvalla":918,"Ġ10":919,"Ġco":920,"Ġante":921,"oll":922,"arug":923,"aralu":924,"Ġmukhyam":925,"pai":926,"Ġgo":927,"apu":928,"Ġsamas":929,"ice":930,"ito":931,"ullo":932,"re":933,"Ġippudu":934,"uru":935,"Ġkadu":936,"Ġru":937,"der":938,"Ġtama":939,"Ġanni":940,"nam":941,"ipoy":942,"Ġher":943,"ayak":944,"ich":945,"Ġivv":946,"utunna":947,"Ġso":948,"Ġledhu":949,"Ġtelangana":950,"Ġpa":951,"Ġchandr":952,"Ġkanip":953,"adani":954,"Ġchandra":955,"Ġpond":956,"Ġvyakt":957,"Ġakk":958,"Ġnirn":959,"Ġprapanch":960,"Ġmer":961,"Ġkaryak":962,"anal":963,"Ġnel":964,"Ġind":965,"Ġpurti":966,"Ġrang":967,"Ġmarin":968,"Ġmiru":969,"ass":970,"Ġ8":971,"pr":972,"Ġparisth":973,"nu":974,"Ġvyavas":975,"art":976,"Ġvin":977,"Ġdeen":978,"ity":979,"cr":980,"Ġgram":981,"Ġkath":982,"aledu":983,"Ġnews":984,"Ġmaa":985,"Ġkur":986,"Ġprathi":987,"ort":988,"Ġmana":989,"Ġprast":990,"Ġmaro":991,"Ġcheyadam":992,"yanga":993,"Ġcheyadaniki":994,"Ġbadh":995,"Ġennik":996,"undani":997,"eka":998,"Ġchesi":999,"oth":1000,"Ġmand":1001,"loni":1002,"ivr":1003,"avam":1004,"man":1005,"achu":1006,"ukuni":1007,"itt":1008,"Ġprash":1009,"eet":1010,"Ġpen":1011,"Ġchitr":1012,"hy":1013,"esi":1014,"utu":1015,"Ġtan":1016,"Ġtelip":1017,"Ġsur":1018,"illa":1019,"udala":1020,"ial":1021,"Ġprakat":1022,"eem":1023,"Ġrup":1024,"Ġid":1025,"Ġpl":1026,"avachch":1027,"atv":1028,"Ġ202":1029,"Ġtelus":1030,"uth":1031,"Ġpatu":1032,"Ġcongr":1033,"odh":1034,"alas":1035,"Ġjagan":1036,"Ġvachch":1037,"Ġrak":1038,"acharam":1039,"Ġalo":1040,"Ġpatr":1041,"Ġdur":1042,"ksh":1043,"Ġvyap":1044,"kar":1045,"gu":1046,"tu":1047,"Ġprad":1048,"Ġvijay":1049,"Ġ9":1050,"annaru":1051,"Ġsag":1052,"Ġkaligi":1053,"Ġvach":1054,"Ġprabhutva":1055,"Ġsabh":1056,"Ġikk":1057,"ade":1058,"chu":1059,"Ġcho":1060,"onn":1061,"Ġmeeda":1062,"arbh":1063,"amu":1064,"Ġvyakti":1065,"vats":1066,"akti":1067,"attu":1068,"ona":1069,"Ġmarinta":1070,"atr":1071,"ike":1072,"ikaa":1073,"idh":1074,"Ġmedi":1075,"Ġmem":1076,"atm":1077,"Ġcongress":1078,"Ġikaa":1079,"Ġprastut":1080,"Ġutp":1081,"Ġtaru":1082,"Ġthisuk":1083,"Ġro":1084,"avan":1085,"Ġpedda":1086,"ain":1087,"ukovadam":1088,"agal":1089,"ib":1090,"uto":1091,"Ġsuch":1092,"Ġchup":1093,"Ġkalis":1094,"Ġpras":1095,"Ġgh":1096,"Ġkan":1097,"Ġaloch":1098,"Ġhero":1099,"ayy":1100,"ive":1101,"Ġchandrab":1102,"rap":1103,"Ġvari":1104,"Ġkutumb":1105,"Ġpun":1106,"eti":1107,"ayani":1108,"Ġcheyandi":1109,"Ġchitram":1110,"Ġpan":1111,"idi":1112,"ayalu":1113,"iksh":1114,"Ġvil":1115,"Ġpary":1116,"uj":1117,"Ġvr":1118,"arm":1119,"Ġmundu":1120,"Ġniv":1121,"ans":1122,"Ġpanich":1123,"Ġpill":1124,"Ġadhika":1125,"Ġchus":1126,"imp":1127,"abb":1128,"Ġekkuva":1129,"Ġerp":1130,"ulato":1131,"Ġith":1132,"Ġamm":1133,"Ġdarsh":1134,"avachchu":1135,"Ġaty":1136,"Ġarth":1137,"Ġrajak":1138,"Ġvim":1139,"akh":1140,"Ġannaru":1141,"Ġprav":1142,"udd":1143,"Ġsamasy":1144,"ull":1145,"mch":1146,"avant":1147,"Ġjarug":1148,"derabad":1149,"eel":1150,"Ġmatrame":1151,"eh":1152,"analanu":1153,"Ġmarch":1154,"Ġanum":1155,"Ġtelis":1156,"avu":1157,"istunn":1158,"Ġrajakee":1159,"Ġvacch":1160,"Ġsamayamlo":1161,"igh":1162,"Ġash":1163,"Ġot":1164,"Ġhyderabad":1165,"aranga":1166,"Ġac":1167,"ase":1168,"Ġtag":1169,"ail":1170,"jp":1171,"Ġkum":1172,"Ġmeeku":1173,"Ġdig":1174,"amm":1175,"analo":1176,"Ġayina":1177,"ote":1178,"Ġadhy":1179,"Ġter":1180,"Ġvidudala":1181,"Ġandh":1182,"Ġdaani":1183,"Ġayy":1184,"Ġpench":1185,"ale":1186,"Ġabhivr":1187,"iga":1188,"arananga":1189,"Ġbjp":1190,"Ġnaku":1191,"onu":1192,"atn":1193,"anani":1194,"Ġbah":1195,"Ġemp":1196,"Ġsamaj":1197,"Ġkab":1198,"uddhi":1199,"Ġtaruvata":1200,"ome":1201,"Ġbay":1202,"Ġchepparu":1203,"Ġaneka":1204,"ember":1205,"Ġmanam":1206,"Ġpost":1207,"qu":1208,"Ġ12":1209,"Ġutt":1210,"ly":1211,"Ġcorona":1212,"Ġtay":1213,"Ġedur":1214,"Ġchesindi":1215,"Ġmotham":1216,"ataniki":1217,"Ġdagg":1218,"Ġchiv":1219,"Ġchinna":1220,"Ġavakasam":1221,"Ġcr":1222,"Ġokk":1223,"Ġvay":1224,"annu":1225,"Ġpor":1226,"ena":1227,"Ġchendina":1228,"Ġvivarinch":1229,"Ġle":1230,"Ġade":1231,"Ġmantri":1232,"lad":1233,"yan":1234,"Ġchep":1235,"te":1236,"Ġmarg":1237,"Ġbo":1238,"Ġchud":1239,"iniyog":1240,"inc":1241,"Ġvip":1242,"Ġ15":1243,"igi":1244,"ots":1245,"Ġvibh":1246,"Ġpradhana":1247,"va":1248,"ern":1249,"asag":1250,"Ġfor":1251,"alalo":1252,"ack":1253,"Ġcheb":1254,"Ġchese":1255,"atiya":1256,"alan":1257,"Ġsandarbh":1258,"Ġpot":1259,"arist":1260,"Ġikkada":1261,"Ġila":1262,"tor":1263,"Ġteliy":1264,"Ġsahay":1265,"asth":1266,"eric":1267,"Ġgurt":1268,"Ġyu":1269,"low":1270,"Ġantu":1271,"Ġreddy":1272,"Ġippat":1273,"Ġmoodu":1274,"inatlu":1275,"Ġtakk":1276,"Ġdo":1277,"anic":1278,"Ġchesuk":1279,"Ġepp":1280,"Ġchet":1281,"Ġchust":1282,"Ġkaryakram":1283,"Ġudyog":1284,"Ġtanu":1285,"akap":1286,"vu":1287,"Ġtol":1288,"Ġanubh":1289,"Ġteliparu":1290,"Ġnav":1291,"Ġcharch":1292,"yat":1293,"ake":1294,"tr":1295,"asw":1296,"Ġse":1297,"Ġlabh":1298,"eksh":1299,"Ġla":1300,"Ġsev":1301,"thu":1302,"Ġchandrababu":1303,"aro":1304,"poy":1305,"thalu":1306,"erv":1307,"Ġvah":1308,"Ġsans":1309,"Ġprath":1310,"Ġrashtra":1311,"Ġnayak":1312,"arg":1313,"tic":1314,"Ġjilla":1315,"Ġmarket":1316,"Ġnim":1317,"Ġis":1318,"Ġno":1319,"Ġpamp":1320,"ore":1321,"inchadu":1322,"Ġbaga":1323,"Ġuntayi":1324,"unte":1325,"Ġchestundi":1326,"atla":1327,"Ġnar":1328,"Ġsup":1329,"eri":1330,"aduthundi":1331,"Ġindi":1332,"anaku":1333,"Ġnalu":1334,"Ġjill":1335,"Ġandi":1336,"alapai":1337,"anik":1338,"alni":1339,"bhav":1340,"Ġkes":1341,"Ġanedi":1342,"ayanni":1343,"Ġanduk":1344,"Ġksh":1345,"ubl":1346,"okk":1347,"Ġner":1348,"ayana":1349,"Ġprastutam":1350,"du":1351,"utondi":1352,"Ġmemu":1353,"Ġrach":1354,"istunna":1355,"Ġkalisi":1356,"karinch":1357,"adr":1358,"Ġanch":1359,"istunnaru":1360,"Ġfr":1361,"indani":1362,"Ġkod":1363,"Ġmerug":1364,"Ġviniyog":1365,"Ġkad":1366,"Ġpadd":1367,"Ġdad":1368,"arog":1369,"ukk":1370,"ery":1371,"Ġperug":1372,"unnayi":1373,"Ġprabhav":1374,"path":1375,"inchabad":1376,"Ġpalu":1377,"Ġvariki":1378,"Ġameric":1379,"Ġkol":1380,"Ġnamm":1381,"aramaina":1382,"Ġ11":1383,"arala":1384,"Ġvachchina":1385,"Ġbhavani":1386,"Ġenduk":1387,"Ġras":1388,"ila":1389,"Ġmalli":1390,"Ġchary":1391,"rad":1392,"Ġarthika":1393,"anj":1394,"Ġsidd":1395,"Ġvas":1396,"Ġpand":1397,"Ġcha":1398,"Ġmug":1399,"oom":1400,"Ġves":1401,"Ġanuk":1402,"Ġprayatn":1403,"Ġinka":1404,"Ġkatt":1405,"Ġkrish":1406,"ical":1407,"atho":1408,"Ġniz":1409,"utunnaru":1410,"Ġcar":1411,"Ġvall":1412,"Ġtisuk":1413,"Ġvent":1414,"Ġperu":1415,"Ġsn":1416,"if":1417,"Ġass":1418,"ananga":1419,"uka":1420,"Ġkonasag":1421,"yanni":1422,"iste":1423,"inde":1424,"bb":1425,"thi":1426,"Ġsat":1427,"Ġtaj":1428,"Ġparisthit":1429,"Ġperk":1430,"inappudu":1431,"Ġithara":1432,"aksha":1433,"Ġdinto":1434,"Ġmin":1435,"Ġfir":1436,"ecch":1437,"Ġabhy":1438,"rah":1439,"Ġpak":1440,"rit":1441,"ont":1442,"riya":1443,"Ġved":1444,"Ġcl":1445,"apur":1446,"Ġpil":1447,"Ġmodati":1448,"Ġidd":1449,"avah":1450,"Ġthis":1451,"arj":1452,"Ġbhari":1453,"Ġdir":1454,"aiah":1455,"kur":1456,"ong":1457,"esham":1458,"Ġmus":1459,"ign":1460,"Ġsrisht":1461,"uc":1462,"Ġdarshak":1463,"Ġhome":1464,"akha":1465,"Ġseem":1466,"Ġpolic":1467,"Ġkond":1468,"Ġrah":1469,"Ġ''":1470,"Ġabhivruddhi":1471,"ella":1472,"Ġentha":1473,"Ġadu":1474,"Ġandist":1475,"Ġchad":1476,"var":1477,"Ġvey":1478,"ord":1479,"ukondi":1480,"inda":1481,"Ġhe":1482,"Ġkcr":1483,"Ġalaage":1484,"uvaga":1485,"ott":1486,"Ġpubl":1487,"Ġerpatu":1488,"loki":1489,"Ġrashtram":1490,"akar":1491,"ashtam":1492,"Ġsamvats":1493,"tim":1494,"iss":1495,"Ġkalu":1496,"Ġphal":1497,"Ġnad":1498,"Ġlakshm":1499,"ector":1500,"akal":1501,"har":1502,"Ġkabatti":1503,"Ġsangh":1504,"Ġgant":1505,"Ġthir":1506,"Ġop":1507,"antu":1508,"Ġnet":1509,"lone":1510,"Ġkharch":1511,"dp":1512,"Ġvaid":1513,"idha":1514,"Ġprayoj":1515,"anala":1516,"Ġtirigi":1517,"ens":1518,"Ġkendram":1519,"udh":1520,"Ġkaranam":1521,"akr":1522,"akulu":1523,"Ġlekunda":1524,"Ġatani":1525,"Ġof":1526,"Ġatanu":1527,"Ġyo":1528,"Ġsho":1529,"Ġmanas":1530,"Ġrec":1531,"Ġkante":1532,"adhi":1533,"ananni":1534,"Ġ200":1535,"Ġpolice":1536,"Ġex":1537,"Ġrashtr":1538,"che":1539,"ipai":1540,"ished":1541,"Ġ18":1542,"istaru":1543,"Ġday":1544,"Ġmig":1545,"ananu":1546,"Ġvich":1547,"Ġpell":1548,"Ġjarigina":1549,"Ġprem":1550,"Ġvividha":1551,"appatiki":1552,"Ġvidyarth":1553,"Ġchestunn":1554,"esam":1555,"Ġsamacharam":1556,"atri":1557,"iri":1558,"Ġvan":1559,"be":1560,"Ġres":1561,"Ġpalg":1562,"anug":1563,"ikr":1564,"Ġbag":1565,"eep":1566,"inchuk":1567,"Ġprajalu":1568,"aduth":1569,"Ġsoc":1570,"Ġunch":1571,"Ġsamav":1572,"Ġunnaru":1573,"Ġmud":1574,"yata":1575,"achar":1576,"alsina":1577,"Ġvatini":1578,"Ġet":1579,"inchalani":1580,"Ġmad":1581,"Ġtdp":1582,"atana":1583,"Ġnirnay":1584,"Ġtw":1585,"Ġutpatti":1586,"aman":1587,"Ġfil":1588,"alana":1589,"Ġkalp":1590,"Ġunte":1591,"Ġtra":1592,"Ġvadla":1593,"uvu":1594,"Ġendukante":1595,"Ġpanch":1596,"Ġartham":1597,"Ġvaj":1598,"Ġir":1599,"ene":1600,"inn":1601,"ations":1602,"Ġadd":1603,"yamlo":1604,"Ġpratyeka":1605,"Ġvist":1606,"ance":1607,"Ġ30":1608,"Ġpavan":1609,"alap":1610,"ve":1611,"Ġgata":1612,"Ġtees":1613,"yalu":1614,"sam":1615,"ovadam":1616,"Ġavi":1617,"olo":1618,"Ġvide":1619,"Ġokati":1620,"Ġoff":1621,"Ġbe":1622,"Ġor":1623,"uluga":1624,"ight":1625,"avari":1626,"Ġparti":1627,"Ġvyavah":1628,"Ġtakkuva":1629,"Ġang":1630,"tanga":1631,"Ġvati":1632,"Ġdesh":1633,"Ġmaru":1634,"Ġippatike":1635,"Ġkatha":1636,"Ġprakaram":1637,"ents":1638,"uh":1639,"ous":1640,"Ġdabb":1641,"Ġmukhyamantri":1642,"Ġroju":1643,"itr":1644,"Ġsy":1645,"avaram":1646,"Ġgopp":1647,"Ġenduku":1648,"Ġde":1649,"war":1650,"onnaru":1651,"Ġ2020":1652,"Ġprashn":1653,"Ġperig":1654,"Ġgod":1655,"ekk":1656,"akalu":1657,"Ġsav":1658,"Ġnepath":1659,"ood":1660,"era":1661,"aswam":1662,"Ġchell":1663,"Ġmodi":1664,"Ġphot":1665,"Ġakkada":1666,"Ġchir":1667,"Ġmatlad":1668,"itanga":1669,"Ġmadd":1670,"Ġnee":1671,"ide":1672,"Ġrep":1673,"iddh":1674,"Ġpolices":1675,"ukovadaniki":1676,"Ġchatt":1677,"Ġ2019":1678,"olu":1679,"Ġ14":1680,"li":1681,"Ġsec":1682,"Ġ00":1683,"Ġgel":1684,"Ġraksh":1685,"Ġbayat":1686,"Ġbad":1687,"Ġsc":1688,"Ġshakti":1689,"ipr":1690,"Ġkev":1691,"Ġnij":1692,"arag":1693,"Ġlu":1694,"andr":1695,"Ġhal":1696,"Ġmay":1697,"adar":1698,"Ġadhikar":1699,"Ġthees":1700,"Ġbhash":1701,"Ġmul":1702,"inchali":1703,"Ġray":1704,"arao":1705,"anamlo":1706,"Ġaarog":1707,"aluga":1708,"athu":1709,"ies":1710,"Ġundani":1711,"Ġvidhanga":1712,"Ġdas":1713,"ipu":1714,"Ġpath":1715,"istayi":1716,"Ġmov":1717,"Ġpratyek":1718,"inam":1719,"Ġide":1720,"ru":1721,"Ġ-":1722,"Ġisht":1723,"Ġmaatla":1724,"kurma":1725,"Ġkendra":1726,"its":1727,"Ġvenk":1728,"Ġbharat":1729,"ock":1730,"antha":1731,"Ġbank":1732,"Ġshatam":1733,"Ġveg":1734,"atalu":1735,"Ġanduke":1736,"Ġ25":1737,"ter":1738,"Ġmed":1739,"aloni":1740,"istu":1741,"yamaina":1742,"Ġproj":1743,"Ġparim":1744,"Ġmun":1745,"eta":1746,"Ġchutt":1747,"elo":1748,"angal":1749,"Ġkevalam":1750,"dam":1751,"Ġennikala":1752,"Ġchestunnaru":1753,"lanu":1754,"Ġaah":1755,"Ġped":1756,"Ġsocial":1757,"Ġsanstha":1758,"Ġgat":1759,"Ġlop":1760,"onna":1761,"Ġrajakeeya":1762,"Ġall":1763,"Ġproject":1764,"Ġath":1765,"Ġkada":1766,"Ġmaatlaad":1767,"Ġ13":1768,"ustom":1769,"Ġny":1770,"Ġindulo":1771,"oga":1772,"Ġyuv":1773,"anas":1774,"Ġekkuvaga":1775,"Ġvedi":1776,"Ġtelust":1777,"ork":1778,"Ġmedia":1779,"Ġdoc":1780,"Ġkakunda":1781,"eat":1782,"Ġchinn":1783,"athir":1784,"Ġedi":1785,"ipun":1786,"Ġvyavasth":1787,"Ġcharit":1788,"ukune":1789,"acchu":1790,"Ġpranth":1791,"avad":1792,"Ġvajbe":1793,"Ġrait":1794,"Ġ16":1795,"evi":1796,"Ġputt":1797,"Ġrel":1798,"Ġandol":1799,"Ġsai":1800,"araku":1801,"Ġparis":1802,"Ġparyav":1803,"inadi":1804,"uri":1805,"Ġsch":1806,"araj":1807,"ere":1808,"Ġsthayi":1809,"Ġtal":1810,"atvam":1811,"Ġpust":1812,"Ġgad":1813,"Ġams":1814,"Ġteev":1815,"Ġabhim":1816,"cy":1817,"isth":1818,"Ġprant":1819,"bhut":1820,"alante":1821,"Ġsneh":1822,"Ġvivarinchandi":1823,"Ġweb":1824,"Ġdar":1825,"Ġpreksh":1826,"ugu":1827,"anini":1828,"ry":1829,"Ġsamarth":1830,"Ġpettub":1831,"Ġadhikaarulu":1832,"arn":1833,"omm":1834,"Ġavakas":1835,"Ġdem":1836,"Ġsing":1837,"ukoni":1838,"Ġtayaru":1839,"arach":1840,"yas":1841,"Ġsampr":1842,"Ġpublished":1843,"Ġ17":1844,"icket":1845,"Ġkanug":1846,"Ġpm":1847,"ukundi":1848,"Ġpariksh":1849,"istondi":1850,"atanu":1851,"ro":1852,"evaru":1853,"alsi":1854,"elu":1855,"Ġmarp":1856,"Ġson":1857,"Ġanand":1858,"Ġsambhav":1859,"Ġjab":1860,"Ġah":1861,"Ġcustom":1862,"Ġasalu":1863,"avachu":1864,"Ġpradarsh":1865,"Ġà":1866,"Ġiddaru":1867,"Ġdec":1868,"ukunte":1869,"Ġvimars":1870,"Ġwh":1871,"Ġab":1872,"Ġanip":1873,"vam":1874,"ivas":1875,"arik":1876,"Ġsabhy":1877,"Ġvacchi":1878,"Ġtad":1879,"Ġchot":1880,"Ġparisthiti":1881,"utaru":1882,"ampai":1883,"ure":1884,"Ġatyanta":1885,"Ġposh":1886,"Ġsandarbhanga":1887,"ili":1888,"lalo":1889,"upu":1890,"Ġventane":1891,"Ġrev":1892,"Ġsm":1893,"own":1894,"Ġamalu":1895,"Ġsum":1896,"otsah":1897,"Ġhalf":1898,"Ġvyaktig":1899,"vara":1900,"Ġkarananga":1901,"hya":1902,"Ġdel":1903,"ude":1904,"ick":1905,"Ġlekap":1906,"Ġsanket":1907,"Ġes":1908,"Ġnid":1909,"ob":1910,"Ġnadu":1911,"Ġprati":1912,"Ġgrah":1913,"Ġbabu":1914,"enn":1915,"oda":1916,"yap":1917,"ates":1918,"areddy":1919,"Ġedurk":1920,"Ġcheya":1921,"Ġstar":1922,"Ġroop":1923,"Ġsul":1924,"arav":1925,"Ġvyathir":1926,"Ġpai":1927,"Ġcol":1928,"Ġprotsah":1929,"radesh":1930,"Ġibb":1931,"Ġkotla":1932,"Ġunde":1933,"ubat":1934,"ukunnaru":1935,"Ġvaru":1936,"Ġledani":1937,"alayam":1938,"Ġbhoom":1939,"Ġkonug":1940,"Ġarog":1941,"Ġsambandhinchina":1942,"Ġvyaktam":1943,"Ġcheyalani":1944,"aralanu":1945,"ile":1946,"ule":1947,"Ġcompany":1948,"Ġudah":1949,"ilu":1950,"Ġmani":1951,"ection":1952,"Ġsamprad":1953,"Ġjarigindi":1954,"Ġleni":1955,"isthundi":1956,"edani":1957,"ham":1958,"our":1959,"Ġby":1960,"ivi":1961,"diga":1962,"ukuntunn":1963,"Ġtech":1964,"Ġshiksh":1965,"amga":1966,"Ġchadu":1967,"Ġilanti":1968,"Ġha":1969,"Ġkaani":1970,"pi":1971,"akala":1972,"aji":1973,"ukovali":1974,"Ġvant":1975,"Ġeppudu":1976,"utunnayi":1977,"Ġkam":1978,"Ġphone":1979,"ment":1980,"uvanti":1981,"Ġanuv":1982,"addu":1983,"Ġpatra":1984,"Ġvarsh":1985,"Ġvand":1986,"arup":1987,"Ġanna":1988,"arini":1989,"Ġdash":1990,"ulalo":1991,"Ġaid":1992,"Ġlok":1993,"Ġbharatha":1994,"Ġkil":1995,"Ġbi":1996,"Ġench":1997,"Ġpanichest":1998,"Ġtim":1999,"Ġchik":2000,"karam":2001,"Ġnepathyamlo":2002,"Ġsara":2003,"Ġkumar":2004,"riti":2005,"Ġsep":2006,"gh":2007,"undo":2008,"ello":2009,"Ġcharyalu":2010,"Ġvyakhy":2011,"Ġtelisinde":2012,"ima":2013,"apr":2014,"inand":2015,"Ġelanti":2016,"Ġsrin":2017,"Ġread":2018,"agam":2019,"apaduthundi":2020,"imm":2021,"etti":2022,"Ġvarg":2023,"Ġnirnayam":2024,"Ġtajaga":2025,"inchavachchu":2026,"atmaka":2027,"ariga":2028,"Ġopp":2029,"Ġvacchindi":2030,"Ġeng":2031,"Ġdani":2032,"Ġanubhav":2033,"Ġki":2034,"Ġroja":2035,"avacchu":2036,"ananiki":2037,"Ġadig":2038,"Ġpurtiga":2039,"Ġpracharam":2040,"Ġpap":2041,"Ġmaatlaadutu":2042,"Ġdarit":2043,"Ġcov":2044,"Ġmunduku":2045,"Ġmoth":2046,"Ġlev":2047,"Ġabhipr":2048,"Ġveer":2049,"Ġago":2050,"Ġdadapu":2051,"Ġkott":2052,"Ġabhyarth":2053,"Ġkasht":2054,"usht":2055,"Ġever":2056,"Ġento":2057,"Ġmerugup":2058,"oju":2059,"Ġtamil":2060,"Ġsaha":2061,"ft":2062,"Ġkendr":2063,"Ġokka":2064,"mine":2065,"Ġdis":2066,"Ġsankhya":2067,"Ġdaggara":2068,"Ġvallu":2069,"emp":2070,"Ġadug":2071,"Ġ50":2072,"impu":2073,"Ġchestunna":2074,"ric":2075,"Ġrash":2076,"Ġkalyan":2077,"Ġdoctor":2078,"ge":2079,"Ġqu":2080,"Ġpod":2081,"Ġdemand":2082,"raj":2083,"emb":2084,"Ġennikallo":2085,"Ġfilm":2086,"ami":2087,"Ġedaina":2088,"Ġ24":2089,"Ġcheyabad":2090,"Ġprapancha":2091,"ons":2092,"Ġsay":2093,"abha":2094,"ukuntu":2095,"Ġutpatt":2096,"Ġnov":2097,"avaaram":2098,"olly":2099,"co":2100,"alane":2101,"ida":2102,"alay":2103,"Ġsri":2104,"ence":2105,"ishy":2106,"Ġgaru":2107,"Ġstr":2108,"iva":2109,"Ġret":2110,"laku":2111,"Ġniy":2112,"Ġphalit":2113,"Ġpakk":2114,"avantamaina":2115,"ave":2116,"adas":2117,"Ġgoppa":2118,"Ġsadharananga":2119,"umm":2120,"Ġbhay":2121,"Ġsakha":2122,"Ġvarini":2123,"Ġniyam":2124,"Ġsthir":2125,"Ġbus":2126,"Ġdor":2127,"Ġbhadr":2128,"Ġ2021":2129,"Ġandubat":2130,"Ġantha":2131,"uvulu":2132,"Ġchusi":2133,"get":2134,"adarsh":2135,"Ġ2018":2136,"Ġdesam":2137,"gy":2138,"Ġgov":2139,"Ġjeevith":2140,"Ġnannu":2141,"Ġsanksh":2142,"raksh":2143,"ikanga":2144,"Ġindia":2145,"Ġsanch":2146,"Ġcheyy":2147,"Ġandubatulo":2148,"Ġur":2149,"Ġparich":2150,"da":2151,"Ġviluv":2152,"Ġdeb":2153,"Ġmukhyanga":2154,"ated":2155,"Ġprekshak":2156,"Ġrag":2157,"urt":2158,"Ġpoy":2159,"Ġkarm":2160,"Ġappudu":2161,"Ġivi":2162,"Ġsanvats":2163,"Ġempic":2164,"ukunnadu":2165,"Ġdata":2166,"asta":2167,"onda":2168,"Ġpelli":2169,"iz":2170,"Ġone":2171,"Ġchoos":2172,"Ġamerica":2173,"ulapai":2174,"way":2175,"Ġjagr":2176,"Ġsahayapaduthundi":2177,"Ġsadharana":2178,"Ġsahaj":2179,"Ġsampad":2180,"Ġades":2181,"Ġkaran":2182,"iah":2183,"ission":2184,"eer":2185,"Ġmovie":2186,"Ġichchina":2187,"Ġniyantr":2188,"Ġmam":2189,"ekap":2190,"agala":2191,"Ġparig":2192,"Ġsann":2193,"lesh":2194,"Ġspand":2195,"wood":2196,"ump":2197,"Ġapr":2198,"Ġvideo":2199,"ink":2200,"Ġanus":2201,"arlu":2202,"Ġandulo":2203,"line":2204,"Ġkonta":2205,"Ġabhiman":2206,"Ġsel":2207,"Ġlakshala":2208,"arv":2209,"Ġchesadu":2210,"riy":2211,"Ġoc":2212,"Ġsinimalo":2213,"Ġbandh":2214,"Ġcoll":2215,"Ġkram":2216,"Ġadbhut":2217,"Ġparishram":2218,"asi":2219,"Ġus":2220,"ipot":2221,"akanga":2222,"Ġrod":2223,"oor":2224,"Ġdeeni":2225,"adup":2226,"Ġnamod":2227,"avaranam":2228,"Ġdeeniki":2229,"Ġchestu":2230,"utayi":2231,"gah":2232,"Ġmahesh":2233,"oka":2234,"ishti":2235,"Ġ21":2236,"ics":2237,"Ġvadd":2238,"ikarinch":2239,"ikar":2240,"Ġsansth":2241,"Ġvyathirek":2242,"eval":2243,"Ġvishay":2244,"china":2245,"Ġvet":2246,"Ġsub":2247,"Ġundali":2248,"mi":2249,"Ġdiv":2250,"Ġroopond":2251,"Ġmanch":2252,"Ġedadi":2253,"Ġpos":2254,"les":2255,"Ġupd":2256,"Ġedo":2257,"ukun":2258,"ipad":2259,"Ġpas":2260,"Ġgan":2261,"Ġvirus":2262,"eyadam":2263,"inna":2264,"Ġvatav":2265,"day":2266,"Ġevaru":2267,"imcharu":2268,"ji":2269,"alone":2270,"ines":2271,"eak":2272,"Ġsams":2273,"Ġsamasya":2274,"Ġlanti":2275,"Ġsthanic":2276,"tt":2277,"Ġnalugu":2278,"sip":2279,"Ġcommun":2280,"Ġjul":2281,"Ġtanaku":2282,"ollywood":2283,"Ġnuv":2284,"Ġry":2285,"Ġsamadh":2286,"Ġmokk":2287,"Ġpaigah":2288,"Ġchaduv":2289,"arp":2290,"eng":2291,"Ġudaharan":2292,"ese":2293,"Ġsamajic":2294,"Ġsek":2295,"Ġmaaji":2296,"Ġudd":2297,"india":2298,"ool":2299,"Ġrail":2300,"Ġardh":2301,"Ġmahil":2302,"Ġkul":2303,"Ġchikits":2304,"Ġpradesh":2305,"Ġjeevit":2306,"Ġundhi":2307,"ors":2308,"anc":2309,"Ġprajala":2310,"Ġcompani":2311,"Ġsamip":2312,"ark":2313,"Ġandaru":2314,"rapradesh":2315,"osari":2316,"inchin":2317,"urav":2318,"Ġiteval":2319,"Ġjatiya":2320,"Ġaadh":2321,"apa":2322,"arud":2323,"ees":2324,"Ġstor":2325,"anya":2326,"Ġkir":2327,"itha":2328,"alue":2329,"ardh":2330,"Ġsom":2331,"Ġmet":2332,"yak":2333,"unnadu":2334,"akrish":2335,"Ġsamachar":2336,"Ġbab":2337,"Ġkann":2338,"Ġparishkarinch":2339,"able":2340,"Ġenth":2341,"Ġtop":2342,"Ġtelustondi":2343,"yalanu":2344,"Ġvyaktigata":2345,"Ġ22":2346,"Ġenno":2347,"atya":2348,"Ġyuddh":2349,"Ġdanini":2350,"Ġatt":2351,"arap":2352,"Ġmla":2353,"andri":2354,"Ġrog":2355,"oo":2356,"Ġsrinivas":2357,"Ġtrs":2358,"Ġvishlesh":2359,"Ġgatamlo":2360,"Ġbang":2361,"Ġcont":2362,"Ġshoot":2363,"Ġtall":2364,"Ġanchana":2365,"Ġprabhavam":2366,"Ġmoh":2367,"Ġntr":2368,"Ġkonugolu":2369,"Ġtest":2370,"arim":2371,"adanni":2372,"Ġmigil":2373,"Ġprach":2374,"Ġbharath":2375,"etini":2376,"Ġdat":2377,"Ġcheyaali":2378,"uda":2379,"Ġcase":2380,"aktini":2381,"andam":2382,"Ġcustomer":2383,"ung":2384,"Ġneeti":2385,"Ġdirector":2386,"ado":2387,"Ġdesamlo":2388,"ia":2389,"ukha":2390,"Ġtis":2391,"Ġmanav":2392,"ital":2393,"eral":2394,"Ġsib":2395,"Ġnit":2396,"Ġjarag":2397,"Ġ100":2398,"iew":2399,"Ġrele":2400,"Ġcheste":2401,"Ġsarain":2402,"Ġsamp":2403,"Ġbill":2404,"Ġandhrapradesh":2405,"Ġaug":2406,"Ġvenkat":2407,"atayi":2408,"alah":2409,"Ġkondaru":2410,"Ġnethalu":2411,"20":2412,"abadi":2413,"inchal":2414,"Ġassemb":2415,"for":2416,"Ġsuper":2417,"Ġrun":2418,"''":2419,"Ġbrah":2420,"eeksh":2421,"Ġatm":2422,"Ġpramukh":2423,"Ġkalam":2424,"Ġpran":2425,"osh":2426,"upai":2427,"Ġkaga":2428,"asan":2429,"arula":2430,"Ġvidya":2431,"Ġekkada":2432,"Ġdrishti":2433,"Ġnagar":2434,"Ġà¤":2435,"ukovalani":2436,"itilo":2437,"atnam":2438,"Ġpravesh":2439,"Ġnadi":2440,"ukovachu":2441,"Ġmur":2442,"ipi":2443,"Ġemm":2444,"Ġpart":2445,"Ġrojula":2446,"out":2447,"odi":2448,"Ġgund":2449,"Ġgandh":2450,"Ġkaru":2451,"Ġ23":2452,"Ġim":2453,"Ġbud":2454,"Ġcompanies":2455,"Ġassembly":2456,"Ġneeru":2457,"Ġakarsh":2458,"Ġalanti":2459,"Ġaav":2460,"Ġmanish":2461,"Ġdebb":2462,"ukuntaru":2463,"Ġsiddam":2464,"Ġmukhyamaina":2465,"Ġrecord":2466,"agar":2467,"uki":2468,"Ġansh":2469,"Ġvik":2470,"Ġsamaves":2471,"Ġach":2472,"Ġsouk":2473,"Ġink":2474,"Ġadhyaksha":2475,"Ġkaryakramam":2476,"Ġinti":2477,"Ġudyam":2478,"Ġadharanga":2479,"Ġparam":2480,"Ġpatla":2481,"Ġmark":2482,"Ġrachay":2483,"ura":2484,"Ġemi":2485,"Ġpriv":2486,"Ġset":2487,"pa":2488,"ace":2489,"Ġkutumba":2490,"Ġnot":2491,"Ġnimish":2492,"Ġsangathi":2493,"Ġted":2494,"agane":2495,"Ġswee":2496,"Ġapril":2497,"Ġoke":2498,"Ġbig":2499,"akram":2500,"atch":2501,"Ġperkonnaru":2502,"uta":2503,"Ġnasht":2504,"adiki":2505,"Ġuttam":2506,"dish":2507,"Ġpradhani":2508,"unch":2509,"atl":2510,"Ġscr":2511,"anda":2512,"atta":2513,"Ġmi":2514,"unanga":2515,"Ġavaga":2516,"Ġnalug":2517,"Ġintlo":2518,"Ġmanaku":2519,"Ġsinimalu":2520,"bi":2521,"Ġip":2522,"Ġmodal":2523,"aty":2524,"adhyam":2525,"Ġba":2526,"Ġgn":2527,"ct":2528,"Ġsahayapad":2529,"Ġnilich":2530,"Ġmas":2531,"akalam":2532,"Ġadhikaram":2533,"ipoyindi":2534,"Ġmy":2535,"idu":2536,"Ġudh":2537,"Ġvastundi":2538,"amika":2539,"aniv":2540,"anny":2541,"Ġsamud":2542,"Ġchuttu":2543,"Ġarr":2544,"Ġrao":2545,"Ġhind":2546,"Ġtoli":2547,"akaram":2548,"Ġcheyavachu":2549,"Ġavasaramaina":2550,"Ġtit":2551,"undam":2552,"antram":2553,"Ġpaksh":2554,"Ġyaj":2555,"Ġanumat":2556,"Ġvsip":2557,"Ġrem":2558,"Ġblo":2559,"Ġpanulu":2560,"Ġcav":2561,"Ġvyapar":2562,"Ġsambandham":2563,"Ġloni":2564,"Ġsarv":2565,"untaru":2566,"ication":2567,"Ġveld":2568,"utund":2569,"atra":2570,"charu":2571,"Ġundatam":2572,"Ġwork":2573,"Ġbhavishy":2574,"Ġsamsth":2575,"analaku":2576,"Ġpranal":2577,"Ġnird":2578,"Ġvest":2579,"esaru":2580,"Ġparishil":2581,"Ġkinda":2582,"me":2583,"inappatiki":2584,"Ġbharatad":2585,"Ġelect":2586,"Ġdarshakudu":2587,"gam":2588,"Ġeg":2589,"Ġonline":2590,"Ġdecember":2591,"Ġavagaah":2592,"Ġpet":2593,"Ġnum":2594,"ja":2595,"Ġjillalo":2596,"Ġeth":2597,"Ġparichayam":2598,"Ġprajalaku":2599,"Ġmeraku":2600,"Ġkesulu":2601,"Ġkilaka":2602,"Ġcomput":2603,"tember":2604,"Ġchestaru":2605,"Ġnagaram":2606,"anyata":2607,"Ġcheppina":2608,"Ġreg":2609,"Ġemiti":2610,"Ġmodalu":2611,"Ġmadhy":2612,"animch":2613,"ement":2614,"Ġhr":2615,"diki":2616,"the":2617,"avaru":2618,"emo":2619,"avadam":2620,"Ġhakk":2621,"ettu":2622,"tie":2623,"ton":2624,"Ġitara":2625,"Ġchat":2626,"Ġthol":2627,"Ġbatt":2628,"Ġbayataku":2629,"Ġananth":2630,"Ġvibhaj":2631,"Ġdhara":2632,"Ġundi":2633,"Ġgari":2634,"Ġjune":2635,"iya":2636,"Ġrelease":2637,"Ġunit":2638,"Ġledu":2639,"inavi":2640,"Ġdil":2641,"angam":2642,"Ġandistundi":2643,"Ġmaddathu":2644,"Ġseptember":2645,"Ġtechn":2646,"ational":2647,"Ġmahila":2648,"Ġchivari":2649,"Ġparidh":2650,"Ġvatavaranam":2651,"cort":2652,"ayanga":2653,"esindi":2654,"Ġaugust":2655,"Ġocto":2656,"Ġintern":2657,"Ġavutundi":2658,"Ġtapp":2659,"Ġarop":2660,"Ġmp":2661,"Ġkanugon":2662,"Ġbhaganga":2663,"Ġgop":2664,"Ġkrishna":2665,"Ġannadu":2666,"Ġnati":2667,"Ġsubh":2668,"ranga":2669,"Ġandariki":2670,"Ġpramadam":2671,"Ġmantr":2672,"kal":2673,"tain":2674,"Ġkarn":2675,"Ġaarogya":2676,"Ġprakriya":2677,"Ġvastav":2678,"yatanu":2679,"Ġvinip":2680,"Ġtv":2681,"aham":2682,"Ġvadil":2683,"reddy":2684,"oz":2685,"Ġanta":2686,"Ġchamp":2687,"Ġlock":2688,"avalas":2689,"ver":2690,"Ġame":2691,"Ġ000":2692,"Ġdrush":2693,"bandi":2694,"Ġuntaru":2695,"Ġfeb":2696,"Ġbhum":2697,"Ġrakala":2698,"unnatlu":2699,"ings":2700,"Ġvarthalu":2701,"Ġhari":2702,"Ġparyat":2703,"Ġjuly":2704,"Ġchina":2705,"Ġsain":2706,"alanni":2707,"Ġandolan":2708,"Ġhit":2709,"Ġamma":2710,"Ġtamu":2711,"of":2712,"akud":2713,"Ġdharm":2714,"Ġpramukha":2715,"Ġengine":2716,"Ġsankhy":2717,"iloni":2718,"Ġprivate":2719,"Ġteevra":2720,"Ġcent":2721,"Ġthappa":2722,"lato":2723,"Ġduram":2724,"Ġleka":2725,"Ġmandal":2726,"ling":2727,"Ġnavv":2728,"Ġoctober":2729,"Ġvyavastha":2730,"Ġpolit":2731,"asari":2732,"Ġaad":2733,"Ġmal":2734,"Ġgamani":2735,"atanto":2736,"ankar":2737,"wer":2738,"Ġbar":2739,"Ġswam":2740,"Ġsaitham":2741,"Ġjay":2742,"Ġpack":2743,"avid":2744,"adiga":2745,"Ġchood":2746,"Ġvaste":2747,"adhy":2748,"ne":2749,"oss":2750,"Ġkall":2751,"arudu":2752,"Ġtaral":2753,"ira":2754,"ondani":2755,"ose":2756,"Ġprarambham":2757,"Ġcommitt":2758,"aa":2759,"athulu":2760,"Ġsthayilo":2761,"Ġmodala":2762,"Ġcovid":2763,"Ġmarov":2764,"Ġdelhi":2765,"Ġvaidya":2766,"Ġvidi":2767,"Ġtime":2768,"anjeev":2769,"Ġdaksh":2770,"ellu":2771,"ction":2772,"Ġappat":2773,"urs":2774,"Ġtvar":2775,"Ġvidhanam":2776,"ukol":2777,"Ġsingh":2778,"Ġantunnaru":2779,"Ġshooting":2780,"angane":2781,"Ġtalli":2782,"Ġpottie":2783,"tif":2784,"endra":2785,"Ġprema":2786,"Ġfirst":2787,"ochch":2788,"Ġkhachch":2789,"Ġvishayanni":2790,"Ġsahayam":2791,"Ġtedi":2792,"ue":2793,"Ġsal":2794,"chary":2795,"Ġchakk":2796,"unnadi":2797,"Ġcourt":2798,"Ġjant":2799,"Ġbhakt":2800,"Ġrojulu":2801,"Ġanukul":2802,"Ġsad":2803,"Ġkotte":2804,"arya":2805,"addaru":2806,"Ġtarach":2807,"was":2808,"Ġ26":2809,"Ġmimm":2810,"Ġnidh":2811,"Ġdaaniki":2812,"Ġsant":2813,"eed":2814,"Ġantarj":2815,"esharu":2816,"Ġpettubad":2817,"Ġkasta":2818,"inattu":2819,"Ġsnehit":2820,"ode":2821,"ology":2822,"Ġcre":2823,"Ġsumaru":2824,"ole":2825,"Ġmarovipu":2826,"Ġjat":2827,"Ġanantharam":2828,"Ġare":2829,"assu":2830,"erp":2831,"Ġ28":2832,"Ġtecch":2833,"Ġ40":2834,"arma":2835,"Ġnayakulu":2836,"akka":2837,"Ġchiranjeev":2838,"Ġooh":2839,"anis":2840,"Ġtarachuga":2841,"lon":2842,"ph":2843,"Ġsamasyalu":2844,"ukuntunnaru":2845,"abot":2846,"Ġkharchu":2847,"asu":2848,"Ġbhagaswam":2849,"Ġtarag":2850,"Ġsambhavya":2851,"Ġjagrath":2852,"Ġ27":2853,"Ġalochana":2854,"Ġchall":2855,"Ġniras":2856,"Ġty":2857,"atham":2858,"po":2859,"Ġnivas":2860,"alatho":2861,"Ġavagaahana":2862,"Ġcharitr":2863,"Ġbhoomi":2864,"Ġsambandhinchi":2865,"gaa":2866,"Ġfin":2867,"Ġdanny":2868,"eku":2869,"ukova":2870,"ise":2871,"Ġmanava":2872,"Ġchikitsa":2873,"ukup":2874,"19":2875,"ily":2876,"jay":2877,"Ġparv":2878,"Ġdesign":2879,"amma":2880,"Ġpurt":2881,"Ġmargam":2882,"Ġplan":2883,"urth":2884,"rama":2885,"Ġadbhutamaina":2886,"Ġarrest":2887,"Ġpillalu":2888,"Ġgen":2889,"Ġkanipinch":2890,"'s":2891,"Ġchani":2892,"Ġgandhi":2893,"ayanam":2894,"Ġdriv":2895,"Ġaut":2896,"akapote":2897,"erg":2898,"Ġantek":2899,"Ġvarus":2900,"ipoth":2901,"Ġvyayam":2902,"Ġshaktini":2903,"Ġperuto":2904,"Ġdinini":2905,"Ġbaru":2906,"arust":2907,"Ġnish":2908,"Ġcheyal":2909,"Ġdvara":2910,"antosh":2911,"Ġvidyut":2912,"Ġback":2913,"utundani":2914,"Ġmir":2915,"Ġmanu":2916,"Ġsuk":2917,"Ġmach":2918,"Ġichcharu":2919,"py":2920,"Ġvund":2921,"ipo":2922,"Ġhigh":2923,"Ġkottu":2924,"Ġthall":2925,"Ġnibandh":2926,"Ġspashtam":2927,"Ġsign":2928,"akudu":2929,"Ġmimmalni":2930,"Ġevery":2931,"Ġheroin":2932,"Ġudhayam":2933,"Ġotti":2934,"por":2935,"Ġkonn":2936,"Ġwith":2937,"Ġvalue":2938,"Ġrailway":2939,"Ġtandri":2940,"ayyaru":2941,"Ġseni":2942,"Ġanug":2943,"Ġneoz":2944,"Ġparinam":2945,"Ġbhadrata":2946,"Ġlat":2947,"Ġvesi":2948,"Ġprapancham":2949,"Ġandhra":2950,"Ġaksh":2951,"Ġnovember":2952,"etappudu":2953,"Ġsthay":2954,"Ġdhany":2955,"Ġdoor":2956,"odhana":2957,"Ġpratin":2958,"Ġtelusu":2959,"Ġsariram":2960,"Ġsibbandi":2961,"Ġmall":2962,"Ġrendo":2963,"Ġshikshana":2964,"yaniki":2965,"emi":2966,"Ġprashna":2967,"umar":2968,"Ġgramam":2969,"Ġsantosh":2970,"Ġdown":2971,"Ġaf":2972,"Ġchair":2973,"Ġfiry":2974,"Ġparyavaran":2975,"Ġity":2976,"Ġuch":2977,"Ġpant":2978,"Ġmag":2979,"Ġkalamlo":2980,"ruary":2981,"Ġinter":2982,"Ġintiki":2983,"tilo":2984,"Ġviniyogadar":2985,"uvula":2986,"Ġvenuka":2987,"Ġmaata":2988,"Ġsamraksh":2989,"Ġinst":2990,"Ġcarb":2991,"Ġjanu":2992,"eetham":2993,"Ġkarmik":2994,"Ġvalana":2995,"Ġbharya":2996,"Ġuts":2997,"Ġaidhu":2998,"Ġbadhyat":2999,"Ġgani":3000,"stem":3001,"Ġshiv":3002,"Ġgala":3003,"Ġjanas":3004,"Ġfebruary":3005,"iny":3006,"untundi":3007,"Ġport":3008,"Ġsamb":3009,"Ġtaja":3010,"chindi":3011,"Ġarj":3012,"Ġaaharam":3013,"Ġoneindia":3014,"Ġ29":3015,"Ġasakti":3016,"ipt":3017,"Ġsamard":3018,"son":3019,"Ġdeenni":3020,"inchagal":3021,"Ġseri":3022,"Ġraju":3023,"Ġpemp":3024,"eg":3025,"Ġindh":3026,"Ġran":3027,"oyina":3028,"atan":3029,"Ġsansk":3030,"Ġsun":3031,"Ġcap":3032,"Ġnaipun":3033,"Ġsanghatana":3034,"Ġkilo":3035,"Ġprastuta":3036,"amb":3037,"Ġprodu":3038,"ukuntunna":3039,"Ġsamiksh":3040,"Ġintha":3041,"Ġkapad":3042,"apett":3043,"Ġsamadhanam":3044,"Ġ2017":3045,"Ġrojullo":3046,"Ġair":3047,"Ġkap":3048,"Ġnipun":3049,"Ġcommission":3050,"Ġsanvatsaram":3051,"Ġsupr":3052,"abd":3053,"ano":3054,"Ġsystem":3055,"alp":3056,"Ġchepatt":3057,"Ġpadarth":3058,"ramaina":3059,"Ġaayana":3060,"avett":3061,"ohan":3062,"Ġhot":3063,"Ġmaj":3064,"Ġprabhavitam":3065,"aryam":3066,"Ġkas":3067,"Ġlekk":3068,"dd":3069,"Ġout":3070,"Ġdesha":3071,"Ġdabbu":3072,"Ġkudin":3073,"sr":3074,"Ġdish":3075,"cess":3076,"astu":3077,"aha":3078,"Ġkaadu":3079,"Ġmill":3080,"arinchina":3081,"Ġjanm":3082,"ke":3083,"itamaina":3084,"Ġbhoj":3085,"Ġnirdish":3086,"Ġjanuary":3087,"Ġdakk":3088,"lonu":3089,"upp":3090,"Ġprachur":3091,"Ġchesth":3092,"ament":3093,"Ġz":3094,"Ġtap":3095,"unnarani":3096,"Ġmarosari":3097,"Ġsanketika":3098,"Ġdeep":3099,"Ġviniyogad":3100,"Ġmeruguparach":3101,"akrishna":3102,"Ġgam":3103,"akalanu":3104,"Ġmedialo":3105,"Ġkoth":3106,"Ġvatavarana":3107,"Ġganani":3108,"Ġmore":3109,"Ġdaritistundi":3110,"Ġsoft":3111,"Ġkaligina":3112,"Ġsakt":3113,"Ġibband":3114,"inchayi":3115,"Ġpooj":3116,"Ġbatti":3117,"Ġippatiki":3118,"Ġast":3119,"enani":3120,"Ġviluva":3121,"Ġx":3122,"inchenduku":3123,"apati":3124,"vi":3125,"Ġgantala":3126,"avantanga":3127,"Ġug":3128,"Ġja":3129,"Ġspasht":3130,"Ġchadiv":3131,"ason":3132,"sa":3133,"Ġdal":3134,"Ġsahit":3135,"Ġline":3136,"Ġpanit":3137,"Ġnuvvu":3138,"Ġbut":3139,"ions":3140,"ekhar":3141,"Ġnamodhu":3142,"Ġguruv":3143,"dr":3144,"Ġconn":3145,"ulni":3146,"Ġgurth":3147,"els":3148,"Ġchestayi":3149,"Ġparties":3150,"Ġdep":3151,"Ġvyakhyalu":3152,"arat":3153,"Ġgal":3154,"incadaniki":3155,"Ġmugg":3156,"Ġratri":3157,"Ġprasad":3158,"Ġkrishn":3159,"Ġpadav":3160,"Ġgadi":3161,"Ġgreen":3162,"Ġrajakeey":3163,"idandr":3164,"ayan":3165,"Ġravana":3166,"Ġbudget":3167,"arut":3168,"ouse":3169,"Ġpaduth":3170,"ota":3171,"Ġcorr":3172,"amaindi":3173,"anist":3174,"arika":3175,"aut":3176,"Ġmob":3177,"Ġsandarsh":3178,"Ġhim":3179,"timpu":3180,"Ġpav":3181,"uloki":3182,"Ġasup":3183,"Ġprakatana":3184,"Ġlab":3185,"Ġhas":3186,"Ġsamacharanni":3187,"Ġgol":3188,"Ġsarf":3189,"Ġrangamlo":3190,"lan":3191,"Ġshock":3192,"Ġmandiki":3193,"cal":3194,"ipal":3195,"Ġduramlo":3196,"Ġcharitra":3197,"Ġkoraku":3198,"Ġkanisam":3199,"anku":3200,"Ġsamajam":3201,"Ġlen":3202,"Ġmukk":3203,"oye":3204,"Ġanduv":3205,"eek":3206,"ism":3207,"pur":3208,"avy":3209,"Ġvyas":3210,"ovadanto":3211,"Ġpaina":3212,"Ġsmart":3213,"Ġteam":3214,"Ġkrm":3215,"Ġveldi":3216,"atram":3217,"anyam":3218,"Ġvyathirekanga":3219,"Ġupayoginchadam":3220,"Ġuntundani":3221,"Ġantaru":3222,"Ġsenior":3223,"Ġmarpulu":3224,"akanni":3225,"Ġdadi":3226,"Ġvani":3227,"Ġbhagam":3228,"Ġcard":3229,"Ġtolag":3230,"Ġull":3231,"Ġmanasika":3232,"Ġantarjatiya":3233,"Ġchiranjeevi":3234,"adha":3235,"Ġserv":3236,"Ġnivedi":3237,"Ġnak":3238,"istan":3239,"Ġnijam":3240,"Ġnelak":3241,"Ġbhasha":3242,"Ġell":3243,"anapu":3244,"yulu":3245,"Ġpul":3246,"Ġkutumbam":3247,"Ġprog":3248,"Ġamarav":3249,"Ġnirdishta":3250,"Ġtitle":3251,"ins":3252,"Ġchuste":3253,"Ġupayoginch":3254,"liament":3255,"Ġdanto":3256,"Ġnirmanam":3257,"Ġsabhyulu":3258,"arimch":3259,"Ġvijayam":3260,"acu":3261,"Ġbahir":3262,"okunda":3263,"Ġfl":3264,"ikaran":3265,"ches":3266,"udini":3267,"ireddy":3268,"Ġprayog":3269,"atic":3270,"Ġtin":3271,"Ġbas":3272,"Ġgovern":3273,"antaram":3274,"Ġcorpor":3275,"ayya":3276,"Ġcy":3277,"ikarana":3278,"Ġtagina":3279,"Ġnyayam":3280,"Ġkadani":3281,"Ġpag":3282,"Ġbalmine":3283,"mar":3284,"Ġsiddh":3285,"Ġrahul":3286,"Ġkapp":3287,"Ġcare":3288,"ikalu":3289,"Ġkrmamlo":3290,"ived":3291,"Ġmaaku":3292,"Ġsod":3293,"Ġcine":3294,"Ġsit":3295,"Ġpall":3296,"Ġparliament":3297,"ward":3298,"Ġmaroka":3299,"Ġprac":3300,"abham":3301,"atvamlo":3302,"Ġkanti":3303,"Ġupayoginchi":3304,"Ġchaala":3305,"Ġver":3306,"Ġmodata":3307,"Ġpush":3308,"Ġneth":3309,"Ġpower":3310,"Ġett":3311,"Ġalav":3312,"ox":3313,"Ġnal":3314,"Ġmangal":3315,"alloki":3316,"Ġupp":3317,"Ġsamvatsarala":3318,"Ġadananga":3319,"Ġjabit":3320,"Ġparug":3321,"Ġella":3322,"Ġviral":3323,"Ġmarkets":3324,"Ġkant":3325,"inat":3326,"Ġmumb":3327,"Ġcheppadu":3328,"iram":3329,"xt":3330,"Ġasp":3331,"vas":3332,"Ġpadi":3333,"lam":3334,"Ġtat":3335,"Ġvig":3336,"Ġkonch":3337,"Ġkavadam":3338,"hil":3339,"Ġvivaralu":3340,"Ġchebutunnaru":3341,"attuga":3342,"Ġupdated":3343,"Ġlatest":3344,"Ġvipe":3345,"Ġjod":3346,"pe":3347,"Ġadhyaksh":3348,"arinchadaniki":3349,"Ġart":3350,"Ġprof":3351,"Ġpratik":3352,"Ġpaath":3353,"Ġsthanam":3354,"Ġchalam":3355,"Ġottidi":3356,"ichi":3357,"Ġkashtam":3358,"Ġibbandi":3359,"Ġsare":3360,"ound":3361,"eema":3362,"Ġplay":3363,"Ġprathamika":3364,"Ġvellad":3365,"utr":3366,"Ġaudi":3367,"Ġtagginchadaniki":3368,"Ġbadhyata":3369,"Ġlanu":3370,"Ġbollywood":3371,"Ġsambh":3372,"Ġthat":3373,"Ġcollector":3374,"pot":3375,"Ġwebs":3376,"Ġtheesukovadam":3377,"Ġdoll":3378,"Ġmatalu":3379,"arindi":3380,"Ġjeevitam":3381,"undaga":3382,"Ġ31":3383,"Ġabout":3384,"Ġchandrabab":3385,"Ġmigilin":3386,"Ġnirdh":3387,"Ġcarbon":3388,"Ġparigan":3389,"Ġbrahm":3390,"raham":3391,"Ġsir":3392,"Ġform":3393,"Ġavakasalu":3394,"Ġchur":3395,"Ġrasina":3396,"ony":3397,"count":3398,"Ġbat":3399,"Ġox":3400,"Ġprogram":3401,"Ġsast":3402,"Ġ199":3403,"Ġush":3404,"Ġcal":3405,"Ġmott":3406,"yoga":3407,"Ġproc":3408,"Ġcommittee":3409,"act":3410,"Ġvam":3411,"Ġsoukary":3412,"Ġsab":3413,"Ġkash":3414,"anundi":3415,"Ġinn":3416,"anallo":3417,"Ġravadam":3418,"Ġjarugut":3419,"Ġlakshmi":3420,"laksh":3421,"Ġprayath":3422,"Ġpoint":3423,"epp":3424,"Ġtelugud":3425,"Ġcharcha":3426,"idhi":3427,"undane":3428,"Ġnatinchina":3429,"Ġmartu":3430,"Ġtweet":3431,"Ġbharatiya":3432,"araga":3433,"land":3434,"Ġmon":3435,"Ġgu":3436,"Ġill":3437,"Ġtod":3438,"ering":3439,"Ġippati":3440,"met":3441,"Ġadanapu":3442,"Ġtholag":3443,"inanta":3444,"Ġardam":3445,"bal":3446,"Ġsamsk":3447,"Ġneti":3448,"Ġayanaku":3449,"oru":3450,"res":3451,"Ġkritam":3452,"Ġgay":3453,"Ġkurma":3454,"Ġchitra":3455,"ition":3456,"Ġsched":3457,"rata":3458,"Ġyou":3459,"Ġthagg":3460,"Ġvishayalu":3461,"Ġkallu":3462,"Ġkala":3463,"Ġpettubadi":3464,"rak":3465,"Ġcricket":3466,"Ġ35":3467,"Ġmid":3468,"Ġraddu":3469,"Ġbreak":3470,"Ġhycort":3471,"amo":3472,"Ġjail":3473,"Ġchitranni":3474,"Ġadhun":3475,"Ġvela":3476,"Ġcharg":3477,"Ġnindi":3478,"Ġmohan":3479,"Ġamb":3480,"Ġvacc":3481,"Ġshare":3482,"so":3483,"Ġ2014":3484,"Ġfri":3485,"Ġmobile":3486,"Ġvisw":3487,"Ġthallidandr":3488,"Ġcomments":3489,"anir":3490,"Ġoper":3491,"Ġspec":3492,"Ġraitulu":3493,"avutundi":3494,"Ġkov":3495,"Ġinterv":3496,"Ġmaarindi":3497,"ushi":3498,"form":3499,"Ġnirmata":3500,"Ġtisukuni":3501,"Ġmanag":3502,"Ġundadu":3503,"Ġkooda":3504,"Ġbath":3505,"ones":3506,"Ġenter":3507,"Ġpraja":3508,"Ġkanna":3509,"imchi":3510,"ayo":3511,"Ġswat":3512,"Ġjabita":3513,"Ġuddesh":3514,"Ġmarik":3515,"Ġsangeet":3516,"incham":3517,"asala":3518,"Ġtayari":3519,"anunnaru":3520,"Ġjap":3521,"Ġtamaku":3522,"Ġbook":3523,"Ġnumber":3524,"Ġakatt":3525,"Ġakkadi":3526,"uz":3527,"Ġjarugutundi":3528,"Ġkothaga":3529,"Ġemit":3530,"Ġabb":3531,"Ġkalipi":3532,"Ġkeel":3533,"lim":3534,"Ġpodi":3535,"Ġvyavasaya":3536,"Ġketa":3537,"Ġsunn":3538,"Ġnin":3539,"Ġopen":3540,"Ġseva":3541,"lish":3542,"Ġsulbh":3543,"Ġsinimacu":3544,"jan":3545,"ench":3546,"Ġsim":3547,"ely":3548,"adda":3549,"asanam":3550,"Ġvyu":3551,"Ġjarup":3552,"ency":3553,"eto":3554,"dip":3555,"Ġmanchidi":3556,"incadam":3557,"alem":3558,"Ġatyadh":3559,"Ġprasiddh":3560,"undhi":3561,"Ġjanasena":3562,"Ġschool":3563,"itive":3564,"Ġmunde":3565,"Ġveganga":3566,"Ġanduku":3567,"uloni":3568,"apaduth":3569,"Ġvijaya":3570,"abadd":3571,"Ġcharm":3572,"acch":3573,"Ġlevu":3574,"ian":3575,"Ġtechnology":3576,"Ġsk":3577,"Ġanth":3578,"udaina":3579,"Ġkaryadarsh":3580,"Ġanugunanga":3581,"Ġchivariki":3582,"Ġlif":3583,"Ġkudi":3584,"Ġunnappudu":3585,"Ġnut":3586,"andra":3587,"Ġshil":3588,"Ġprakriy":3589,"Ġtelipindi":3590,"ular":3591,"Ġdayton":3592,"Ġpalgonnaru":3593,"Ġnyay":3594,"Ġgramamlo":3595,"Ġbudh":3596,"Ġeveraina":3597,"Ġjarige":3598,"ipe":3599,"Ġsiniman":3600,"Ġaaru":3601,"Ġmot":3602,"Ġvenak":3603,"Ġsanth":3604,"Ġanumatistundi":3605,"Ġticket":3606,"Ġvart":3607,"ranti":3608,"Ġfam":3609,"Ġmerugine":3610,"Ġchesenduku":3611,"urn":3612,"Ġthappakunda":3613,"Ġrab":3614,"Ġgurthu":3615,"Ġnamun":3616,"Ġokaru":3617,"rut":3618,"Ġvyaktulu":3619,"Ġcheppindi":3620,"Ġpratipad":3621,"eeksha":3622,"indo":3623,"arata":3624,"Ġbadhit":3625,"Ġmriti":3626,"Ġindust":3627,"Ġvicharana":3628,"Ġsayantram":3629,"ayaniki":3630,"ask":3631,"Ġpadam":3632,"asa":3633,"Ġillu":3634,"Ġing":3635,"Ġsamarp":3636,"evadu":3637,"Ġsif":3638,"adaalu":3639,"alaki":3640,"Ġcur":3641,"istadu":3642,"Ġkurch":3643,"Ġragh":3644,"Ġgunt":3645,"Ġcolle":3646,"abadindi":3647,"Ġinternet":3648,"avya":3649,"Ġpatha":3650,"Ġmel":3651,"Ġnirvahana":3652,"Ġscreen":3653,"Ġbrand":3654,"babu":3655,"Ġpurush":3656,"Ġsamsthalu":3657,"Ġprayanam":3658,"Ġtelugudesam":3659,"agalig":3660,"eshwar":3661,"ola":3662,"Ġvidyarthulu":3663,"Ġkarnat":3664,"Ġbla":3665,"Ġshat":3666,"Ġmatch":3667,"Ġgud":3668,"Ġroddu":3669,"andist":3670,"Ġlag":3671,"adav":3672,"ister":3673,"Ġsett":3674,"Ġveru":3675,"Ġchadav":3676,"Ġprocess":3677,"anato":3678,"Ġivvandi":3679,"Ġpratyekanga":3680,"port":3681,"Ġperag":3682,"mp":3683,"Ġkavachu":3684,"ections":3685,"adincharu":3686,"Ġmudd":3687,"unnam":3688,"Ġgurtimpu":3689,"Ġarjun":3690,"Ġhrud":3691,"undu":3692,"Ġayindi":3693,"Ġasakt":3694,"Ġoffice":3695,"dani":3696,"Ġishtam":3697,"anthanga":3698,"yanto":3699,"Ġvelli":3700,"itter":3701,"Ġpartick":3702,"Ġmunduga":3703,"ran":3704,"Ġnun":3705,"hair":3706,"akavar":3707,"Ġvastuv":3708,"arinchi":3709,"ayina":3710,"Ġnirodh":3711,"Ġupa":3712,"Ġ2016":3713,"thamandi":3714,"Ġedem":3715,"Ġdv":3716,"Ġvyadh":3717,"Ġteevranga":3718,"Ġchikk":3719,"Ġkalush":3720,"Ġnetha":3721,"Ġpakistan":3722,"Ġvak":3723,"Ġvaik":3724,"Ġchesukunna":3725,"az":3726,"avv":3727,"ivers":3728,"Ġsambandhita":3729,"enc":3730,"Ġvaaram":3731,"Ġati":3732,"Ġkurs":3733,"Ġchairman":3734,"Ġbhartha":3735,"Ġtanik":3736,"Ġsus":3737,"ating":3738,"avaraku":3739,"ware":3740,"Ġhel":3741,"Ġprayathnam":3742,"ator":3743,"Ġameku":3744,"Ġmodel":3745,"Ġprakatincharu":3746,"atini":3747,"Ġteliyadu":3748,"Ġmodat":3749,"ief":3750,"Ġtheer":3751,"Ġsangga":3752,"Ġrythu":3753,"Ġandhr":3754,"Ġ45":3755,"vad":3756,"Ġmarketing":3757,"Ġpres":3758,"ataku":3759,"Ġivvadam":3760,"Ġcall":3761,"Ġnerch":3762,"ld":3763,"Ġsahaja":3764,"unnanu":3765,"occh":3766,"inanduku":3767,"Ġswamy":3768,"Ġkonchem":3769,"Ġnay":3770,"Ġcheppi":3771,"Ġdhar":3772,"Ġband":3773,"Ġamod":3774,"ult":3775,"aph":3776,"istam":3777,"Ġpakala":3778,"Ġvunna":3779,"yala":3780,"Ġundaga":3781,"Ġsrik":3782,"Ġseason":3783,"work":3784,"Ġlon":3785,"Ġhecch":3786,"Ġvarl":3787,"Ġlink":3788,"ineni":3789,"Ġtananu":3790,"Ġtidi":3791,"Ġdhanyava":3792,"isari":3793,"Ġheroga":3794,"Ġpadhi":3795,"Ġsangeetham":3796,"Ġerpad":3797,"Ġtwara":3798,"Ġchudandi":3799,"ural":3800,"Ġrahas":3801,"arl":3802,"Ġprabhavanni":3803,"Ġdoh":3804,"Ġchattam":3805,"Ġnaaku":3806,"Ġnirmana":3807,"Ġcharan":3808,"Ġamericas":3809,"sp":3810,"Ġpaddati":3811,"Ġkhachchitanga":3812,"Ġmanishi":3813,"Ġnaidu":3814,"Ġadr":3815,"Ġsamasyalanu":3816,"uli":3817,"unam":3818,"Ġvachayi":3819,"Ġtwaraga":3820,"bad":3821,"Ġthisukunna":3822,"Ġnem":3823,"Ġadhine":3824,"Ġkrindi":3825,"Ġbala":3826,"Ġsanuk":3827,"Ġnirup":3828,"Ġteer":3829,"aja":3830,"eme":3831,"Ġpann":3832,"Ġduk":3833,"Ġandari":3834,"Ġpaddath":3835,"Ġnani":3836,"ayala":3837,"Ġdarshakatvamlo":3838,"Ġsuchisthundi":3839,"Ġdhanyavaadaalu":3840,"Ġetuvanti":3841,"ayalanu":3842,"Ġwor":3843,"Ġkrushi":3844,"Ġont":3845,"Ġmumbai":3846,"Ġcey":3847,"Ġpadavi":3848,"Ġudaharanaku":3849,"uram":3850,"Ġvyaparam":3851,"Ġep":3852,"Ġany":3853,"arane":3854,"pand":3855,"ities":3856,"ows":3857,"aledani":3858,"Ġfiryadu":3859,"Ġbir":3860,"Ġcomputer":3861,"eth":3862,"Ġchept":3863,"Ġreal":3864,"Ġchanipoy":3865,"Ġvimarsalu":3866,"ute":3867,"Ġrupamlo":3868,"Ġpriy":3869,"Ġred":3870,"Ġdigital":3871,"uralu":3872,"chchi":3873,"Ġparyaveksh":3874,"andha":3875,"Ġprathip":3876,"amainadi":3877,"avani":3878,"odve":3879,"Ġvanar":3880,"Ġsambhash":3881,"Ġfol":3882,"Ġreserv":3883,"Ġayinappatiki":3884,"Ġmarok":3885,"Ġpunarut":3886,"Ġchalamandi":3887,"Ġishtapad":3888,"ex":3889,"Ġ60":3890,"Ġkathalu":3891,"Ġtwitter":3892,"Ġnachch":3893,"Ġrakshana":3894,"Ġsury":3895,"Ġmangalavaram":3896,"Ġchil":3897,"Ġjati":3898,"Ġsund":3899,"Ġkalap":3900,"bo":3901,"esa":3902,"apt":3903,"Ġatu":3904,"Ġakram":3905,"Ġvias":3906,"uss":3907,"otu":3908,"ayudu":3909,"Ġguruvaram":3910,"ujan":3911,"Ġpog":3912,"Ġvedika":3913,"Ġjal":3914,"antam":3915,"Ġsudh":3916,"Ġthappu":3917,"Ġthad":3918,"imchindi":3919,"tific":3920,"Ġjeevithamlo":3921,"Ġpanichey":3922,"Ġnedu":3923,"Ġkaryalayam":3924,"Ġbrit":3925,"Ġsamavesham":3926,"ukon":3927,"Ġpondina":3928,"Ġjoh":3929,"Ġai":3930,"Ġod":3931,"Ġsard":3932,"Ġdarakh":3933,"Ġprantham":3934,"Ġsanniv":3935,"Ġvipl":3936,"Ġghat":3937,"ilanu":3938,"Ġappati":3939,"Ġshir":3940,"Ġtelugulo":3941,"Ġdon":3942,"Ġmuslim":3943,"Ġmrit":3944,"Ġwar":3945,"Ġput":3946,"Ġvere":3947,"Ġchesukuni":3948,"Ġinterview":3949,"anksh":3950,"Ġmil":3951,"Ġbhavodve":3952,"Ġidhi":3953,"thamga":3954,"Ġparisthitulu":3955,"Ġphali":3956,"Ġmos":3957,"Ġpurog":3958,"Ġchal":3959,"Ġundedi":3960,"apuram":3961,"Ġinf":3962,"Ġdegr":3963,"Ġmedh":3964,"Ġ500":3965,"Ġavut":3966,"Ġpranthamlo":3967,"Ġphoto":3968,"Ġsiddanga":3969,"let":3970,"Ġtu":3971,"Ġsampradaya":3972,"abadina":3973,"ogle":3974,"Ġindian":3975,"agaa":3976,"ajj":3977,"Ġamenu":3978,"Ġpaluv":3979,"Ġtadvara":3980,"inchabadutundi":3981,"Ġyantr":3982,"Ġparishkaram":3983,"mir":3984,"uttu":3985,"Ġveldadincharu":3986,"lor":3987,"ochu":3988,"Ġkanuka":3989,"Ġpositive":3990,"ivaraku":3991,"aranni":3992,"Ġpakkana":3993,"tar":3994,"Ġmanth":3995,"Ġvais":3996,"Ġstre":3997,"Ġnilva":3998,"Ġsamarthyam":3999,"Ġsarlu":4000,"ishk":4001,"anici":4002,"apari":4003,"rithi":4004,"Ġbahum":4005,"Ġprantallo":4006,"Ġneetini":4007,"Ġnelala":4008,"Ġarch":4009,"Ġpark":4010,"Ġu":4011,"Ġnirvahincharu":4012,"Ġshast":4013,"Ġnerp":4014,"Ġvif":4015,"oot":4016,"Ġprer":4017,"ew":4018,"anivaram":4019,"Ġpatralo":4020,"ally":4021,"ukr":4022,"Ġpalak":4023,"onic":4024,"Ġpramad":4025,"Ġupadhy":4026,"Ġwill":4027,"Ġprabhas":4028,"Ġada":4029,"Ġrakt":4030,"Ġnan":4031,"Ġdooramga":4032,"avut":4033,"Ġataniki":4034,"cle":4035,"aindi":4036,"Ġmaranimch":4037,"Ġpampini":4038,"Ġksham":4039,"arning":4040,"inchaledu":4041,"Ġadhinetha":4042,"Ġrendava":4043,"Ġrachayita":4044,"Ġbhinn":4045,"Ġathi":4046,"Ġdong":4047,"Ġunnatlu":4048,"Ġhouse":4049,"Ġbaruvu":4050,"Ġdars":4051,"Ġdrisht":4052,"Ġavv":4053,"Ġkritr":4054,"mohan":4055,"otion":4056,"yamani":4057,"Ġphalithamga":4058,"Ġsamvatsaram":4059,"anum":4060,"Ġblack":4061,"Ġsuraksh":4062,"Ġlakshmanalu":4063,"Ġover":4064,"Ġprayojanalu":4065,"Ġhead":4066,"icipal":4067,"yamn":4068,"Ġunivers":4069,"Ġmugguru":4070,"Ġshow":4071,"kot":4072,"ater":4073,"Ġkaryakalap":4074,"Ġpustakam":4075,"Ġchesthondi":4076,"Ġloki":4077,"Ġker":4078,"Ġjeevitha":4079,"Ġsantr":4080,"avela":4081,"esday":4082,"Ġkhan":4083,"Ġsaman":4084,"nadu":4085,"Ġinth":4086,"upati":4087,"ej":4088,"Ġnell":4089,"Ġgoogle":4090,"Ġchait":4091,"ivaaram":4092,"udiga":4093,"nal":4094,"Ġrangu":4095,"daniki":4096,"itiki":4097,"abett":4098,"Ġfrom":4099,"Ġsamavesamlo":4100,"Ġsamardyanni":4101,"Ġveduk":4102,"Ġmunicipal":4103,"Ġshanivaram":4104,"Ġgatti":4105,"Ġprastav":4106,"Ġblog":4107,"Ġravi":4108,"yal":4109,"Ġbidd":4110,"anthi":4111,"aras":4112,"ender":4113,"Ġvivarincharu":4114,"Ġcount":4115,"Ġik":4116,"Ġdhair":4117,"Ġaropanal":4118,"Ġanduvalla":4119,"ination":4120,"Ġkort":4121,"Ġaaya":4122,"apadi":4123,"Ġgurl":4124,"Ġpravarth":4125,"zar":4126,"Ġpetty":4127,"Ġkhat":4128,"Ġdill":4129,"gen":4130,"Ġlead":4131,"Ġspecial":4132,"Ġmr":4133,"Ġrek":4134,"Ġpratyamn":4135,"inchinatlu":4136,"Ġvaras":4137,"ipoyina":4138,"Ġpratinidh":4139,"atanga":4140,"Ġprom":4141,"Ġaadivaaram":4142,"Ġhatya":4143,"ithi":4144,"ttp":4145,"Ġpeddaga":4146,"vesh":4147,"Ġneru":4148,"Ġmuk":4149,"agalu":4150,"Ġekkad":4151,"Ġpradhanyata":4152,"analoki":4153,"Ġdirgh":4154,"inchadamlo":4155,"ident":4156,"Ġact":4157,"Ġemitante":4158,"Ġnadip":4159,"alak":4160,"Ġparikar":4161,"Ġprakriyanu":4162,"Ġsuc":4163,"Ġpillala":4164,"Ġtrump":4165,"Ġgang":4166,"Ġrajin":4167,"Ġta":4168,"Ġcab":4169,"eena":4170,"Ġakkad":4171,"akum":4172,"Ġadv":4173,"Ġvibhagam":4174,"Ġadav":4175,"Ġgamanimch":4176,"Ġmukhya":4177,"Ġvikr":4178,"Ġaward":4179,"Ġsthap":4180,"Ġpaiki":4181,"Ġboss":4182,"ession":4183,"Ġchitraniki":4184,"evaro":4185,"Ġveed":4186,"Ġsarfara":4187,"Ġtalk":4188,"enti":4189,"Ġsuchincharu":4190,"Ġmandalam":4191,"ekapoy":4192,"Ġpaata":4193,"Ġmanush":4194,"inav":4195,"cc":4196,"Ġseet":4197,"ures":4198,"ograp":4199,"ubb":4200,"Ġudyogam":4201,"Ġvaadu":4202,"tc":4203,"Ġnizaniki":4204,"arasht":4205,"Ġnaga":4206,"Ġhttp":4207,"atik":4208,"padaka":4209,"Ġennical":4210,"Ġbhayam":4211,"Ġphotos":4212,"Ġoffic":4213,"wada":4214,"Ġlog":4215,"ralu":4216,"Ġamy":4217,"Ġchenn":4218,"Ġaar":4219,"inchabadindi":4220,"Ġfi":4221,"Ġsrishtinchandi":4222,"artham":4223,"Ġnashtam":4224,"Ġpass":4225,"Ġunnaayani":4226,"amloni":4227,"andu":4228,"Ġnopp":4229,"Ġkritrima":4230,"ukuntundi":4231,"patu":4232,"Ġchief":4233,"Ġsens":4234,"Ġkop":4235,"Ġsamasyanu":4236,"Ġwind":4237,"arayana":4238,"thula":4239,"Ġprapanchamlo":4240,"apudu":4241,"Ġnational":4242,"Ġnagarj":4243,"Ġsiv":4244,"ainadi":4245,"Ġyajaman":4246,"Ġyuddham":4247,"arilo":4248,"Ġ198":4249,"yaptanga":4250,"ulam":4251,"Ġamit":4252,"Ġprabhutvaaniki":4253,"ikanu":4254,"Ġteas":4255,"Ġott":4256,"Ġceyadam":4257,"Ġchush":4258,"Ġtaragati":4259,"Ġalayam":4260,"Ġdirghakal":4261,"Ġsainik":4262,"anka":4263,"Ġjarip":4264,"Ġodi":4265,"Ġammay":4266,"akkuva":4267,"Ġupayoginche":4268,"Ġabhivrud":4269,"Ġandinch":4270,"Ġvastunna":4271,"akamaina":4272,"Ġangikr":4273,"Ġclass":4274,"abade":4275,"Ġ2011":4276,"Ġchesukovadam":4277,"Ġnizam":4278,"Ġshubh":4279,"Ġdakshina":4280,"Ġsulbhamga":4281,"Ġvaiv":4282,"Ġtallived":4283,"Ġelectr":4284,"Ġnetwork":4285,"aly":4286,"Ġcam":4287,"Ġshr":4288,"edy":4289,"wal":4290,"Ġaag":4291,"Ġrajadh":4292,"Ġteliya":4293,"annam":4294,"Ġlakshyam":4295,"Ġkaryadarshi":4296,"Ġstation":4297,"Ġkesulo":4298,"raddh":4299,"achchu":4300,"Ġedurkont":4301,"nagar":4302,"Ġhindu":4303,"Ġumm":4304,"Ġabhimanulu":4305,"raz":4306,"Ġramesh":4307,"Ġnerugaa":4308,"Ġconf":4309,"Ġent":4310,"Ġsen":4311,"Ġnella":4312,"Ġboard":4313,"Ġkanipistundi":4314,"isindi":4315,"epu":4316,"Ġallu":4317,"Ġkind":4318,"Ġadhyayanam":4319,"elli":4320,"Ġsandeh":4321,"Ġtala":4322,"Ġkonthamandi":4323,"ray":4324,"Ġaust":4325,"ral":4326,"Ġchakr":4327,"Ġrom":4328,"Ġlot":4329,"atala":4330,"Ġpanchay":4331,"Ġgaj":4332,"ffic":4333,"Ġokasari":4334,"Ġvers":4335,"Ġrate":4336,"aristundi":4337,"Ġellappudu":4338,"Ġcheptt":4339,"Ġneeku":4340,"Ġmatl":4341,"Ġannie":4342,"Ġref":4343,"andariki":4344,"antra":4345,"Ġkont":4346,"araju":4347,"Ġval":4348,"aloki":4349,"Ġjam":4350,"Ġshankar":4351,"Ġhindi":4352,"Ġsthanamlo":4353,"Ġmigata":4354,"Ġstart":4355,"Ġenti":4356,"Ġlakshman":4357,"Ġtrack":4358,"Ġbalah":4359,"ivey":4360,"Ġbangal":4361,"Ġprajalanu":4362,"Ġnirnayalu":4363,"unde":4364,"Ġjarugutunna":4365,"Ġhir":4366,"imb":4367,"Ġmatt":4368,"anunna":4369,"Ġchett":4370,"Ġmokkalu":4371,"Ġnirvahinchadaniki":4372,"Ġfriend":4373,"varyam":4374,"Ġchesukunn":4375,"Ġconnect":4376,"Ġthisukuv":4377,"anamaina":4378,"andaru":4379,"Ġparip":4380,"Ġtelisina":4381,"Ġkane":4382,"tel":4383,"Ġvelt":4384,"Ġthisukov":4385,"Ġpublic":4386,"Ġjagrathaga":4387,"Ġsol":4388,"Ġfilmib":4389,"Ġbeng":4390,"Ġkaryakarth":4391,"Ġveetini":4392,"Ġbur":4393,"Ġgaman":4394,"Ġket":4395,"Ġguntur":4396,"inet":4397,"Ġcareer":4398,"Ġlas":4399,"ists":4400,"Ġnen":4401,"oomi":4402,"Ġsabha":4403,"Ġtisukoni":4404,"Ġmak":4405,"Ġsamvatsaralu":4406,"Ġfilmibeat":4407,"Ġpaper":4408,"Ġandy":4409,"Ġmog":4410,"Ġterak":4411,"Ġic":4412,"aster":4413,"pett":4414,"Ġpi":4415,"aranaku":4416,"Ġundataniki":4417,"Ġspashtanga":4418,"Ġkramam":4419,"Ġjour":4420,"Ġannadi":4421,"Ġprayatnalu":4422,"Ġnaras":4423,"ative":4424,"Ġess":4425,"Ġupayoga":4426,"Ġpradhananga":4427,"yoth":4428,"och":4429,"Ġswantha":4430,"Ġvanij":4431,"Ġhami":4432,"Ġunnaa":4433,"Ġokavela":4434,"Ġichche":4435,"Ġalas":4436,"Ġvijayayam":4437,"Ġtelanganalo":4438,"edda":4439,"Ġteliyaj":4440,"obh":4441,"Ġlekapote":4442,"Ġjanam":4443,"Ġsigns":4444,"Ġviram":4445,"kh":4446,"Ġautom":4447,"chandra":4448,"Ġpaluvuru":4449,"Ġundalani":4450,"Ġkadal":4451,"antamaina":4452,"Ġcheppadam":4453,"Ġtak":4454,"avadi":4455,"arig":4456,"achesi":4457,"Ġgattiga":4458,"ubatu":4459,"Ġvayas":4460,"Ġnaatiki":4461,"Ġemail":4462,"arapadi":4463,"Ġibbandulu":4464,"Ġgodavari":4465,"Ġprayojanam":4466,"yakaramaina":4467,"Ġkoduku":4468,"Ġnimp":4469,"Ġteem":4470,"Ġshail":4471,"akriya":4472,"Ġ2015":4473,"Ġapple":4474,"Ġsamrakshana":4475,"Ġprashans":4476,"oledu":4477,"Ġ36":4478,"Ġfac":4479,"Ġbhariga":4480,"alsinde":4481,"Ġmic":4482,"ory":4483,"akshmi":4484,"Ġpalgon":4485,"Ġswayanga":4486,"ild":4487,"Ġmary":4488,"Ġperigina":4489,"fi":4490,"Ġdharalu":4491,"Ġ32":4492,"Ġathadu":4493,"Ġvivaham":4494,"Ġagn":4495,"Ġstock":4496,"Ġabhinand":4497,"ayal":4498,"Ġnammakam":4499,"Ġbhary":4500,"araniki":4501,"Ġsamm":4502,"aptanga":4503,"Ġbalam":4504,"loy":4505,"Ġunnappatiki":4506,"Ġcode":4507,"Ġol":4508,"Ġchain":4509,"Ġsl":4510,"Ġpratyekamaina":4511,"Ġchann":4512,"Ġgelich":4513,"Ġmaddat":4514,"Ġshraddh":4515,"Ġarh":4516,"Ġtvaralo":4517,"Ġshash":4518,"air":4519,"Ġclick":4520,"Ġmega":4521,"ulan":4522,"Ġprayan":4523,"utam":4524,"Ġichchi":4525,"Ġcontent":4526,"Ġchotu":4527,"Ġsadhinch":4528,"Ġkilomet":4529,"Ġparikshalu":4530,"urthy":4531,"arapad":4532,"Ġkalige":4533,"down":4534,"Ġpatralu":4535,"Ġfeat":4536,"Ġpettina":4537,"Ġlook":4538,"ayye":4539,"avyaaptanga":4540,"Ġtadit":4541,"__":4542,"ipti":4543,"alanna":4544,"Ġmarut":4545,"Ġvarilo":4546,"Ġgun":4547,"Ġparij":4548,"Ġthirug":4549,"Ġlokesh":4550,"Ġsthirmine":4551,"Ġruch":4552,"Ġpel":4553,"Ġpoth":4554,"annadi":4555,"ataram":4556,"Ġmen":4557,"agan":4558,"Ġly":4559,"Ġglo":4560,"Ġparishkar":4561,"Ġsevalu":4562,"kam":4563,"Ġmeg":4564,"ret":4565,"Ġdust":4566,"Ġdebbat":4567,"Ġnizanga":4568,"Ġdorik":4569,"ipett":4570,"Ġivanni":4571,"Ġsadup":4572,"Ġraitulaku":4573,"isi":4574,"Ġpe":4575,"Ġsaksh":4576,"Ġprachar":4577,"ivv":4578,"iness":4579,"Ġprakrithi":4580,"Ġbl":4581,"Ġsil":4582,"Ġlakshyanga":4583,"Ġsifars":4584,"Ġchesukovadaniki":4585,"Ġanumath":4586,"inal":4587,"eva":4588,"Ġnik":4589,"Ġnind":4590,"uvari":4591,"atte":4592,"adupari":4593,"Ġjohn":4594,"Ġhom":4595,"Ġkavadanto":4596,"Ġchetilo":4597,"Ġsaadhyam":4598,"Ġkalug":4599,"alle":4600,"haa":4601,"Ġteesuk":4602,"anne":4603,"Ġartic":4604,"untayi":4605,"Ġpandi":4606,"Ġvill":4607,"Ġpannu":4608,"Ġshukr":4609,"Ġ2013":4610,"kk":4611,"alloni":4612,"itini":4613,"Ġappag":4614,"Ġadaim":4615,"ium":4616,"Ġtur":4617,"Ġbom":4618,"Ġsannivesh":4619,"Ġichchindi":4620,"Ġchudali":4621,"Ġniyantrana":4622,"Ġdollars":4623,"itra":4624,"abhoomi":4625,"Ġkand":4626,"Ġsrujan":4627,"athul":4628,"ih":4629,"Ġcheppuk":4630,"rao":4631,"Ġprashnincharu":4632,"Ġmitr":4633,"Ġporad":4634,"ugane":4635,"Ġprapanchavyaaptanga":4636,"Ġadharapadi":4637,"Ġjanabha":4638,"Ġvyaptanga":4639,"Ġsekarinch":4640,"ulik":4641,"inchukov":4642,"Ġvellina":4643,"Ġkavali":4644,"Ġmahilalu":4645,"Ġsangam":4646,"Ġpatalu":4647,"Ġvachindi":4648,"Ġteemramaina":4649,"Ġelectric":4650,"uvv":4651,"Ġsomavaaram":4652,"incharani":4653,"udiki":4654,"Ġperkondi":4655,"Ġmanthr":4656,"akudadu":4657,"Ġnait":4658,"Ġmarinni":4659,"ision":4660,"Ġshah":4661,"akarinch":4662,"Ġdary":4663,"Ġyerp":4664,"antara":4665,"uti":4666,"rav":4667,"Ġchettu":4668,"Ġ01":4669,"impulu":4670,"aleni":4671,"Ġahara":4672,"Ġsayam":4673,"Ġbharatades":4674,"Ġoxy":4675,"pet":4676,"Ġtirig":4677,"aswamy":4678,"Ġysr":4679,"attulo":4680,"Ġrachayit":4681,"Ġseries":4682,"Ġlight":4683,"Ġupayoginchavachchu":4684,"Ġvaddi":4685,"Ġemmely":4686,"Ġsamarthavantanga":4687,"Ġaatm":4688,"Ġparanga":4689,"Ġali":4690,"Ġanarog":4691,"Ġneet":4692,"Ġamsalanu":4693,"Ġmudi":4694,"Ġbayal":4695,"Ġpakka":4696,"Ġnall":4697,"Ġpettaru":4698,"Ġayyindi":4699,"Ġbrundam":4700,"Ġandinche":4701,"Ġpolitical":4702,"Ġnatudu":4703,"idhanga":4704,"Ġsaaksh":4705,"Ġ2012":4706,"arulaku":4707,"overg":4708,"Ġprayojanalanu":4709,"uck":4710,"Ġnarendra":4711,"ody":4712,"Ġhaj":4713,"uches":4714,"Ġvedh":4715,"ataru":4716,"Ġworld":4717,"Ġpop":4718,"Ġsuccess":4719,"alth":4720,"utti":4721,"Ġneozec":4722,"Ġanukulanga":4723,"ulaina":4724,"Ġpathakam":4725,"Ġnor":4726,"Ġmarie":4727,"Ġavunu":4728,"Ġgarbh":4729,"Ġthappanis":4730,"Ġvint":4731,"istanu":4732,"nog":4733,"Ġvelug":4734,"Ġparisodh":4735,"apalli":4736,"Ġcle":4737,"Ġvidesi":4738,"Ġkl":4739,"Ġjeevitanni":4740,"Ġmart":4741,"Ġaction":4742,"adag":4743,"ullu":4744,"asm":4745,"Ġgadd":4746,"aite":4747,"pl":4748,"Ġbodh":4749,"Ġmahamm":4750,"Ġham":4751,"ear":4752,"Ġippativaraku":4753,"Ġkshet":4754,"Ġasth":4755,"Ġrajdh":4756,"akata":4757,"Ġsthalam":4758,"Ġabhiprayam":4759,"Ġthadit":4760,"Ġ80":4761,"Ġtakkuvaga":4762,"Ġeen":4763,"Ġparigananaloki":4764,"Ġank":4765,"atmakanga":4766,"adini":4767,"Ġden":4768,"Ġmachine":4769,"Ġundavachchu":4770,"Ġappude":4771,"Ġsite":4772,"Ġorder":4773,"Ġprakatinchindi":4774,"Ġjarugutondi":4775,"ukunenduku":4776,"Ġsakh":4777,"inchani":4778,"Ġcheyab":4779,"anapai":4780,"Ġghatana":4781,"Ġlopala":4782,"arshana":4783,"Ġreview":4784,"Ġanti":4785,"Ġparidhilo":4786,"Ġtom":4787,"Ġdabbulu":4788,"vey":4789,"anlo":4790,"Ġbedi":4791,"Ġpartilo":4792,"Ġum":4793,"arak":4794,"abdam":4795,"avalasina":4796,"Ġshukravaaram":4797,"Ġokari":4798,"Ġstory":4799,"Ġnidra":4800,"ukovaali":4801,"anduna":4802,"Ġaarop":4803,"ulla":4804,"Ġmaharasht":4805,"akur":4806,"allanu":4807,"Ġtej":4808,"elop":4809,"aliki":4810,"Ġsangeeta":4811,"Ġnunche":4812,"Ġoxygen":4813,"Ġapello":4814,"Ġprag":4815,"Ġedemaina":4816,"Ġphalitam":4817,"apurv":4818,"Ġkathan":4819,"10":4820,"Ġkaryakramalu":4821,"Ġgro":4822,"Ġengineering":4823,"erm":4824,"Ġgananiyamaina":4825,"Ġteg":4826,"etha":4827,"Ġanub":4828,"Ġtaggistundi":4829,"ikam":4830,"Ġ37":4831,"igam":4832,"Ġgeneral":4833,"Ġvinod":4834,"Ġgaali":4835,"Ġvisesh":4836,"Ġsalah":4837,"Ġmodaline":4838,"Ġantar":4839,"Ġpage":4840,"Ġentr":4841,"Ġchitralu":4842,"Ġtrail":4843,"Ġavine":4844,"50":4845,"Ġsaral":4846,"Ġmeant":4847,"wari":4848,"Ġgor":4849,"Ġaap":4850,"Ġayyaru":4851,"Ġphalitalu":4852,"Ġvenakki":4853,"ority":4854,"Ġ2009":4855,"Ġvatilo":4856,"Ġcheppali":4857,"inapp":4858,"Ġgaani":4859,"Ġdesala":4860,"Ġpattinchuk":4861,"Ġushnog":4862,"Ġvalas":4863,"Ġadhikari":4864,"Ġreport":4865,"Ġemploy":4866,"ky":4867,"illo":4868,"Ġvarma":4869,"Ġnanna":4870,"Ġanusarinch":4871,"ipoyaru":4872,"Ġpunj":4873,"Ġparisram":4874,"Ġinc":4875,"Ġentho":4876,"Ġneozecoverg":4877,"Ġpilust":4878,"Ġdayachesi":4879,"apy":4880,"Ġtvaralone":4881,"Ġundandi":4882,"Ġmeet":4883,"Ġrajinama":4884,"Ġsu":4885,"edia":4886,"Ġgunde":4887,"Ġpravah":4888,"Ġkalasala":4889,"Ġtamilnadu":4890,"inchadanto":4891,"aruga":4892,"Ġspusht":4893,"Ġkrit":4894,"Ġesari":4895,"Ġadag":4896,"ucch":4897,"Ġkarnataka":4898,"van":4899,"Ġsamayanni":4900,"Ġteliyaz":4901,"Ġrodd":4902,"Ġinv":4903,"ubali":4904,"Ġbhojanam":4905,"Ġunnadi":4906,"Ġsweekarinch":4907,"Ġporatam":4908,"Ġcheyabadina":4909,"akudiga":4910,"Ġgovernor":4911,"Ġtri":4912,"Ġindhan":4913,"Ġec":4914,"Ġtaditara":4915,"Ġcheck":4916,"avuthundi":4917,"akaramaina":4918,"Ġguj":4919,"Ġcommunication":4920,"Ġistundi":4921,"Ġvaipu":4922,"aver":4923,"Ġ70":4924,"estundi":4925,"Ġyog":4926,"Ġdate":4927,"Ġtrans":4928,"Ġvenn":4929,"ayyayi":4930,"kalu":4931,"avidy":4932,"Ġnutan":4933,"Ġdakh":4934,"Ġudg":4935,"gane":4936,"put":4937,"iriga":4938,"Ġaash":4939,"Ġchetulu":4940,"Ġempical":4941,"Ġktar":4942,"Ġdevelop":4943,"Ġkukk":4944,"Ġnished":4945,"Ġprekshakula":4946,"Ġnellie":4947,"za":4948,"Ġest":4949,"Ġvivarana":4950,"Ġandamaina":4951,"Ġcontr":4952,"Ġshak":4953,"Ġwas":4954,"Ġ197":4955,"Ġviluvaina":4956,"angh":4957,"unaku":4958,"Ġkak":4959,"Ġtelisindi":4960,"Ġalg":4961,"Ġsty":4962,"Ġsuresh":4963,"Ġnillu":4964,"Ġperigindi":4965,"Ġparimitam":4966,"aralaku":4967,"Ġtanikhi":4968,"ipov":4969,"Ġhis":4970,"Ġjo":4971,"Ġpergu":4972,"astic":4973,"Ġnagarjuna":4974,"ba":4975,"ispand":4976,"Ġkat":4977,"Ġkavit":4978,"Ġkish":4979,"Ġtem":4980,"rali":4981,"Ġayye":4982,"Ġmanj":4983,"Ġrakamaina":4984,"load":4985,"akapov":4986,"illu":4987,"Ġshar":4988,"Ġarogyakaramaina":4989,"Ġthaditarulu":4990,"Ġvitt":4991,"Ġsoftware":4992,"askar":4993,"Ġbrind":4994,"Ġbox":4995,"Ġjattu":4996,"Ġfans":4997,"Ġandinchandi":4998,"Ġudyoga":4999,"Ġready":5000,"Ġbij":5001,"adame":5002,"Ġekanga":5003,"inchanu":5004,"Ġvyasam":5005,"gani":5006,"anaga":5007,"Ġyevaro":5008,"Ġakkade":5009,"Ġperugutunna":5010,"Ġupayoginchandi":5011,"Ġmanchu":5012,"ries":5013,"amandi":5014,"Ġrahad":5015,"Ġsamantha":5016,"Ġdesalu":5017,"Ġplat":5018,"Ġgiri":5019,"istr":5020,"Ġnemm":5021,"Ġsound":5022,"esadu":5023,"hari":5024,"Ġandaj":5025,"Ġchr":5026,"Ġchesarani":5027,"Ġchopp":5028,"Ġland":5029,"Ġeduru":5030,"Ġjournal":5031,"ait":5032,"adalu":5033,"Ġthakkuva":5034,"Ġvaccharu":5035,"Ġprarambha":5036,"Ġ33":5037,"Ġteliyani":5038,"Ġterakekk":5039,"Ġvayida":5040,"Ġchaalaa":5041,"Ġsaari":5042,"Ġpadindi":5043,"Ġummadi":5044,"Ġtalu":5045,"Ġsanukula":5046,"Ġbalahin":5047,"Ġ2010":5048,"Ġsarkar":5049,"Ġantekadu":5050,"Ġvatiki":5051,"Ġitu":5052,"Ġcanc":5053,"uke":5054,"Ġdirghakalika":5055,"akula":5056,"Ġlearning":5057,"eeth":5058,"Ġlife":5059,"Ġvyavaharist":5060,"alonu":5061,"Ġdus":5062,"Ġpareeksha":5063,"agalanu":5064,"Ġvind":5065,"akudi":5066,"Ġsach":5067,"Ġakhil":5068,"agu":5069,"Ġcharya":5070,"Ġvantivi":5071,"Ġaadhvaryam":5072,"Ġvidhananni":5073,"Ġvaram":5074,"avasara":5075,"Ġanandam":5076,"inchu":5077,"Ġkarth":5078,"Ġpolch":5079,"Ġamsalu":5080,"agiri":5081,"Ġnayakudu":5082,"inchabadina":5083,"Ġprarambhincharu":5084,"Ġvyavaharam":5085,"Ġchesukunnaru":5086,"Ġgood":5087,"Ġasupatri":5088,"Ġwe":5089,"Ġsontha":5090,"Ġball":5091,"Ġcham":5092,"Ġthr":5093,"Ġpanulanu":5094,"Ġbusiness":5095,"Ġnipunulu":5096,"Ġsecond":5097,"Ġcenter":5098,"oku":5099,"roid":5100,"ruth":5101,"Ġvyuh":5102,"tice":5103,"arac":5104,"Ġtraffic":5105,"Ġnidhulu":5106,"Ġvecch":5107,"Ġsanthosh":5108,"Ġviniyogadarulu":5109,"Ġpanitir":5110,"Ġvaccine":5111,"Ġfull":5112,"Ġdevudu":5113,"Ġmass":5114,"aste":5115,"Ġgreat":5116,"Ġdhor":5117,"Ġbho":5118,"Ġsahakar":5119,"Ġhealth":5120,"Ġvijayawada":5121,"Ġvatavaran":5122,"arinchadam":5123,"Ġansham":5124,"yana":5125,"adhik":5126,"Ġmaat":5127,"Ġschedule":5128,"osa":5129,"Ġgantalu":5130,"Ġaaropincharu":5131,"Ġcheta":5132,"Ġparsh":5133,"allone":5134,"Ġpuj":5135,"Ġmaha":5136,"Ġvisakh":5137,"osp":5138,"Ġneel":5139,"Ġfamily":5140,"Ġalochanalu":5141,"Ġlove":5142,"eeda":5143,"Ġchesanu":5144,"Ġveluv":5145,"su":5146,"Ġbudhavaaram":5147,"Ġfollow":5148,"Ġandinchadam":5149,"Ġbed":5150,"dy":5151,"Ġadhikanga":5152,"ady":5153,"Ġdohadam":5154,"Ġchivaraku":5155,"Ġpunarutpadaka":5156,"ici":5157,"Ġharish":5158,"Ġmina":5159,"Ġmanasu":5160,"Ġgul":5161,"opp":5162,"Ġvisesham":5163,"Ġanubhava":5164,"Ġservice":5165,"Ġrajdhani":5166,"Ġaustrali":5167,"Ġnann":5168,"Ġnadust":5169,"Ġcherch":5170,"atma":5171,"Ġvol":5172,"Ġseen":5173,"Ġmadhyaah":5174,"Ġadhigam":5175,"kekk":5176,"Ġekkuv":5177,"ede":5178,"istunnayi":5179,"Ġcurr":5180,"apadd":5181,"Ġanuvarth":5182,"Ġanvesh":5183,"ugh":5184,"Ġnirvahinchina":5185,"Ġlekapovadam":5186,"Ġspushtamaina":5187,"Ġ2022":5188,"Ġasaktik":5189,"uddam":5190,"Ġperugutundi":5191,"Ġgramanici":5192,"Ġpraveshapett":5193,"Ġvyadhi":5194,"Ġdruk":5195,"Ġpaathas":5196,"Ġanumati":5197,"Ġvima":5198,"Ġbritish":5199,"Ġvarn":5200,"Ġrythula":5201,"Ġmath":5202,"usha":5203,"Ġenim":5204,"meeru":5205,"Ġsarirak":5206,"akapovadam":5207,"Ġraledu":5208,"Ġsankhyalo":5209,"Ġchesukov":5210,"Ġjav":5211,"Ġlockdown":5212,"atva":5213,"Ġokko":5214,"Ġbomm":5215,"ww":5216,"Ġandhrabhoomi":5217,"Ġpadh":5218,"Ġ05":5219,"Ġivvadaniki":5220,"Ġpillalaku":5221,"Ġanukunna":5222,"Ġdist":5223,"Ġpratikula":5224,"Ġnis":5225,"Ġprabhutvaalu":5226,"Ġemployees":5227,"Ġrakam":5228,"ekar":5229,"Ġtaginanta":5230,"Ġsinimallo":5231,"Ġcarl":5232,"Ġswag":5233,"Ġvinn":5234,"iday":5235,"Ġsurvey":5236,"Ġpaint":5237,"Ġkathin":5238,"poyindi":5239,"ire":5240,"ondaru":5241,"Ġbalanga":5242,"apaddaru":5243,"Ġjok":5244,"oli":5245,"Ġuttar":5246,"Ġparishodhana":5247,"Ġammayi":5248,"Ġvastavaniki":5249,"Ġledo":5250,"Ġchantr":5251,"endr":5252,"Ġsadhinchina":5253,"Ġbav":5254,"ashala":5255,"opatu":5256,"Ġnimishalu":5257,"Ġinduku":5258,"Ġvitilo":5259,"Ġedu":5260,"Ġchennai":5261,"Ġnars":5262,"Ġbangaru":5263,"Ġsulabham":5264,"Ġbharatadesam":5265,"Ġspeak":5266,"Ġdanipai":5267,"Ġtarget":5268,"avarth":5269,"Ġkolp":5270,"old":5271,"Ġsark":5272,"Ġvyavasthanu":5273,"Ġpoliste":5274,"Ġveeru":5275,"Ġokkaru":5276,"Ġnindit":5277,"Ġoor":5278,"Ġthadupari":5279,"Ġ04":5280,"Ġpenchadaniki":5281,"edo":5282,"Ġentertain":5283,"iroju":5284,"ishtamaina":5285,"Ġrashtrala":5286,"Ġteliv":5287,"Ġkaledu":5288,"Ġtara":5289,"Ġchesukundi":5290,"esina":5291,"Ġparisthitullo":5292,"si":5293,"ikram":5294,"Ġvatch":5295,"Ġprajaswam":5296,"Ġmeruguparachadaniki":5297,"Ġgadu":5298,"Ġrajamo":5299,"odd":5300,"Ġpettadam":5301,"Ġsankship":5302,"Ġchor":5303,"Ġellu":5304,"Ġsarip":5305,"Ġmatladaru":5306,"Ġbedir":5307,"Ġvenuk":5308,"Ġsanni":5309,"Ġsandarbhamlo":5310,"Ġoffer":5311,"Ġsong":5312,"Ġchesinatlu":5313,"Ġbhavana":5314,"thanga":5315,"Ġsug":5316,"eetha":5317,"istunnaayi":5318,"Ġnarasim":5319,"Ġmut":5320,"aruk":5321,"achchi":5322,"otsavam":5323,"wan":5324,"Ġ34":5325,"Ġsrishtinchadaniki":5326,"Ġintell":5327,"Ġvyapti":5328,"Ġivvalani":5329,"Ġamerican":5330,"ishn":5331,"atriki":5332,"aranam":5333,"Ġtudi":5334,"ipoyi":5335,"Ġmadiriga":5336,"Ġprakash":5337,"ahubali":5338,"ubadi":5339,"amanam":5340,"Ġmish":5341,"Ġcbi":5342,"ilaku":5343,"Ġposted":5344,"Ġdasalo":5345,"Ġabhipray":5346,"Ġprathispand":5347,"Ġanipistundi":5348,"Ġadhunika":5349,"Ġcoff":5350,"Ġtarv":5351,"Ġadharit":5352,"Ġuni":5353,"Ġsamuh":5354,"Ġchesukovachu":5355,"Ġnizamaina":5356,"Ġputtina":5357,"Ġmudo":5358,"Ġ09":5359,"Ġparishkarinchadaniki":5360,"Ġtelusaa":5361,"Ġsontham":5362,"Ġrecords":5363,"Ġjaganmohan":5364,"Ġsankshema":5365,"Ġnom":5366,"Ġjuni":5367,"Ġerpatlu":5368,"Ġsamyog":5369,"Ġvasulu":5370,"Ġchustu":5371,"Ġstories":5372,"Ġchay":5373,"Ġveeri":5374,"Ġviparit":5375,"Ġthipp":5376,"Ġbhavistunnaru":5377,"elly":5378,"Ġdhr":5379,"se":5380,"Ġhor":5381,"arustundi":5382,"Ġchev":5383,"Ġvacche":5384,"Ġatuvanti":5385,"utunnadu":5386,"Ġchoop":5387,"inar":5388,"Ġbadhyatalu":5389,"Ġkoh":5390,"Ġ196":5391,"Ġ08":5392,"Ġbhaut":5393,"Ġterkekk":5394,"Ġgurtunch":5395,"Ġappatlo":5396,"Ġsutr":5397,"Ġshap":5398,"Ġfun":5399,"Ġrojuvari":5400,"Ġgantalaku":5401,"Ġkaranalu":5402,"Ġkumart":5403,"Ġvyakhyan":5404,"Ġcavalani":5405,"oxide":5406,"aik":5407,"Ġpoti":5408,"Ġbahula":5409,"Ġwww":5410,"opy":5411,"Ġvishranti":5412,"Ġpunarud":5413,"Ġpanta":5414,"apoy":5415,"Ġpracre":5416,"Ġsarih":5417,"Ġgir":5418,"Ġwebsite":5419,"Ġisuk":5420,"Ġkeer":5421,"Ġtedin":5422,"Ġmodalupett":5423,"Ġdeliv":5424,"Ġtaksh":5425,"ney":5426,"Ġcraz":5427,"Ġrangam":5428,"Ġos":5429,"anjanya":5430,"Ġtell":5431,"Ġassist":5432,"Ġenny":5433,"Ġpondadaniki":5434,"Ġvitam":5435,"Ġkhali":5436,"Ġchebut":5437,"Ġsanchalana":5438,"Ġvyat":5439,"alanam":5440,"Ġdaka":5441,"avanthanga":5442,"Ġlax":5443,"appa":5444,"Ġchoosina":5445,"18":5446,"Ġpay":5447,"Ġkaka":5448,"Ġti":5449,"analato":5450,"Ġprayanik":5451,"Ġkang":5452,"Ġvibhinna":5453,"sar":5454,"Ġroy":5455,"Ġchow":5456,"inchatam":5457,"Ġ02":5458,"Ġbu":5459,"Ġ03":5460,"Ġsaktiv":5461,"Ġkashmir":5462,"Ġadugu":5463,"Ġpolitics":5464,"utha":5465,"Ġchalu":5466,"Ġins":5467,"ondimch":5468,"gai":5469,"Ġhazar":5470,"inchaga":5471,"Ġgame":5472,"Ġmusic":5473,"Ġvruddhi":5474,"Ġprathipaksh":5475,"Ġthisukunnaru":5476,"Ġtidipi":5477,"Ġthisukovalani":5478,"Ġuk":5479,"Ġjapan":5480,"Ġrajadhani":5481,"Ġjeevana":5482,"Ġmess":5483,"go":5484,"paddaru":5485,"ambh":5486,"rol":5487,"amannaru":5488,"Ġwik":5489,"Ġdeshv":5490,"ulani":5491,"abhavam":5492,"Ġpatrik":5493,"Ġkuk":5494,"Ġmahammari":5495,"Ġmiss":5496,"ject":5497,"upett":5498,"Ġkumarudu":5499,"Ġcharchalu":5500,"Ġsak":5501,"ipoyayi":5502,"inchukunna":5503,"Ġvibhajana":5504,"Ġtriv":5505,"de":5506,"Ġkom":5507,"Ġbull":5508,"ekh":5509,"Ġ90":5510,"Ġdamp":5511,"Ġpour":5512,"Ġtelustundi":5513,"Ġbahiranga":5514,"à¤":5515,"Ġraja":5516,"Ġmothamlo":5517,"Ġcoric":5518,"shi":5519,"Ġpranalu":5520,"Ġpaathasalas":5521,"sah":5522,"Ġtheat":5523,"Ġteaser":5524,"Ġvelle":5525,"Ġamal":5526,"Ġprasiddha":5527,"ny":5528,"Ġhoda":5529,"Ġuchita":5530,"Ġpatrika":5531,"'t":5532,"ope":5533,"Ġbharti":5534,"Ġsoukaryam":5535,"Ġsamag":5536,"Ġabhyas":5537,"Ġvyayamam":5538,"inchela":5539,"Ġmargadarsh":5540,"Ġvigrah":5541,"Ġintellig":5542,"Ġgaurav":5543,"Ġvivaralanu":5544,"Ġvidyarthulaku":5545,"Ġupadhi":5546,"Ġmor":5547,"Ġuppu":5548,"Ġanchanalu":5549,"Ġvanarula":5550,"ert":5551,"Ġsrey":5552,"Ġrojuna":5553,"Ġclo":5554,"Ġbadha":5555,"Ġvarsham":5556,"Ġbak":5557,"Ġrupond":5558,"Ġundhaa":5559,"Ġjiv":5560,"Ġdeshvyaptanga":5561,"Ġenchukondi":5562,"Ġsinimato":5563,"Ġpodav":5564,"edit":5565,"arannaru":5566,"Ġmant":5567,"Ġadhikaramloki":5568,"Ġpanichese":5569,"Ġrtc":5570,"Ġkoddiga":5571,"Ġvidud":5572,"aranalu":5573,"arity":5574,"Ġpasupu":5575,"Ġkaligistundi":5576,"Ġvishayalanu":5577,"Ġmik":5578,"Ġsandes":5579,"Ġ07":5580,"Ġjunior":5581,"yalo":5582,"Ġsanketik":5583,"Ġghan":5584,"Ġchesukunt":5585,"af":5586,"Ġaccount":5587,"atone":5588,"Ġdioxide":5589,"Ġrashtrallo":5590,"Ġnep":5591,"avo":5592,"Ġrojuku":5593,"Ġsala":5594,"Ġsubb":5595,"Ġatanni":5596,"Ġvarusagaa":5597,"aptu":5598,"Ġneraver":5599,"Ġamaz":5600,"Ġbaduluga":5601,"Ġkamal":5602,"Ġsaram":5603,"Ġperson":5604,"asad":5605,"ime":5606,"Ġdaggar":5607,"Ġatip":5608,"ulone":5609,"agaram":5610,"andhra":5611,"ince":5612,"avanni":5613,"Ġiroju":5614,"Ġkharchulu":5615,"chey":5616,"Ġmottam":5617,"ulatho":5618,"Ġperugudala":5619,"Ġstate":5620,"Ġ48":5621,"isk":5622,"Ġcheyagala":5623,"Ġatyadhika":5624,"ulaki":5625,"Ġdaryaptu":5626,"Ġnirasana":5627,"Ġmadhyalo":5628,"Ġparisheel":5629,"Ġeenadu":5630,"Ġcel":5631,"Ġdegree":5632,"Ġpenchutundi":5633,"Ġsinimala":5634,"Ġunited":5635,"Ġchota":5636,"Ġvastuvulu":5637,"Ġtab":5638,"aval":5639,"Ġvenkatesh":5640,"Ġanu":5641,"Ġnemmadiga":5642,"Ġentry":5643,"Ġpranalika":5644,"adev":5645,"Ġchakka":5646,"Ġspandana":5647,"Ġbalakrishna":5648,"inchada":5649,"Ġnirantaram":5650,"Ġdach":5651,"istamani":5652,"Ġnelalo":5653,"Ġmosam":5654,"avat":5655,"Ġpaduthundi":5656,"Ġvishvas":5657,"Ġcoffee":5658,"Ġsupport":5659,"avariki":5660,"Ġavishk":5661,"ecchi":5662,"ilone":5663,"gar":5664,"rik":5665,"Ġsamskruth":5666,"Ġcheek":5667,"Ġoppandam":5668,"Ġgroup":5669,"Ġeduruch":5670,"Ġanukunn":5671,"agaru":5672,"padindi":5673,"Ġannam":5674,"Ġeur":5675,"Ġsansthala":5676,"Ġrajamouli":5677,"Ġupayogistaru":5678,"Ġgl":5679,"yi":5680,"Ġgnap":5681,"Ġwhere":5682,"Ġmadyam":5683,"ams":5684,"alaya":5685,"Ġvastunnayi":5686,"Ġdrug":5687,"Ġwater":5688,"Ġmaatlad":5689,"intini":5690,"Ġcomment":5691,"Ġvimarsimcharu":5692,"Ġdishaga":5693,"Ġdrukpath":5694,"ananto":5695,"Ġaata":5696,"Ġbhart":5697,"karalu":5698,"min":5699,"Ġ38":5700,"Ġpetti":5701,"Ġamaravathi":5702,"Ġunnarani":5703,"tices":5704,"unnara":5705,"Ġninna":5706,"Ġswachch":5707,"Ġvargalu":5708,"Ġexp":5709,"itch":5710,"Ġtable":5711,"Ġteesi":5712,"Ġevent":5713,"Ġsevalanu":5714,"Ġnig":5715,"Ġhosp":5716,"Ġsamathul":5717,"Ġraboye":5718,"Ġwed":5719,"Ġpic":5720,"acher":5721,"inchalsina":5722,"Ġatag":5723,"varu":5724,"Ġsok":5725,"Ġkaj":5726,"Ġrani":5727,"Ġarm":5728,"angu":5729,"Ġgudi":5730,"Ġ75":5731,"wn":5732,"maina":5733,"akanksh":5734,"Ġpradhanam":5735,"Ġbayalud":5736,"ives":5737,"inchakunda":5738,"Ġsharma":5739,"Ġsas":5740,"mani":5741,"avulu":5742,"uko":5743,"Ġbalaiah":5744,"Ġpratisht":5745,"Ġplastic":5746,"Ġabhyarthi":5747,"Ġsupren":5748,"Ġmaga":5749,"Ġvotu":5750,"Ġmaulik":5751,"anak":5752,"Ġaj":5753,"Ġuparit":5754,"Ġtagginchadam":5755,"Ġsaid":5756,"Ġlaksham":5757,"oham":5758,"Ġroom":5759,"Ġched":5760,"Ġradh":5761,"rith":5762,"Ġbandi":5763,"Ġcomb":5764,"Ġcover":5765,"Ġcommissioner":5766,"Ġevaina":5767,"adem":5768,"Ġarogyam":5769,"Ġpress":5770,"anduku":5771,"Ġantarg":5772,"Ġkilometers":5773,"Ġnivedika":5774,"Ġvyavasayam":5775,"Ġvaddaku":5776,"Ġsriram":5777,"Ġ06":5778,"ayindi":5779,"ento":5780,"Ġdet":5781,"Ġpanichestundhi":5782,"Ġtrailer":5783,"Ġsamskruthika":5784,"istundani":5785,"Ġvarito":5786,"Ġ150":5787,"Ġbangalore":5788,"Ġradi":5789,"Ġdaily":5790,"Ġ42":5791,"Ġhar":5792,"erial":5793,"Ġcheyakunda":5794,"Ġsamudra":5795,"Ġtirug":5796,"Ġpilustaru":5797,"Ġbest":5798,"ech":5799,"Ġdw":5800,"isthu":5801,"Ġvyarth":5802,"Ġpoly":5803,"Ġpradhany":5804,"Ġwarangal":5805,"Ġjeet":5806,"Ġnanyata":5807,"Ġbangaram":5808,"Ġchem":5809,"Ġyuva":5810,"atanni":5811,"Ġminchi":5812,"Ġunder":5813,"Ġsrust":5814,"Ġpri":5815,"ayamlo":5816,"Ġbagundi":5817,"onni":5818,"Ġmaruthundi":5819,"Ġakarshani":5820,"Ġob":5821,"Ġchakkaga":5822,"Ġvayasu":5823,"Ġdaari":5824,"Ġsamyogakriya":5825,"Ġvastayi":5826,"Ġpalan":5827,"Ġpiluv":5828,"aranalo":5829,"Ġnarayana":5830,"Ġvadi":5831,"Ġchoost":5832,"Ġrath":5833,"Ġ300":5834,"Ġbhinnanga":5835,"unnayani":5836,"Ġdashabd":5837,"avai":5838,"ikaga":5839,"12":5840,"Ġdelivery":5841,"Ġatipedda":5842,"tam":5843,"Ġrachana":5844,"Ġsalaha":5845,"Ġadarsh":5846,"Ġituvanti":5847,"Ġudyogalu":5848,"Ġmukham":5849,"Ġblock":5850,"avuth":5851,"Ġnirvach":5852,"Ġchivaraga":5853,"Ġnext":5854,"edana":5855,"pping":5856,"inchinappudu":5857,"arananu":5858,"Ġdeenipai":5859,"Ġbann":5860,"Ġrashtrap":5861,"Ġlekha":5862,"avart":5863,"Ġjabitan":5864,"Ġya":5865,"Ġmarn":5866,"eeni":5867,"Ġviniyogadaru":5868,"Ġkindi":5869,"Ġcheyagal":5870,"Ġfire":5871,"Ġprint":5872,"elailu":5873,"Ġ194":5874,"Ġtisukune":5875,"Ġedug":5876,"Ġsuchanalu":5877,"Ġrat":5878,"Ġcustomers":5879,"uniki":5880,"ervare":5881,"Ġpathak":5882,"Ġemmelailu":5883,"akante":5884,"Ġsig":5885,"ogal":5886,"Ġokkas":5887,"Ġpatranu":5888,"Ġjillaloni":5889,"Ġgranth":5890,"adaga":5891,"Ġvayu":5892,"Ġrahadari":5893,"avadu":5894,"arus":5895,"Ġvag":5896,"itham":5897,"Ġ55":5898,"Ġvelugu":5899,"Ġpaday":5900,"Ġchepttina":5901,"manam":5902,"Ġnela":5903,"Ġpalik":5904,"Ġvishleshana":5905,"Ġsud":5906,"Ġphalitalanu":5907,"Ġsaj":5908,"Ġnaluguru":5909,"Ġsid":5910,"Ġcredit":5911,"Ġcollege":5912,"Ġstates":5913,"Ġparit":5914,"kir":5915,"yanam":5916,"Ġhand":5917,"Ġtirum":5918,"Ġpunar":5919,"Ġgananiyanga":5920,"Ġmadhyaahnam":5921,"Ġapai":5922,"Ġintelligence":5923,"ges":5924,"uha":5925,"Ġviruddh":5926,"Ġkaalam":5927,"Ġundadam":5928,"ikala":5929,"abi":5930,"astar":5931,"opal":5932,"Ġpuri":5933,"Ġsanskriti":5934,"Ġnilip":5935,"nenu":5936,"Ġwindows":5937,"Ġwervare":5938,"Ġuttara":5939,"Ġdush":5940,"Ġpustakalu":5941,"Ġsahitya":5942,"endi":5943,"Ġgas":5944,"ants":5945,"Ġcherk":5946,"Ġnimag":5947,"Ġvanijya":5948,"Ġanusandh":5949,"Ġcheyabadindi":5950,"Ġathadi":5951,"Ġbhavodveg":5952,"Ġeff":5953,"Ġvartha":5954,"Ġthallidandrulu":5955,"Ġmalay":5956,"Ġpartiny":5957,"istunnanu":5958,"Ġmokka":5959,"Ġagr":5960,"Ġpaddathulanu":5961,"Ġlekh":5962,"Ġbharatadesamlo":5963,"alitha":5964,"io":5965,"alakshmi":5966,"Ġkrinda":5967,"hone":5968,"llo":5969,"unnattu":5970,"bha":5971,"Ġvanarulanu":5972,"akatvam":5973,"Ġaaharana":5974,"Ġaagraham":5975,"utune":5976,"Ġpolling":5977,"Ġgrama":5978,"Ġexce":5979,"inti":5980,"eld":5981,"Ġtiy":5982,"inchamani":5983,"atluga":5984,"Ġparisthitini":5985,"Ġlalo":5986,"Ġhost":5987,"Ġmodalaindi":5988,"alsindi":5989,"Ġanil":5990,"Ġkanipinche":5991,"Ġshraddha":5992,"Ġcamera":5993,"Ġceleb":5994,"Ġmamm":5995,"Ġauto":5996,"asabh":5997,"utunnadi":5998,"Ġemito":5999,"Ġkanipistondi":6000,"Ġnaitika":6001,"Ġlowe":6002,"Ġrajakeeyalu":6003,"Ġvayassu":6004,"Ġshatr":6005,"Ġmillion":6006,"ahatya":6007,"elugu":6008,"Ġsamudram":6009,"Ġrepu":6010,"Ġninnu":6011,"Ġdarakhastu":6012,"Ġneev":6013,"ize":6014,"Ġpariraksh":6015,"atalanu":6016,"ontu":6017,"Ġdevuni":6018,"istunnadu":6019,"Ġces":6020,"Ġayi":6021,"Ġushnograta":6022,"Ġpadm":6023,"Ġvastondi":6024,"Ġsukh":6025,"Ġcheppe":6026,"Ġcomedy":6027,"arinche":6028,"luc":6029,"Ġhaty":6030,"ivalla":6031,"Ġarogya":6032,"Ġanj":6033,"Ġtrip":6034,"Ġvo":6035,"Ġprot":6036,"Ġudi":6037,"aled":6038,"Ġachch":6039,"Ġardham":6040,"Ġvidesh":6041,"Ġbagane":6042,"Ġsecur":6043,"ban":6044,"Ġvaidyulu":6045,"Ġprasang":6046,"apatu":6047,"Ġvidyarthi":6048,"adaina":6049,"Ġdand":6050,"ever":6051,"Ġavineeti":6052,"Ġundela":6053,"Ġsahakaram":6054,"Ġunnaadu":6055,"kumar":6056,"Ġadl":6057,"Ġproduction":6058,"utunnarani":6059,"Ġroh":6060,"Ġvadda":6061,"Ġpanitiru":6062,"avutayi":6063,"Ġmaranam":6064,"Ġlaw":6065,"Ġasvad":6066,"Ġsaf":6067,"antone":6068,"Ġvivah":6069,"ariksh":6070,"Ġchestamani":6071,"Ġvanarulu":6072,"Ġyes":6073,"naku":6074,"avutunna":6075,"Ġvit":6076,"udo":6077,"amloki":6078,"Ġ44":6079,"Ġaccess":6080,"Ġchotla":6081,"Ġmond":6082,"Ġugr":6083,"Ġsaktivantamaina":6084,"Ġpanduga":6085,"Ġsupreme":6086,"sin":6087,"estunnaru":6088,"Ġlabhisthundi":6089,"Ġsanjay":6090,"ayakudu":6091,"Ġanipinchindi":6092,"Ġpon":6093,"Ġprekshakulanu":6094,"avettalu":6095,"Ġpoyindi":6096,"Ġcancer":6097,"Ġaarogyam":6098,"Ġarud":6099,"Ġpooja":6100,"ages":6101,"Ġmask":6102,"Ġbarin":6103,"30":6104,"ledu":6105,"ept":6106,"ipoyadu":6107,"Ġvunte":6108,"Ġsadhyam":6109,"Ġbhuj":6110,"Ġdosh":6111,"uty":6112,"Ġkiran":6113,"Ġnaksh":6114,"Ġbutt":6115,"Ġutpattulu":6116,"Ġfeed":6117,"Ġsahityam":6118,"Ġrevanth":6119,"Ġmaster":6120,"Ġappl":6121,"Ġbadili":6122,"Ġchoppuna":6123,"Ġsush":6124,"Ġadesimcharu":6125,"Ġadup":6126,"cp":6127,"Ġsecret":6128,"Ġveyadam":6129,"Ġbhavishyattulo":6130,"Ġmm":6131,"Ġvarlala":6132,"Ġpash":6133,"Ġshantr":6134,"asthanam":6135,"Ġtint":6136,"lore":6137,"Ġandubatuloki":6138,"Ġspeaker":6139,"edite":6140,"inchukovadam":6141,"Ġnirlaksh":6142,"aseb":6143,"Ġ2008":6144,"agr":6145,"Ġkutumbaniki":6146,"Ġguri":6147,"Ġrajy":6148,"atharu":6149,"ited":6150,"Ġsagam":6151,"Ġlakshyalanu":6152,"Ġlast":6153,"anubhut":6154,"Ġappud":6155,"Ġglobal":6156,"vy":6157,"Ġong":6158,"Ġcamp":6159,"Ġplatform":6160,"Ġbell":6161,"idini":6162,"utai":6163,"askarinch":6164,"Ġprayatnam":6165,"Ġnatimch":6166,"atulu":6167,"Ġotlu":6168,"ivari":6169,"Ġkosame":6170,"Ġevariki":6171,"Ġprabhutvaanni":6172,"Ġsabhalo":6173,"Ġsuj":6174,"Ġsagatu":6175,"cch":6176,"Ġfood":6177,"Ġten":6178,"Ġyadav":6179,"oksh":6180,"Ġsex":6181,"Ġsariga":6182,"atanam":6183,"Ġnagadu":6184,"lly":6185,"Ġparshara":6186,"Ġbhautika":6187,"ube":6188,"Ġsandh":6189,"Ġkid":6190,"ship":6191,"Ġparishodh":6192,"Ġpunaruddh":6193,"akandi":6194,"Ġokar":6195,"yani":6196,"asekhar":6197,"Ġuniversity":6198,"Ġtemp":6199,"avadh":6200,"Ġbhavishyathu":6201,"Ġvivadam":6202,"Ġdaggaraga":6203,"elaku":6204,"Ġveelu":6205,"Ġchedd":6206,"Ġkaryach":6207,"Ġ39":6208,"Ġparimanam":6209,"Ġbahusha":6210,"Ġalank":6211,"Ġandincadaniki":6212,"Ġvisip":6213,"Ġjus":6214,"Ġanukuntunn":6215,"Ġfit":6216,"Ġ52":6217,"Ġkathanu":6218,"Ġdadulu":6219,"Ġanubhavanni":6220,"athalu":6221,"uji":6222,"Ġthisukovali":6223,"avalasi":6224,"value":6225,"Ġveel":6226,"Ġgrameena":6227,"Ġravadanto":6228,"Ġmatr":6229,"Ġchint":6230,"Ġavat":6231,"alalu":6232,"Ġandistai":6233,"Ġvideos":6234,"Ġuser":6235,"Ġpac":6236,"orpu":6237,"appu":6238,"Ġmail":6239,"Ġunnatha":6240,"avalu":6241,"Ġnene":6242,"Ġvalley":6243,"atin":6244,"ipoye":6245,"Ġsatyan":6246,"Ġpanilo":6247,"Ġcp":6248,"Ġtelusuk":6249,"Ġaudio":6250,"Ġprarth":6251,"Ġruchi":6252,"alaap":6253,"utadu":6254,"Ġjuttu":6255,"Ġvesharu":6256,"apadindi":6257,"oddu":6258,"Ġsifarsu":6259,"avali":6260,"Ġtrivikram":6261,"Ġsannih":6262,"Ġchestunnarani":6263,"Ġchedu":6264,"Ġpilup":6265,"Ġardhika":6266,"Ġsurya":6267,"Ġkshin":6268,"akavargam":6269,"arla":6270,"arge":6271,"Ġber":6272,"Ġvishwas":6273,"Ġvelu":6274,"Ġnirvahinchadam":6275,"Ġpetition":6276,"esari":6277,"apatr":6278,"Ġcheyaledu":6279,"Ġalavatu":6280,"Ġundo":6281,"asp":6282,"Ġcity":6283,"Ġdam":6284,"Ġsthiti":6285,"Ġvellaru":6286,"Ġsem":6287,"Ġnett":6288,"Ġdop":6289,"tors":6290,"inatluga":6291,"Ġkavitha":6292,"haram":6293,"Ġikkadi":6294,"Ġgali":6295,"ension":6296,"Ġnand":6297,"Ġcharitraka":6298,"Ġraasi":6299,"ayite":6300,"Ġhm":6301,"Ġandarini":6302,"Ġamazon":6303,"apam":6304,"Ġpedu":6305,"Ġtane":6306,"aniyam":6307,"Ġvidudalaina":6308,"Ġceyadanto":6309,"Ġcontrol":6310,"Ġmett":6311,"Ġmarchu":6312,"rih":6313,"fr":6314,"Ġprakatinchina":6315,"akalp":6316,"Ġpapam":6317,"ness":6318,"Ġupadhyay":6319,"Ġokkasariga":6320,"daru":6321,"Ġshopping":6322,"Ġbeaut":6323,"indhi":6324,"Ġsiddhanta":6325,"ulanga":6326,"Ġmandipaddaru":6327,"Ġyoung":6328,"Ġthappudu":6329,"Ġlavad":6330,"Ġkalakram":6331,"Ġnirminchina":6332,"Ġkaryakalaap":6333,"hay":6334,"Ġkhayam":6335,"Ġkurag":6336,"Ġsusp":6337,"Ġlin":6338,"Ġpalp":6339,"Ġchesukune":6340,"Ġchakram":6341,"Ġrojuluga":6342,"Ġadhikarika":6343,"Ġshas":6344,"ukuntadu":6345,"Ġbreaking":6346,"Ġcut":6347,"Ġfeel":6348,"Ġhave":6349,"Ġtoorpu":6350,"Ġmothanni":6351,"Ġpin":6352,"Ġkast":6353,"Ġget":6354,"Ġpanini":6355,"Ġvini":6356,"idevi":6357,"Ġthatt":6358,"Ġrakap":6359,"Ġgurtinchandi":6360,"Ġsamiksha":6361,"Ġlakshmanalanu":6362,"ij":6363,"Ġmedical":6364,"Ġchel":6365,"utunte":6366,"Ġcheppandi":6367,"Ġpettubadulu":6368,"antham":6369,"Ġlond":6370,"Ġsharm":6371,"Ġattavi":6372,"Ġhai":6373,"Ġnellore":6374,"Ġkramanga":6375,"Ġfunction":6376,"usth":6377,"Ġkoddi":6378,"Ġgarish":6379,"Ġbhaktulu":6380,"patti":6381,"Ġvilla":6382,"Ġdesaniki":6383,"Ġban":6384,"Ġanant":6385,"Ġnelalu":6386,"Ġtarun":6387,"akas":6388,"ishna":6389,"Ġmood":6390,"Ġtamm":6391,"Ġ195":6392,"Ġnilabad":6393,"Ġvesh":6394,"shatam":6395,"ipedia":6396,"aname":6397,"Ġtaraf":6398,"unnaayi":6399,"Ġavakasalanu":6400,"Ġà®":6401,"ekam":6402,"fa":6403,"Ġbind":6404,"allonu":6405,"uthu":6406,"Ġlaku":6407,"unnappudu":6408,"Ġgluc":6409,"Ġ49":6410,"Ġadavi":6411,"Ġokappudu":6412,"Ġcabinet":6413,"Ġtext":6414,"Ġvruddh":6415,"Ġcan":6416,"Ġvrutti":6417,"Ġremake":6418,"Ġvuntundi":6419,"indannaru":6420,"Ġjamm":6421,"Ġnirnayinch":6422,"Ġbharati":6423,"Ġnara":6424,"Ġlong":6425,"Ġjanabh":6426,"Ġoohimch":6427,"Ġviniyogadarulaku":6428,"Ġnirmatalu":6429,"Ġcommer":6430,"Ġdoctors":6431,"oci":6432,"Ġvasin":6433,"Ġtheerpu":6434,"ual":6435,"Ġcheppalante":6436,"gat":6437,"Ġtup":6438,"Ġvargam":6439,"tual":6440,"alad":6441,"Ġjad":6442,"analapai":6443,"Ġvras":6444,"Ġsap":6445,"Ġpratiroju":6446,"Ġ43":6447,"orith":6448,"Ġkalay":6449,"Ġdakhalu":6450,"Ġdravy":6451,"Ġrayandi":6452,"Ġmishram":6453,"Ġmarina":6454,"ven":6455,"Ġandaga":6456,"Ġarun":6457,"Ġvaividh":6458,"Ġlare":6459,"Ġsamraj":6460,"Ġakka":6461,"Ġkuturu":6462,"Ġantargata":6463,"atvanni":6464,"Ġpravart":6465,"Ġsmartph":6466,"Ġsarkaru":6467,"Ġvivar":6468,"Ġvaidy":6469,"Ġprekshakulu":6470,"intiki":6471,"Ġgurtinchadaniki":6472,"Ġsamarthavantamaina":6473,"Ġpempond":6474,"isarlu":6475,"Ġdoub":6476,"ution":6477,"anicy":6478,"eenam":6479,"Ġjillallo":6480,"Ġthisukovdaniki":6481,"Ġuda":6482,"Ġstud":6483,"Ġleg":6484,"Ġbadhapad":6485,"Ġpraves":6486,"Ġsahakarinch":6487,"light":6488,"Ġfund":6489,"Ġstore":6490,"ukoledu":6491,"Ġmanthrulu":6492,"Ġgaji":6493,"Ġcoun":6494,"akalamlo":6495,"Ġunchandi":6496,"Ġwikipedia":6497,"Ġiyana":6498,"Ġtirupati":6499,"Ġkhar":6500,"viniyog":6501,"tions":6502,"Ġkalup":6503,"Ġvikray":6504,"arham":6505,"Ġdarshanam":6506,"Ġalgorith":6507,"Ġ47":6508,"Ġnizamabad":6509,"Ġchesukondi":6510,"antunnaru":6511,"aparamaina":6512,"Ġpoints":6513,"udr":6514,"Ġabhivruddiki":6515,"asha":6516,"Ġuddes":6517,"arinchindi":6518,"Ġyoga":6519,"15":6520,"aranna":6521,"artha":6522,"Ġbor":6523,"Ġdag":6524,"Ġmelu":6525,"isa":6526,"ss":6527,"kotta":6528,"asthayi":6529,"ift":6530,"Ġvistita":6531,"adanam":6532,"Ġbow":6533,"itram":6534,"Ġandinchina":6535,"Ġrajyas":6536,"Ġsarikotta":6537,"Ġkonugol":6538,"Ġkarim":6539,"avir":6540,"Ġtev":6541,"Ġmanagement":6542,"Ġdra":6543,"ense":6544,"uravam":6545,"arincharu":6546,"ele":6547,"Ġrupam":6548,"Ġcm":6549,"Ġmission":6550,"Ġcas":6551,"Ġmudr":6552,"Ġmothaniki":6553,"Ġassoci":6554,"Ġjagrathalu":6555,"Ġhapp":6556,"sto":6557,"Ġdesamloni":6558,"Ġportal":6559,"Ġprarambhinch":6560,"olog":6561,"anedi":6562,"abadutundi":6563,"Ġapram":6564,"Ġparugulu":6565,"Ġtandr":6566,"Ġcons":6567,"Ġanubandh":6568,"anand":6569,"akup":6570,"Ġmunduk":6571,"Ġudyamam":6572,"Ġisuka":6573,"Ġchesayi":6574,"Ġkhal":6575,"Ġ53":6576,"Ġtrend":6577,"Ġpettindi":6578,"Ġpiluvabade":6579,"Ġbeti":6580,"Ġvyaparalu":6581,"Ġsantripti":6582,"Ġdriver":6583,"Ġandanga":6584,"arb":6585,"Ġaz":6586,"Ġlonu":6587,"Ġprantala":6588,"Ġkopam":6589,"Ġeka":6590,"Ġthank":6591,"Ġhttps":6592,"unnadani":6593,"Ġrashtraniki":6594,"Ġmahilala":6595,"Ġparu":6596,"Ġbhaj":6597,"Ġundatanto":6598,"Ġpratib":6599,"ae":6600,"athanu":6601,"Ġedurkov":6602,"Ġasantr":6603,"Ġdillilo":6604,"Ġandroid":6605,"Ġuntadu":6606,"Ġ46":6607,"uthanga":6608,"Ġpresident":6609,"Ġbon":6610,"Ġmup":6611,"Ġom":6612,"Ġpilich":6613,"Ġettuna":6614,"ety":6615,"Ġkohli":6616,"Ġnach":6617,"Ġmarust":6618,"Ġpramukhyatanu":6619,"Ġdownload":6620,"ility":6621,"Ġpattana":6622,"akrishn":6623,"Ġnivedik":6624,"ataga":6625,"Ġaschary":6626,"Ġrupondimch":6627,"Ġdom":6628,"Ġsram":6629,"Ġkag":6630,"Ġdaggaraku":6631,"Ġappatike":6632,"Ġkakapote":6633,"Ġanuch":6634,"Ġnityam":6635,"Ġdorak":6636,"Ġbaruv":6637,"alsin":6638,"Ġmatam":6639,"Ġloks":6640,"Ġrajakeeyallo":6641,"Ġloc":6642,"Ġ57":6643,"Ġphones":6644,"Ġchesukovali":6645,"Ġatmah":6646,"innam":6647,"aksham":6648,"Ġbhayapad":6649,"Ġseetlu":6650,"Ġpov":6651,"Ġcolo":6652,"Ġlotaina":6653,"Ġpaur":6654,"Ġsamanv":6655,"Ġgadap":6656,"uvulanu":6657,"Ġsambandhalu":6658,"Ġvandala":6659,"idy":6660,"Ġidanta":6661,"Ġdhruv":6662,"mah":6663,"Ġghor":6664,"ganam":6665,"Ġvai":6666,"Ġdhan":6667,"inchukunnaru":6668,"inj":6669,"Ġbiy":6670,"Ġaush":6671,"Ġvrudd":6672,"Ġboy":6673,"atyam":6674,"Ġface":6675,"Ġsaty":6676,"Ġcheppukochch":6677,"Ġpanitirunu":6678,"Ġchent":6679,"yudi":6680,"Ġpratyaksha":6681,"Ġlim":6682,"Ġneg":6683,"off":6684,"Ġchih":6685,"eega":6686,"Ġmahill":6687,"Ġvadana":6688,"Ġmonday":6689,"alavari":6690,"Ġnimishala":6691,"Ġcheyalan":6692,"Ġsagu":6693,"Ġsamipamlo":6694,"Ġpach":6695,"Ġadharapad":6696,"Ġchendindi":6697,"Ġanumathimch":6698,"Ġnandi":6699,"Ġenni":6700,"press":6701,"Ġadesalu":6702,"nool":6703,"Ġgraph":6704,"Ġvedikaga":6705,"Ġ58":6706,"Ġchannel":6707,"agram":6708,"Ġdisc":6709,"Ġgnanam":6710,"Ġkatch":6711,"Ġprote":6712,"Ġjar":6713,"allaku":6714,"Ġepis":6715,"Ġtirumala":6716,"Ġmicr":6717,"Ġakh":6718,"tech":6719,"Ġlist":6720,"Ġhydr":6721,"Ġrakunda":6722,"Ġvatavarananni":6723,"irn":6724,"Ġcontra":6725,"Ġkerala":6726,"Ġsut":6727,"Ġvine":6728,"Ġventa":6729,"Ġsthayiki":6730,"Ġchekur":6731,"umdani":6732,"uma":6733,"Ġpeddalu":6734,"Ġcherina":6735,"Ġhakku":6736,"Ġamsampai":6737,"Ġthomm":6738,"Ġkaryakarthalu":6739,"Ġalgorithm":6740,"Ġsamay":6741,"Ġgamanarham":6742,"este":6743,"Ġvyaktit":6744,"Ġpradhamika":6745,"akapoyina":6746,"Ġfriday":6747,"ithanga":6748,"Ġbaahubali":6749,"ugg":6750,"Ġcaptain":6751,"Ġsoni":6752,"ekapot":6753,"Ġmegastar":6754,"Ġgunda":6755,"Ġgener":6756,"Ġsardubatu":6757,"Ġswadh":6758,"Ġwho":6759,"Ġchusina":6760,"Ġchudataniki":6761,"Ġcommunic":6762,"Ġbomb":6763,"onnadu":6764,"Ġtatkal":6765,"Ġtann":6766,"Ġhard":6767,"ury":6768,"que":6769,"sw":6770,"ulak":6771,"Ġvachadu":6772,"Ġrast":6773,"Ġkhamm":6774,"Ġstree":6775,"Ġchuddam":6776,"Ġrisk":6777,"Ġpaddathulu":6778,"Ġaatmahatya":6779,"Ġenimidi":6780,"unni":6781,"Ġanshalapai":6782,"Ġmost":6783,"Ġchiru":6784,"Ġrank":6785,"sy":6786,"11":6787,"Ġvesindi":6788,"Ġchakkera":6789,"Ġsambandha":6790,"akankshalu":6791,"do":6792,"Ġanush":6793,"Ġchesukoni":6794,"Ġsren":6795,"Ġtour":6796,"Ġge":6797,"Ġdevi":6798,"Ġkharchulanu":6799,"Ġsuprencort":6800,"sc":6801,"udilly":6802,"Ġsankalp":6803,"Ġsankl":6804,"Ġmokkala":6805,"Ġimage":6806,"Ġkatchitanga":6807,"asr":6808,"apatnam":6809,"Ġsamananga":6810,"Ġvyathireka":6811,"alk":6812,"Ġsamo":6813,"Ġgurtincharu":6814,"ashi":6815,"Ġari":6816,"adulu":6817,"Ġmaharashtra":6818,"Ġchestanu":6819,"ikalo":6820,"Ġnirud":6821,"Ġvastuvulanu":6822,"Ġvishakha":6823,"Ġpandlu":6824,"gi":6825,"Ġnasanam":6826,"Ġsnehitulu":6827,"Ġrajyam":6828,"Ġmunig":6829,"Ġdhairyam":6830,"Ġgand":6831,"Ġdocum":6832,"Ġpromotion":6833,"angana":6834,"Ġvyakhyanincharu":6835,"Ġgudd":6836,"Ġacc":6837,"ocol":6838,"Ġcours":6839,"Ġpradhanyam":6840,"Ġanumanam":6841,"Ġeverycy":6842,"nesday":6843,"Ġyajamani":6844,"Ġkumarte":6845,"Ġdubb":6846,"Ġneoj":6847,"ange":6848,"vani":6849,"Ġavutondi":6850,"Ġsahayapadatayi":6851,"Ġwednesday":6852,"ellalo":6853,"Ġkadil":6854,"Ġudyogula":6855,"Ġpratibimb":6856,"ws":6857,"Ġfinal":6858,"taur":6859,"achchani":6860,"Ġprapanchanni":6861,"Ġvijayanni":6862,"mana":6863,"atadu":6864,"pulu":6865,"Ġematram":6866,"Ġpettukuni":6867,"Ġvirtual":6868,"Ġnidr":6869,"Ġutsah":6870,"Ġresp":6871,"Ġparisthitulanu":6872,"avetta":6873,"umu":6874,"eyandi":6875,"Ġdari":6876,"Ġflo":6877,"Ġpradarshana":6878,"Ġrad":6879,"Ġgarv":6880,"Ġli":6881,"Ġvitamin":6882,"urna":6883,"Ġtheeru":6884,"shm":6885,"Ġarticle":6886,"per":6887,"agani":6888,"Ġyatra":6889,"Ġneudilly":6890,"ukunnayi":6891,"Ġmanager":6892,"panch":6893,"edam":6894,"Ġsinimaki":6895,"alannaru":6896,"Ġ54":6897,"Ġprades":6898,"Ġadhyatm":6899,"Ġrana":6900,"Ġkavi":6901,"Ġevol":6902,"Ġkonnisarlu":6903,"Ġdinivalla":6904,"Ġproduct":6905,"Ġoil":6906,"esariki":6907,"Ġcorporate":6908,"Ġrupondimchandi":6909,"Ġippud":6910,"Ġtuesday":6911,"Ġudik":6912,"inchan":6913,"Ġganta":6914,"Ġcer":6915,"apana":6916,"Ġaalas":6917,"ishkarinch":6918,"Ġ56":6919,"Ġ41":6920,"Ġvachina":6921,"Ġnilichindi":6922,"Ġben":6923,"Ġvacchinappudu":6924,"pap":6925,"agrah":6926,"Ġvendi":6927,"Ġvijj":6928,"Ġling":6929,"Ġadhikarula":6930,"Ġparijganam":6931,"Ġ59":6932,"Ġerr":6933,"Ġupayogam":6934,"Ġakrama":6935,"ahar":6936,"Ġfix":6937,"aracter":6938,"Ġkanipinchindi":6939,"Ġiddari":6940,"Ġrashtramloni":6941,"Ġnisch":6942,"Ġdatt":6943,"Ġperugud":6944,"Ġpaniki":6945,"ible":6946,"atikappudu":6947,"Ġtisina":6948,"avadaniki":6949,"Ġpustak":6950,"Ġutpattulanu":6951,"Ġsecurity":6952,"Ġtrain":6953,"Ġcentral":6954,"Ġkendramlo":6955,"Ġgadip":6956,"Ġhims":6957,"utunnatlu":6958,"Ġdrushtilo":6959,"Ġranga":6960,"Ġmmelly":6961,"Ġnovel":6962,"Ġstudi":6963,"Ġgopal":6964,"Ġvelladinchindi":6965,"inchukuni":6966,"Ġasadh":6967,"Ġdirect":6968,"unny":6969,"Ġpaniches":6970,"agadam":6971,"Ġcounter":6972,"avallu":6973,"Ġpadina":6974,"aryn":6975,"Ġq":6976,"Ġsahayak":6977,"Ġsthitilo":6978,"Ġvunt":6979,"utaku":6980,"Ġpuratana":6981,"Ġsanchalanam":6982,"Ġsahayapadataniki":6983,"Ġoperation":6984,"mee":6985,"21":6986,"Ġkaneesa":6987,"Ġsnehith":6988,"Ġpettubadid":6989,"Ġichchadu":6990,"avel":6991,"arath":6992,"Ġsankshipta":6993,"Ġpend":6994,"Ġright":6995,"Ġgurlinchi":6996,"Ġdy":6997,"Ġvishn":6998,"Ġvallaku":6999,"raju":7000,"Ġsuv":7001,"amsam":7002,"avathi":7003,"Ġswatch":7004,"avachchani":7005,"lines":7006,"Ġlaga":7007,"Ġshiksha":7008,"Ġupdates":7009,"ography":7010,"Ġbike":7011,"ets":7012,"Ġchestunnadu":7013,"ukalu":7014,"unnai":7015,"use":7016,"enue":7017,"Ġsulabh":7018,"Ġsath":7019,"inilo":7020,"Ġennikalaku":7021,"Ġjabitalo":7022,"Ġbel":7023,"Ġantariksh":7024,"Ġvale":7025,"mandi":7026,"Ġspo":7027,"amain":7028,"Ġnatistunna":7029,"Ġullangh":7030,"Ġvarth":7031,"Ġsi":7032,"istunnarani":7033,"Ġravind":7034,"Ġveyadaniki":7035,"Ġpramukhyata":7036,"Ġmanass":7037,"amainavi":7038,"Ġalage":7039,"Ġvidyarthula":7040,"Ġhecchari":7041,"Ġcurrent":7042,"Ġnokk":7043,"apill":7044,"Ġbayaluder":7045,"Ġasah":7046,"alann":7047,"Ġvanda":7048,"Ġganank":7049,"Ġvastundani":7050,"cl":7051,"Ġblu":7052,"Ġpurogati":7053,"Ġthurs":7054,"Ġpattukuni":7055,"Ġrestaur":7056,"Ġkarimnagar":7057,"oto":7058,"Ġpratyarth":7059,"Ġvyaktula":7060,"Ġsandeham":7061,"Ġindustry":7062,"Ġvistatanga":7063,"Ġbhu":7064,"Ġveeti":7065,"Ġsanskrit":7066,"Ġradd":7067,"nap":7068,"wa":7069,"Ġvarun":7070,"Ġpalpad":7071,"Ġcorporation":7072,"Ġassistant":7073,"Ġandincharu":7074,"Ġvyaktiki":7075,"Ġvyaktini":7076,"Ġmalu":7077,"Ġcherindi":7078,"Ġpens":7079,"Ġtelup":7080,"Ġtaruv":7081,"Ġvikram":7082,"ipovadam":7083,"Ġvivek":7084,"Ġpindi":7085,"Ġlopu":7086,"Ġprasaram":7087,"Ġlavadev":7088,"Ġself":7089,"Ġjustice":7090,"Ġhad":7091,"Ġheroine":7092,"Ġkarmikulu":7093,"Ġbijiga":7094,"Ġglucose":7095,"Ġsamy":7096,"Ġatyavasara":7097,"Ġregistr":7098,"Ġrangamloki":7099,"Ġprogramm":7100,"Ġmudava":7101,"Ġcharacter":7102,"Ġcool":7103,"Ġshirsh":7104,"istunnatlu":7105,"Ġkhachchitamaina":7106,"Ġswatantr":7107,"Ġaustralia":7108,"Ġthursday":7109,"Ġarpadindi":7110,"andamuri":7111,"argam":7112,"Ġuday":7113,"avidyalayam":7114,"agott":7115,"Ġrashtrapati":7116,"pal":7117,"Ġvic":7118,"uld":7119,"Ġsoura":7120,"Ġeppatiki":7121,"Ġmotor":7122,"upad":7123,"Ġnirvahinch":7124,"Ġvibhag":7125,"Ġnimm":7126,"Ġvishayaniki":7127,"Ġtor":7128,"Ġchestunnayi":7129,"Ġdaritisindi":7130,"Ġhotel":7131,"Ġsadar":7132,"achcha":7133,"Ġkoduk":7134,"mchi":7135,"Ġmammalni":7136,"Ġjatt":7137,"Ġtelisi":7138,"Ġacadem":7139,"Ġtarafun":7140,"Ġbalo":7141,"Ġfe":7142,"Ġsastriya":7143,"Ġvelladam":7144,"Ġdaiv":7145,"Ġgar":7146,"Ġrajki":7147,"Ġviniyogam":7148,"lin":7149,"Ġvyavasthalu":7150,"Ġanubhavam":7151,"Ġchaduvu":7152,"ko":7153,"Ġsantoshanga":7154,"Ġavasaralu":7155,"Ġmanug":7156,"apat":7157,"elluga":7158,"Ġpadarthalu":7159,"Ġnayakatvam":7160,"Ġvign":7161,"Ġashok":7162,"Ġayyayi":7163,"Ġlaunch":7164,"Ġsamakur":7165,"Ġcyber":7166,"Ġloney":7167,"Ġkritajj":7168,"Ġshank":7169,"okki":7170,"Ġperkon":7171,"jana":7172,"Ġyatr":7173,"Ġantata":7174,"Ġityale":7175,"Ġkalasi":7176,"Ġpanicheyadam":7177,"Ġcolleges":7178,"Ġversion":7179,"yothi":7180,"ades":7181,"Ġpranam":7182,"Ġoop":7183,"Ġvaidyam":7184,"ci":7185,"Ġudrik":7186,"Ġheccharyn":7187,"Ġanto":7188,"Ġvastavam":7189,"Ġkathanay":7190,"Ġkshanam":7191,"Ġthirch":7192,"Ġkilakamaina":7193,"nalu":7194,"thiga":7195,"Ġnetrit":7196,"Ġphotol":7197,"Ġlyn":7198,"Ġkrim":7199,"Ġpandit":7200,"antar":7201,"Ġunnat":7202,"ipothundi":7203,"etter":7204,"Ġdashalanu":7205,"Ġhighlight":7206,"Ġsamasyala":7207,"Ġkapoor":7208,"Ġmandulu":7209,"Ġprabhavalanu":7210,"Ġeffect":7211,"Ġlive":7212,"Ġrole":7213,"Ġannanu":7214,"Ġmaddatu":7215,"Ġavasaralanu":7216,"Ġrakth":7217,"isina":7218,"Ġchotuches":7219,"ayyadu":7220,"Ġminister":7221,"Ġshastr":7222,"nanga":7223,"Ġgm":7224,"oke":7225,"Ġroad":7226,"Ġtarachu":7227,"Ġoppand":7228,"Ġdance":7229,"adamlo":7230,"vari":7231,"orts":7232,"Ġyour":7233,"Ġvanta":7234,"Ġkurchuni":7235,"Ġviniyogadarula":7236,"Ġpree":7237,"isha":7238,"Ġjarigai":7239,"Ġplant":7240,"Ġpartil":7241,"Ġamaravati":7242,"iger":7243,"ishta":7244,"br":7245,"Ġchudatam":7246,"Ġvedik":7247,"Ġarav":7248,"Ġviplav":7249,"askaram":7250,"Ġpla":7251,"Ġcharmam":7252,"Ġtheaters":7253,"Ġcheyalsina":7254,"Ġpunjab":7255,"Ġrupakalp":7256,"Ġsukr":7257,"antivi":7258,"Ġkaryakalapalu":7259,"Ġadduthanga":7260,"Ġnirash":7261,"Ġtanak":7262,"urthi":7263,"Ġ51":7264,"Ġmandali":7265,"Ġmain":7266,"Ġkathanam":7267,"Ġtata":7268,"Ġneevu":7269,"bot":7270,"Ġinch":7271,"ulonu":7272,"ushtini":7273,"Ġbahumati":7274,"Ġeduruchust":7275,"Ġprotsahincadam":7276,"Ġmovies":7277,"Ġjack":7278,"Ġgouravam":7279,"Ġpencham":7280,"poyi":7281,"Ġeta":7282,"Ġpratham":7283,"adug":7284,"apurvaka":7285,"inations":7286,"Ġganu":7287,"idhar":7288,"asebuck":7289,"upalli":7290,"Ġtega":7291,"Ġunion":7292,"adaru":7293,"Ġrange":7294,"esw":7295,"Ġgujarat":7296,"Ġsthanik":7297,"Ġspandist":7298,"alasina":7299,"Ġkanabad":7300,"Ġnidrap":7301,"ikulu":7302,"Ġkesula":7303,"Ġnijame":7304,"Ġyuvathi":7305,"Ġsarira":7306,"Ġchirun":7307,"Ġantekakunda":7308,"Ġityali":7309,"atamlo":7310,"aduthu":7311,"Ġneed":7312,"Ġkattubadi":7313,"Ġlal":7314,"Ġfoot":7315,"Ġparisramic":7316,"alosin":7317,"Ġkonda":7318,"Ġking":7319,"Ġpravartana":7320,"Ġbattery":7321,"Ġnibandhanalu":7322,"Ġclarity":7323,"Ġbhagaswamyam":7324,"Ġpott":7325,"Ġsaval":7326,"Ġorg":7327,"gala":7328,"Ġmeruguparachadam":7329,"bar":7330,"adan":7331,"Ġbog":7332,"Ġbody":7333,"Ġrashya":7334,"angi":7335,"Ġvegam":7336,"Ġaadi":7337,"addani":7338,"Ġbhavanam":7339,"Ġsadhana":7340,"Ġayudh":7341,"Ġcraze":7342,"Ġshwas":7343,"pothundi":7344,"Ġdopidi":7345,"Ġsukshm":7346,"adine":7347,"Ġayanam":7348,"Ġidila":7349,"ainavi":7350,"Ġshreni":7351,"Ġdav":7352,"ikaina":7353,"Ġjac":7354,"Ġadugulu":7355,"Ġpuvv":7356,"unnamu":7357,"Ġkalip":7358,"cial":7359,"Ġcavalosin":7360,"Ġfeatures":7361,"ino":7362,"arshi":7363,"Ġfree":7364,"arant":7365,"alunnayi":7366,"Ġbhagavant":7367,"ammeeda":7368,"Ġlondon":7369,"ikalanu":7370,"usarlu":7371,"Ġbuj":7372,"Ġyepp":7373,"Ġkaliginche":7374,"Ġkit":7375,"Ġishtamaina":7376,"Ġshatabdam":7377,"Ġaalasyam":7378,"Ġprofession":7379,"Ġrupeel":7380,"Ġrasayana":7381,"eech":7382,"Ġsubhakankshalu":7383,"Ġswadheenam":7384,"Ġstep":7385,"Ġtinadam":7386,"uleni":7387,"ivud":7388,"idiato":7389,"ajan":7390,"Ġkappu":7391,"Ġsamayaniki":7392,"iddaru":7393,"Ġshastra":7394,"gaz":7395,"Ġjob":7396,"Ġpratinidhyam":7397,"alavariga":7398,"Ġbalopet":7399,"Ġmeidiato":7400,"roj":7401,"Ġpir":7402,"Ġmind":7403,"Ġchepad":7404,"Ġchadavandi":7405,"Ġprov":7406,"Ġparimita":7407,"erence":7408,"Ġsour":7409,"Ġscript":7410,"Ġchance":7411,"Ġbol":7412,"okap":7413,"Ġchestadu":7414,"Ġsuryam":7415,"yy":7416,"Ġyam":7417,"Ġpoor":7418,"Ġpariganimch":7419,"Ġpolavaram":7420,"Ġpranti":7421,"arulanu":7422,"Ġethu":7423,"Ġpetrol":7424,"Ġchekk":7425,"Ġindustries":7426,"Ġkanch":7427,"Ġgruh":7428,"Ġkore":7429,"Ġkurnool":7430,"Ġfasebuck":7431,"Ġemotion":7432,"Ġalso":7433,"Ġkritajjatalu":7434,"Ġbayatiki":7435,"Ġadhikarulaku":7436,"Ġsampurna":7437,"Ġkalla":7438,"Ġvalasa":7439,"Ġcheekati":7440,"Ġbanner":7441,"apatam":7442,"Ġgeet":7443,"Ġvarada":7444,"astulu":7445,"Ġrakark":7446,"Ġashchary":7447,"Ġnarayan":7448,"Ġroopondinchina":7449,"Ġanyayam":7450,"alon":7451,"Ġlechi":7452,"utham":7453,"Ġmiku":7454,"Ġnilad":7455,"Ġharsh":7456,"Ġsrishtinchadam":7457,"ather":7458,"Ġraatri":7459,"Ġcharyalanu":7460,"Ġmottammeeda":7461,"Ġprajal":7462,"ators":7463,"ergy":7464,"Ġbengal":7465,"Ġmarikonni":7466,"arante":7467,"Ġnandamuri":7468,"urali":7469,"Ġtark":7470,"Ġchivar":7471,"irm":7472,"Ġketay":7473,"oddi":7474,"alogu":7475,"Ġdevarak":7476,"Ġgurtinchadam":7477,"athayi":7478,"abaddh":7479,"Ġhajar":7480,"Ġkund":7481,"Ġrasharu":7482,"Ġmukkalu":7483,"Ġmargalu":7484,"Ġnepathyam":7485,"Ġshe":7486,"Ġbharosa":7487,"Ġkadup":7488,"unnamani":7489,"Ġcheyatam":7490,"Ġcell":7491,"Ġdruv":7492,"Ġkotl":7493,"Ġpattanam":7494,"ley":7495,"itya":7496,"Ġground":7497,"jeev":7498,"Ġmadr":7499,"Ġlangu":7500,"led":7501,"Ġaspatri":7502,"ukovalsina":7503,"Ġnetala":7504,"inatl":7505,"aboth":7506,"Ġjagratha":7507,"Ġdriving":7508,"tificial":7509,"shan":7510,"endu":7511,"esar":7512,"Ġnivarinch":7513,"Ġmukhyamantr":7514,"Ġkrishnam":7515,"incha":7516,"Ġlic":7517,"Ġbihar":7518,"arapu":7519,"utunnappudu":7520,"Ġchustunna":7521,"Ġuchitanga":7522,"Ġkoodaa":7523,"ppudu":7524,"Ġorig":7525,"egr":7526,"ler":7527,"Ġpramani":7528,"Ġsahas":7529,"Ġtul":7530,"Ġundavacchu":7531,"Ġuttarv":7532,"arikanga":7533,"Ġkalak":7534,"Ġpette":7535,"Ġpadarthalanu":7536,"Ġpeop":7537,"Ġmottamod":7538,"uvuga":7539,"estu":7540,"ments":7541,"antic":7542,"Ġcomputers":7543,"Ġarhata":7544,"Ġnilust":7545,"Ġparyavarana":7546,"avasaram":7547,"Ġplus":7548,"ient":7549,"Ġmucch":7550,"Ġ99":7551,"Ġchesinappudu":7552,"Ġhruday":7553,"Ġpracrealo":7554,"ayog":7555,"Ġutpad":7556,"Ġchuse":7557,"Ġravadaniki":7558,"poye":7559,"ikit":7560,"Ġje":7561,"Ġkalushyam":7562,"Ġnote":7563,"Ġbhavan":7564,"ahas":7565,"avaipu":7566,"atip":7567,"Ġganesh":7568,"edaina":7569,"Ġstat":7570,"Ġavasaramaite":7571,"Ġsabhyudu":7572,"Ġkukka":7573,"ys":7574,"Ġteesukunte":7575,"viniyogam":7576,"ukosam":7577,"Ġkanipistayi":7578,"avantam":7579,"Ġadhip":7580,"Ġlaabham":7581,"Ġtemindia":7582,"Ġkajal":7583,"Ġkhammam":7584,"astram":7585,"Ġperunu":7586,"Ġavakasanni":7587,"ayanto":7588,"ago":7589,"Ġnivarinchadaniki":7590,"Ġnijanga":7591,"Ġasw":7592,"Ġsangath":7593,"Ġsaradaga":7594,"olic":7595,"Ġnatimcharu":7596,"anike":7597,"Ġuh":7598,"Ġparikaralu":7599,"Ġvrutt":7600,"Ġleader":7601,"ner":7602,"ekki":7603,"Ġakasm":7604,"Ġinstall":7605,"endar":7606,"Ġipl":7607,"Ġsurakshitanga":7608,"abhai":7609,"Ġledante":7610,"atlo":7611,"athvam":7612,"Ġcheyan":7613,"Ġpadalu":7614,"zation":7615,"Ġpradesham":7616,"Ġhelp":7617,"iraj":7618,"Ġthey":7619,"Ġokesari":7620,"Ġnamodu":7621,"Ġthappanisariga":7622,"Ġthrill":7623,"her":7624,"adars":7625,"Ġchan":7626,"Ġnany":7627,"Ġkavadaniki":7628,"Ġanuvart":7629,"ories":7630,"Ġpattu":7631,"Ġsimh":7632,"Ġandukunna":7633,"Ġsachiv":7634,"Ġappudappudu":7635,"Ġbadd":7636,"Ġprajallo":7637,"Ġkaryakramanni":7638,"Ġnetiz":7639,"Ġpratyamnaya":7640,"Ġprerep":7641,"Ġmata":7642,"Ġdesi":7643,"Ġmetres":7644,"adri":7645,"Ġfound":7646,"enda":7647,"Ġgeluch":7648,"Ġgraham":7649,"Ġprekshakulaku":7650,"Ġprocessing":7651,"alin":7652,"ikh":7653,"athini":7654,"Ġclu":7655,"Ġinko":7656,"Ġchantralo":7657,"Ġsatyanarayana":7658,"anap":7659,"Ġthin":7660,"Ġvahanalu":7661,"Ġdouble":7662,"Ġnilabett":7663,"band":7664,"Ġontariga":7665,"Ġmatha":7666,"Ġpadartham":7667,"Ġjagann":7668,"Ġcoron":7669,"Ġvarshika":7670,"Ġekaika":7671,"Ġjarigite":7672,"Ġmillions":7673,"Ġkalakramena":7674,"Ġadmin":7675,"Ġsarihadd":7676,"Ġritilo":7677,"Ġbhaskar":7678,"uddha":7679,"Ġprofess":7680,"gic":7681,"Ġpedite":7682,"Ġgadhi":7683,"Ġbot":7684,"avaddu":7685,"Ġprarambhinchandi":7686,"Ġoohinchani":7687,"ook":7688,"Ġsankhyanu":7689,"Ġprakas":7690,"Ġthisukell":7691,"chadu":7692,"Ġsym":7693,"Ġsv":7694,"Ġdub":7695,"Ġamina":7696,"Ġudgaralanu":7697,"Ġmanjuru":7698,"achi":7699,"Ġleak":7700,"Ġsiva":7701,"Ġmedha":7702,"Ġcollections":7703,"Ġadhikarulanu":7704,"adesh":7705,"Ġchak":7706,"Ġtaralincharu":7707,"Ġadah":7708,"Ġweek":7709,"Ġtelindi":7710,"Ġnirantara":7711,"Ġsadhinchadaniki":7712,"tics":7713,"akash":7714,"Ġdinilo":7715,"Ġadhunatan":7716,"ista":7717,"Ġspandincharu":7718,"Ġtaraha":7719,"Ġnoone":7720,"inchavacchu":7721,"Ġanaga":7722,"Ġmarganni":7723,"Ġserious":7724,"Ġswayam":7725,"Ġmulam":7726,"Ġminahay":7727,"Ġgelup":7728,"Ġottidini":7729,"eswar":7730,"Ġvastuvu":7731,"Ġkaryalay":7732,"akaranga":7733,"Ġakkineni":7734,"jam":7735,"estaru":7736,"Ġgourav":7737,"Ġpodupu":7738,"Ġprab":7739,"Ġvivadas":7740,"Ġneetilo":7741,"avada":7742,"Ġvivarist":7743,"Ġgold":7744,"apti":7745,"Ġpid":7746,"Ġpeda":7747,"asabha":7748,"Ġnaipunyam":7749,"Ġschedul":7750,"Ġinni":7751,"inelo":7752,"unani":7753,"aladi":7754,"Ġmepp":7755,"Ġtamanu":7756,"appati":7757,"Ġview":7758,"Ġrajasth":7759,"Ġchustunte":7760,"Ġub":7761,"Ġsthanal":7762,"Ġsamyuk":7763,"kara":7764,"Ġmuth":7765,"ekalu":7766,"Ġudyogulaku":7767,"Ġrayalas":7768,"alekapoy":7769,"itva":7770,"apadina":7771,"Ġprojects":7772,"Ġchepattaru":7773,"Ġdays":7774,"Ġvipp":7775,"Ġmugimpu":7776,"evidhanga":7777,"Ġmundastu":7778,"Ġkanugonadaniki":7779,"Ġsankshem":7780,"Ġsingle":7781,"Ġthot":7782,"Ġsril":7783,"Ġvahanam":7784,"Ġdrishtiki":7785,"Ġbis":7786,"Ġaatma":7787,"Ġlabhinchindi":7788,"Ġsweeya":7789,"Ġdies":7790,"Ġbudd":7791,"Ġmargamlo":7792,"Ġbirth":7793,"Ġadhyatmika":7794,"Ġpy":7795,"eedi":7796,"Ġmis":7797,"Ġparishramalo":7798,"Ġsunnit":7799,"Ġjun":7800,"Ġenj":7801,"Ġparikaram":7802,"Ġpalgont":7803,"lex":7804,"inchalsi":7805,"Ġdialogu":7806,"Ġneozecovergamlo":7807,"Ġrock":7808,"Ġbail":7809,"elanu":7810,"erson":7811,"ullone":7812,"aparach":7813,"Ġsandarbhallo":7814,"Ġstand":7815,"Ġakkadiki":7816,"Ġdustulu":7817,"ald":7818,"Ġsnanam":7819,"Ġpratibh":7820,"Ġabhyarthulu":7821,"Ġgovernment":7822,"Ġpich":7823,"Ġsamardh":7824,"Ġchesetappudu":7825,"Ġaradh":7826,"Ġviz":7827,"uvan":7828,"Ġkeelakam":7829,"Ġfre":7830,"inglo":7831,"Ġfight":7832,"Ġspace":7833,"avadulu":7834,"Ġchestam":7835,"Ġkaryakramaniki":7836,"Ġnipp":7837,"Ġgall":7838,"Ġconst":7839,"Ġdalit":7840,"Ġnatan":7841,"Ġbre":7842,"Ġteesukunt":7843,"inapudu":7844,"Ġanandanga":7845,"Ġudaharana":7846,"Ġnelaku":7847,"Ġbhagamlo":7848,"Ġkathalo":7849,"Ġpraveen":7850,"cu":7851,"Ġke":7852,"unta":7853,"Ġdebba":7854,"Ġrevenue":7855,"Ġravite":7856,"isariga":7857,"igina":7858,"Ġmann":7859,"Ġchestunnatlu":7860,"Ġinvest":7861,"Ġsomm":7862,"Ġveluvad":7863,"Ġpramadanni":7864,"Ġmarpidi":7865,"Ġakup":7866,"Ġ400":7867,"Ġpondadam":7868,"Ġdarsakatvam":7869,"Ġneer":7870,"Ġpre":7871,"Ġvyavasthap":7872,"araja":7873,"Ġnuvv":7874,"17":7875,"Ġaarogyanni":7876,"Ġnalg":7877,"cer":7878,"Ġvare":7879,"Ġistaru":7880,"tification":7881,"Ġimp":7882,"yamu":7883,"Ġtelusukovadaniki":7884,"Ġgariki":7885,"Ġdhoni":7886,"Ġadugula":7887,"anati":7888,"Ġiste":7889,"Ġchanip":7890,"uroj":7891,"Ġcopy":7892,"pade":7893,"Ġkn":7894,"Ġkarig":7895,"Ġyeppatikappudu":7896,"eria":7897,"Ġamodam":7898,"Ġveela":7899,"Ġnirdarana":7900,"bab":7901,"Ġment":7902,"Ġ65":7903,"par":7904,"ugaa":7905,"Ġmeere":7906,"Ġvadul":7907,"Ġmajority":7908,"Ġkeelaka":7909,"iter":7910,"Ġbhad":7911,"ume":7912,"Ġupayogistam":7913,"Ġrupayal":7914,"Ġutpattini":7915,"Ġikapai":7916,"Ġgrand":7917,"Ġjarigindani":7918,"Ġwebb":7919,"Ġjillala":7920,"charyam":7921,"Ġnelallo":7922,"Ġtype":7923,"Ġkathinamaina":7924,"Ġnavig":7925,"Ġpodig":7926,"Ġnoppy":7927,"Ġstations":7928,"Ġchebutaru":7929,"Ġgramallo":7930,"Ġviruddhanga":7931,"Ġrestaurant":7932,"Ġdrive":7933,"Ġvisakhapatnam":7934,"Ġneozakavargam":7935,"akku":7936,"Ġrajyanga":7937,"Ġikkade":7938,"Ġvarshalu":7939,"Ġnirdharimch":7940,"Ġsales":7941,"Ġpratinidhi":7942,"Ġshantravettalu":7943,"inchad":7944,"Ġgmt":7945,"Ġprarambhinchina":7946,"annadu":7947,"Ġthodu":7948,"ondist":7949,"ivity":7950,"Ġrendella":7951,"room":7952,"Ġkannada":7953,"Ġchlor":7954,"Ġokkokk":7955,"Ġprantiya":7956,"aar":7957,"Ġshyam":7958,"Ġpratip":7959,"Ġkanundi":7960,"Ġkaranala":7961,"Ġpalgonna":7962,"hal":7963,"Ġsris":7964,"Ġkota":7965,"Ġghananga":7966,"Ġmanasulo":7967,"Ġchitt":7968,"Ġsabhula":7969,"akumundu":7970,"Ġupayoginchadaniki":7971,"Ġanantapur":7972,"Ġlimited":7973,"Ġbalopetam":7974,"ful":7975,"Ġvishnu":7976,"Ġthanks":7977,"Ġkos":7978,"Ġys":7979,"Ġtakkuv":7980,"Ġnirdesh":7981,"Ġvoice":7982,"ites":7983,"Ġkhararu":7984,"Ġbhavananu":7985,"Ġprasiddhi":7986,"inchab":7987,"Ġtagil":7988,"Ġbeauty":7989,"Ġaff":7990,"Ġeppudaina":7991,"Ġchakravarth":7992,"lapai":7993,"Ġdaniki":7994,"Ġdrushtini":7995,"Ġprarambhinchindi":7996,"Ġcheyabaduthundi":7997,"Ġthandri":7998,"Ġavin":7999,"Ġword":8000,"Ġupash":8001,"Ġpillalanu":8002,"Ġpoojalu":8003,"Ġfactor":8004,"anivv":8005,"Ġsow":8006,"Ġitr":8007,"Ġdook":8008,"Ġsanvatsarala":8009,"Ġchick":8010,"Ġkobb":8011,"Ġvelite":8012,"Ġunnaanu":8013,"Ġsrusht":8014,"Ġkumbh":8015,"igaru":8016,"Ġwats":8017,"Ġteacher":8018,"Ġkoti":8019,"inchukune":8020,"Ġlato":8021,"ips":8022,"Ġmarindi":8023,"evariki":8024,"Ġinternational":8025,"Ġratr":8026,"adugu":8027,"Ġmandini":8028,"Ġfront":8029,"Ġheccharyncharu":8030,"Ġrum":8031,"Ġbharam":8032,"Ġbc":8033,"agari":8034,"Ġkalalu":8035,"pathi":8036,"Ġdwar":8037,"Ġheroines":8038,"ashekhar":8039,"Ġuntundo":8040,"Ġsambandhalanu":8041,"Ġsouth":8042,"Ġregular":8043,"Ġayan":8044,"toor":8045,"Ġasthi":8046,"Ġokkasari":8047,"Ġinstagram":8048,"Ġnelakondi":8049,"ulanni":8050,"Ġsamudr":8051,"anish":8052,"Ġpasch":8053,"Ġlaxmi":8054,"ukone":8055,"Ġsarasan":8056,"Ġergat":8057,"Ġjeevitham":8058,"Ġkanugonadam":8059,"Ġexc":8060,"tm":8061,"Ġnoru":8062,"Ġraktam":8063,"Ġheadlines":8064,"vasam":8065,"Ġtickets":8066,"ailo":8067,"Ġshish":8068,"Ġsahity":8069,"Ġbhoomini":8070,"ukupoy":8071,"Ġsudhir":8072,"Ġupayogap":8073,"paper":8074,"ts":8075,"Ġtipp":8076,"anush":8077,"Ġmundugane":8078,"Ġvishayamai":8079,"Ġdevarakonda":8080,"inavaru":8081,"apot":8082,"Ġtoday":8083,"Ġbaj":8084,"Ġdarshakathvam":8085,"Ġprapyata":8086,"Ġparyatana":8087,"Ġgolus":8088,"Ġnokki":8089,"uster":8090,"Ġbhagaswamy":8091,"erla":8092,"Ġmegh":8093,"Ġrohit":8094,"akatanu":8095,"ono":8096,"Ġlay":8097,"Ġyad":8098,"Ġmaadhyam":8099,"Ġchadivi":8100,"Ġupdate":8101,"Ġrangulu":8102,"Ġviluvalu":8103,"akshi":8104,"Ġippude":8105,"Ġvadili":8106,"Ġclean":8107,"uvunu":8108,"Ġsinimalaku":8109,"Ġchitralanu":8110,"edadi":8111,"Ġabhin":8112,"Ġassociation":8113,"inta":8114,"Ġanthaku":8115,"Ġnight":8116,"Ġmarkadaniki":8117,"Ġkem":8118,"ror":8119,"Ġantaga":8120,"Ġdharala":8121,"atlaite":8122,"Ġerpadina":8123,"Ġklup":8124,"Ġgontu":8125,"Ġswatantra":8126,"fan":8127,"Ġanukula":8128,"Ġtwo":8129,"Ġonginelo":8130,"Ġhollywood":8131,"Ġpampin":8132,"cling":8133,"over":8134,"Ġapplication":8135,"Ġranj":8136,"Ġsreem":8137,"Ġarts":8138,"Ġhospital":8139,"Ġtollywood":8140,"Ġdesham":8141,"Ġpaddatilo":8142,"16":8143,"Ġsunil":8144,"Ġnirdharimchukondi":8145,"Ġcir":8146,"Ġnaalu":8147,"Ġdepos":8148,"adagina":8149,"Ġsulabhataram":8150,"Ġsangathana":8151,"ements":8152,"Ġascharyam":8153,"addh":8154,"Ġsrama":8155,"Ġgurain":8156,"Ġkhare":8157,"Ġabhivruddi":8158,"Ġhappy":8159,"rib":8160,"Ġnity":8161,"akapovadanto":8162,"eries":8163,"Ġkadaa":8164,"otla":8165,"pada":8166,"Ġaas":8167,"Ġandam":8168,"Ġunnanduna":8169,"Ġmunupati":8170,"Ġadigadu":8171,"Ġofficer":8172,"Ġbalu":8173,"istamu":8174,"akulaku":8175,"Ġloth":8176,"Ġvijjapti":8177,"evallu":8178,"occhi":8179,"Ġnamuna":8180,"Ġputtinar":8181,"Ġgadilo":8182,"Ġchaitanya":8183,"Ġchalana":8184,"Ġteesukell":8185,"Ġtheda":8186,"Ġjarugutunnayi":8187,"Ġnumchi":8188,"Ġammak":8189,"Ġoptim":8190,"Ġinstit":8191,"omani":8192,"Ġundavu":8193,"idhy":8194,"Ġsamajik":8195,"Ġmarpulanu":8196,"Ġseg":8197,"Ġkalus":8198,"Ġpanchayat":8199,"Ġalaya":8200,"Ġsamanya":8201,"eck":8202,"Ġvism":8203,"uthundi":8204,"Ġkotlaku":8205,"akul":8206,"Ġsrujanatmaka":8207,"Ġsamany":8208,"artment":8209,"Ġcheppanu":8210,"Ġmargalanu":8211,"Ġvisir":8212,"Ġprarambhamaindi":8213,"Ġruj":8214,"Ġchatur":8215,"Ġbhavish":8216,"Ġsinimani":8217,"amulu":8218,"unika":8219,"Ġcheyi":8220,"Ġnirvahinche":8221,"ffer":8222,"Ġround":8223,"Ġnirdharinch":8224,"med":8225,"ivritt":8226,"Ġprayatninchandi":8227,"14":8228,"akaya":8229,"Ġbathuk":8230,"Ġginn":8231,"Ġjud":8232,"Ġmatti":8233,"Ġtidip":8234,"Ġrachanalu":8235,"Ġlopaliki":8236,"Ġaavida":8237,"Ġcreed":8238,"Ġmadras":8239,"abhivr":8240,"Ġsunday":8241,"Ġadhikarikanga":8242,"aleka":8243,"Ġtechch":8244,"oste":8245,"Ġtolisari":8246,"abhav":8247,"Ġkantent":8248,"Ġvahan":8249,"Ġdeal":8250,"enno":8251,"Ġsankshobh":8252,"emiti":8253,"Ġvellindi":8254,"Ġvibhed":8255,"Ġrashtralu":8256,"Ġafric":8257,"alini":8258,"atame":8259,"atamga":8260,"Ġsankranti":8261,"poyina":8262,"Ġdeshallo":8263,"Ġmanalni":8264,"Ġsports":8265,"Ġashray":8266,"Ġdisha":8267,"gina":8268,"Ġkanu":8269,"Ġsthit":8270,"ekt":8271,"Ġmatala":8272,"Ġkamm":8273,"Ġkashtalu":8274,"Ġyuvatha":8275,"Ġdiesel":8276,"Ġsiddhant":8277,"anath":8278,"Ġchitrala":8279,"eelu":8280,"Ġsolar":8281,"eshwari":8282,"Ġkorukuntunn":8283,"Ġmandu":8284,"Ġprofessional":8285,"Ġmap":8286,"armaina":8287,"Ġkaryacharan":8288,"Ġiru":8289,"Ġnirmincharu":8290,"agalug":8291,"Ġkaryakalaapalanu":8292,"vin":8293,"Ġbjpk":8294,"Ġnimagnam":8295,"Ġsend":8296,"akundane":8297,"Ġsanvatsaraniki":8298,"Ġpib":8299,"Ġalane":8300,"Ġvritt":8301,"Ġjai":8302,"Ġalant":8303,"Ġchudavachchu":8304,"Ġinglish":8305,"opic":8306,"Ġnaresh":8307,"Ġbigg":8308,"Ġmanaki":8309,"Ġ193":8310,"Ġvaripai":8311,"Ġrecy":8312,"Ġhect":8313,"auk":8314,"Ġarug":8315,"adane":8316,"Ġcheyagalig":8317,"Ġchittoor":8318,"Ġginj":8319,"untadu":8320,"agaladu":8321,"Ġpoina":8322,"Ġpushkal":8323,"Ġjokyam":8324,"idani":8325,"Ġfail":8326,"Ġgurich":8327,"Ġpramadas":8328,"Ġrupayalu":8329,"Ġpranthalaku":8330,"sk":8331,"Ġbet":8332,"ukunnanu":8333,"anulu":8334,"Ġamarch":8335,"Ġandolanalu":8336,"Ġpersonal":8337,"Ġvastuvula":8338,"Ġsaar":8339,"Ġegum":8340,"Ġsannihit":8341,"arni":8342,"Ġwhite":8343,"Ġmeeting":8344,"Ġpilupuni":8345,"Ġayyadu":8346,"Ġpaddaru":8347,"Ġbayatapad":8348,"Ġahlad":8349,"Ġlanguage":8350,"enta":8351,"Ġsampada":8352,"Ġtax":8353,"Ġsamagra":8354,"Ġneojakavar":8355,"Ġkottha":8356,"Ġcreate":8357,"Ġsanketikat":8358,"Ġadharalu":8359,"Ġmaid":8360,"Ġpragathi":8361,"Ġpadayatra":8362,"Ġjabb":8363,"Ġamar":8364,"Ġdrav":8365,"Ġdhorani":8366,"Ġvachchindani":8367,"Ġnotices":8368,"Ġreddi":8369,"Ġespy":8370,"Ġamsanni":8371,"Ġrakarkala":8372,"Ġantakante":8373,"Ġasaktikaramaina":8374,"evo":8375,"adham":8376,"Ġprarambhamlo":8377,"Ġnidarsh":8378,"Ġdanik":8379,"Ġasam":8380,"Ġkorata":8381,"Ġbaba":8382,"Ġasupatr":8383,"Ġvem":8384,"Ġsahayapade":8385,"akkala":8386,"Ġnirmananiki":8387,"Ġsarik":8388,"Ġsthiranga":8389,"Ġbhavodvega":8390,"Ġkuragayalu":8391,"Ġnato":8392,"agali":8393,"Ġnewspaper":8394,"ega":8395,"adhikar":8396,"Ġpondindi":8397,"Ġiravai":8398,"Ġrespons":8399,"Ġkadapa":8400,"Ġthisukunt":8401,"Ġsubject":8402,"Ġalu":8403,"andaram":8404,"alyam":8405,"Ġajay":8406,"Ġsthananni":8407,"Ġmeruguparustundi":8408,"Ġpro":8409,"Ġlopam":8410,"Ġara":8411,"Ġsaralamaina":8412,"Ġviluvanu":8413,"Ġpriyanka":8414,"Ġprasnaku":8415,"Ġandhraj":8416,"Ġyout":8417,"Ġnetizens":8418,"Ġtok":8419,"Ġbit":8420,"inchalan":8421,"Ġyap":8422,"Ġalochanalanu":8423,"Ġhakkula":8424,"Ġessie":8425,"varam":8426,"Ġcommercial":8427,"Ġpala":8428,"Ġpradhanamantri":8429,"Ġyesu":8430,"Ġvifalam":8431,"Ġshubhram":8432,"Ġilage":8433,"astam":8434,"Ġsrujanatm":8435,"Ġprantalalo":8436,"Ġshanti":8437,"Ġjournalist":8438,"Ġvimaanam":8439,"Ġkavith":8440,"utunnanu":8441,"Ġperagadam":8442,"rayam":8443,"agalam":8444,"Ġlekka":8445,"Ġlav":8446,"Ġnishedh":8447,"Ġlyngic":8448,"Ġwatch":8449,"Ġramarao":8450,"Ġravalani":8451,"Ġintaki":8452,"Ġtayar":8453,"Ġnalla":8454,"Ġsthal":8455,"vat":8456,"Ġdos":8457,"Ġthappanisari":8458,"Ġdu":8459,"okaru":8460,"Ġunnadu":8461,"Ġuniki":8462,"Ġnas":8463,"ider":8464,"Ġyoutube":8465,"Ġvishayampai":8466,"Ġtouch":8467,"Ġvyavadh":8468,"Ġyajamanyam":8469,"anit":8470,"abatti":8471,"andari":8472,"Ġokkate":8473,"anubhuti":8474,"ils":8475,"Ġerupu":8476,"Ġveeriki":8477,"ivar":8478,"avarini":8479,"Ġdinipai":8480,"Ġwash":8481,"Ġmodalainavi":8482,"Ġshilaja":8483,"Ġledha":8484,"Ġprabhakar":8485,"Ġtarap":8486,"Ġshashw":8487,"Ġrama":8488,"Ġdina":8489,"Ġchicken":8490,"Ġyear":8491,"Ġsatur":8492,"Ġmiduga":8493,"Ġmang":8494,"Ġghatan":8495,"Ġsamavesalu":8496,"kim":8497,"epa":8498,"Ġchallani":8499,"Ġif":8500,"Ġpranalikanu":8501,"Ġsakshi":8502,"arantu":8503,"Ġantim":8504,"Ġkutur":8505,"Ġtalett":8506,"Ġkrman":8507,"ll":8508,"Ġpettadaniki":8509,"Ġeurope":8510,"onom":8511,"Ġbact":8512,"Ġjor":8513,"Ġramana":8514,"Ġmarchadam":8515,"Ġce":8516,"Ġkriy":8517,"Ġnirdarinchadaniki":8518,"Ġanushka":8519,"Ġvray":8520,"Ġhat":8521,"Ġindr":8522,"Ġthisukurav":8523,"anm":8524,"Ġtelik":8525,"Ġuntoo":8526,"Ġavasaralaku":8527,"Ġvachan":8528,"Ġasha":8529,"Ġparidhiloni":8530,"Ġchandrababuku":8531,"Ġsagar":8532,"Ġpurv":8533,"Ġrojul":8534,"Ġlopal":8535,"Ġadrust":8536,"ulon":8537,"Ġramakrishna":8538,"Ġdegrees":8539,"naa":8540,"Ġ2007":8541,"mc":8542,"Ġcolpo":8543,"Ġvyuham":8544,"sn":8545,"Ġavutundani":8546,"Ġnilabadi":8547,"Ġpakkane":8548,"Ġsnehithudu":8549,"Ġpondavacchu":8550,"Ġloksabha":8551,"rr":8552,"aline":8553,"antaru":8554,"irek":8555,"illanu":8556,"Ġdanito":8557,"Ġklupthanga":8558,"Ġtt":8559,"Ġanksh":8560,"Ġcheppadaniki":8561,"Ġkutra":8562,"Ġvishw":8563,"Ġteesukundi":8564,"Ġsahajanga":8565,"Ġnachchina":8566,"Ġcc":8567,"Ġperigi":8568,"Ġsavallanu":8569,"Ġkarmikula":8570,"indante":8571,"uniga":8572,"Ġvipula":8573,"Ġdivy":8574,"com":8575,"Ġhod":8576,"ulala":8577,"Ġkortulo":8578,"Ġbiyyam":8579,"ashekar":8580,"Ġprathin":8581,"anasabh":8582,"Ġyuddha":8583,"Ġafter":8584,"Ġgadup":8585,"Ġvallaki":8586,"Ġeditor":8587,"Ġpv":8588,"Ġky":8589,"Ġvelladu":8590,"Ġvahanala":8591,"Ġvyavasthalo":8592,"Ġmamulu":8593,"Ġpud":8594,"Ġgupp":8595,"istune":8596,"uvaina":8597,"Ġyer":8598,"Ġkshetr":8599,"Ġrating":8600,"istund":8601,"Ġkrmanlone":8602,"anatmaka":8603,"Ġsthalanni":8604,"Ġsaturday":8605,"Ġprotsahisthundi":8606,"ulanta":8607,"Ġuttej":8608,"Ġadigithe":8609,"Ġlabdi":8610,"Ġlib":8611,"Ġpunarv":8612,"Ġmedadu":8613,"Ġreturn":8614,"Ġvidich":8615,"rant":8616,"otti":8617,"Ġvyavaharinch":8618,"Ġnow":8619,"Ġrish":8620,"Ġsantakam":8621,"Ġmake":8622,"Ġpaluk":8623,"Ġchebutu":8624,"Ġchustunnaru":8625,"mo":8626,"Ġsatta":8627,"Ġdevalayam":8628,"Ġfile":8629,"Ġcavalsin":8630,"alantu":8631,"Ġvidhanalu":8632,"Ġpanchayati":8633,"Ġcheyaga":8634,"Ġshilp":8635,"chima":8636,"Ġbharinch":8637,"uguru":8638,"inchagala":8639,"Ġjanyu":8640,"Ġipudu":8641,"Ġgatt":8642,"Ġbhakti":8643,"Ġwrit":8644,"Ġspeed":8645,"Ġkurip":8646,"Ġsarpanch":8647,"Ġramach":8648,"Ġsection":8649,"tharu":8650,"Ġkanapad":8651,"Ġdashalavariga":8652,"Ġmito":8653,"agalaru":8654,"Ġdeputy":8655,"Ġsamavesh":8656,"Ġuttamam":8657,"Ġkupp":8658,"Ġkrid":8659,"Ġparinamalu":8660,"vel":8661,"Ġhayamlo":8662,"Ġparisthithi":8663,"Ġakarshaniyamaina":8664,"Ġgandarag":8665,"Ġaga":8666,"Ġvivaran":8667,"Ġadhikara":8668,"apaiki":8669,"Ġsor":8670,"Ġdrushyam":8671,"Ġchav":8672,"Ġpariman":8673,"Ġuntayani":8674,"Ġprayojanala":8675,"Ġvayasulo":8676,"alamaina":8677,"alake":8678,"Ġdigum":8679,"baddh":8680,"Ġmodatisari":8681,"ananda":8682,"Ġtank":8683,"Ġdanni":8684,"Ġotami":8685,"Ġsomavaram":8686,"Ġmetro":8687,"Ġvijayavanthanga":8688,"Ġnarasimh":8689,"Ġrajasthan":8690,"ralo":8691,"Ġdabbunu":8692,"Ġtavv":8693,"Ġlep":8694,"Ġdef":8695,"Ġbadulu":8696,"Ġsaw":8697,"Ġvinipistunnaayi":8698,"Ġmamata":8699,"house":8700,"acy":8701,"Ġghana":8702,"Ġvegavantamaina":8703,"Ġprerana":8704,"yark":8705,"Ġasauk":8706,"Ġsandesam":8707,"Ġvariga":8708,"Ġjanta":8709,"Ġfrench":8710,"bu":8711,"Ġpeg":8712,"esha":8713,"Ġguruvu":8714,"Ġdivision":8715,"ukont":8716,"itic":8717,"Ġtappaka":8718,"Ġsrikanth":8719,"Ġmedhassu":8720,"Ġfeature":8721,"Ġfed":8722,"etty":8723,"Ġparyavaranam":8724,"Ġsis":8725,"Ġsitaram":8726,"akulam":8727,"Ġfast":8728,"Ġnadum":8729,"Ġbrahman":8730,"Ġtarapuna":8731,"ther":8732,"Ġmult":8733,"indu":8734,"Ġcheraru":8735,"Ġpratichary":8736,"Ġvenaka":8737,"Ġnilup":8738,"Ġlekapovadanto":8739,"Ġsantript":8740,"Ġmit":8741,"Ġnivasam":8742,"Ġlaschima":8743,"Ġadupuloki":8744,"rat":8745,"endram":8746,"Ġupayoginchabadutundi":8747,"Ġjodinchandi":8748,"Ġsoukaryalu":8749,"Ġmajor":8750,"Ġalavat":8751,"Ġenjoy":8752,"Ġdeeksha":8753,"Ġanubhavas":8754,"jiv":8755,"asepu":8756,"Ġudyogi":8757,"inchagaladu":8758,"Ġsf":8759,"Ġgeetha":8760,"Ġmich":8761,"Ġkodi":8762,"Ġsandadi":8763,"Ġfrance":8764,"Ġpoyi":8765,"Ġparipalana":8766,"Ġchowd":8767,"Ġkhata":8768,"Ġatmahaty":8769,"Ġasia":8770,"Ġokadani":8771,"Ġconc":8772,"Ġanuh":8773,"ababu":8774,"Ġbattala":8775,"Ġvyatyas":8776,"bhavam":8777,"appude":8778,"Ġaudience":8779,"Ġarudaina":8780,"Ġprofessor":8781,"slo":8782,"Ġ64":8783,"ipotundi":8784,"Ġnaipunyalanu":8785,"Ġgra":8786,"Ġchesam":8787,"Ġload":8788,"Ġarab":8789,"Ġfar":8790,"Ġiphone":8791,"Ġraviteja":8792,"Ġekkado":8793,"Ġniss":8794,"etic":8795,"Ġvardh":8796,"Ġchebutundi":8797,"avutondi":8798,"Ġhon":8799,"Ġpettadu":8800,"Ġchebutunna":8801,"Ġkesunu":8802,"Ġmatladina":8803,"aye":8804,"Ġposter":8805,"Ġkaryakramalanu":8806,"ival":8807,"Ġreb":8808,"ero":8809,"Ġmaamsam":8810,"Ġsangham":8811,"analalo":8812,"gal":8813,"utondani":8814,"inunchi":8815,"Ġuttama":8816,"Ġkendranga":8817,"Ġchukk":8818,"Ġanaly":8819,"Ġuntund":8820,"Ġkiranjanya":8821,"Ġroganir":8822,"Ġfinance":8823,"Ġvelig":8824,"Ġenergy":8825,"luga":8826,"Ġkalakalam":8827,"lot":8828,"Ġfash":8829,"Ġshaili":8830,"Ġpushkalanga":8831,"Ġjon":8832,"Ġrajyasabha":8833,"aho":8834,"Ġokkariki":8835,"Ġsyn":8836,"Ġkey":8837,"pun":8838,"Ġundannaru":8839,"sthundi":8840,"Ġsharmila":8841,"Ġunchi":8842,"Ġpariv":8843,"iddam":8844,"Ġpanulaku":8845,"Ġpratyekata":8846,"Ġsneham":8847,"Ġmodatlo":8848,"Ġnitin":8849,"apada":8850,"Ġsukumar":8851,"Ġthagginchadamlo":8852,"Ġtension":8853,"Ġammakalu":8854,"Ġterich":8855,"Ġakupachcha":8856,"Ġdevalay":8857,"Ġdonga":8858,"onam":8859,"Ġmaree":8860,"Ġannad":8861,"Ġarthikanga":8862,"Ġpension":8863,"ikata":8864,"Ġmanoh":8865,"Ġpatinch":8866,"Ġpranthalu":8867,"Ġhaani":8868,"Ġadugupett":8869,"Ġsambandhaanni":8870,"ilato":8871,"Ġlevani":8872,"Ġnirudyog":8873,"aling":8874,"agir":8875,"Ġinella":8876,"Ġlakshya":8877,"Ġmol":8878,"Ġeme":8879,"Ġmagaz":8880,"Ġnirlakshyam":8881,"Ġrajakeeyam":8882,"Ġhirolu":8883,"Ġthommidhi":8884,"asy":8885,"Ġwicket":8886,"Ġaadhaar":8887,"Ġpibadine":8888,"Ġdoch":8889,"Ġsuryudu":8890,"Ġdah":8891,"Ġdhanyam":8892,"Ġbhashallo":8893,"atul":8894,"andhi":8895,"Ġvirat":8896,"aristaru":8897,"aleru":8898,"ulloki":8899,"Ġkanipinchadam":8900,"Ġkill":8901,"Ġadevidhanga":8902,"ikrita":8903,"Ġbillion":8904,"Ġpackage":8905,"Ġbhavishyat":8906,"Ġkathi":8907,"arudi":8908,"Ġchesukunnadu":8909,"Ġsamikaran":8910,"Ġkaavu":8911,"Ġbheem":8912,"Ġsoci":8913,"Ġdoruk":8914,"Ġupayogistamdi":8915,"Ġcheruv":8916,"Ġmodalaiah":8917,"Ġsentim":8918,"Ġkeerthi":8919,"Ġrajashekhar":8920,"Ġvichinnam":8921,"Ġwatsap":8922,"Ġvata":8923,"ukuga":8924,"Ġrangallo":8925,"Ġdaggam":8926,"Ġchuttup":8927,"ayannaru":8928,"Ġrap":8929,"ukunnadi":8930,"Ġvallanu":8931,"____":8932,"adhya":8933,"Ġcombination":8934,"Ġdocument":8935,"avish":8936,"Ġsahaya":8937,"Ġkalash":8938,"Ġchayalsi":8939,"Ġvishvasani":8940,"Ġmoham":8941,"Ġdhyanam":8942,"Ġpool":8943,"Ġnyaya":8944,"Ġpeople":8945,"Ġsatt":8946,"Ġtanani":8947,"Ġtaram":8948,"Ġbrahmin":8949,"Ġvaip":8950,"Ġgelichina":8951,"Ġvunn":8952,"Ġkanalu":8953,"arich":8954,"sha":8955,"Ġdharinch":8956,"Ġabhiprayalu":8957,"gap":8958,"Ġitharula":8959,"Ġbharatlo":8960,"Ġvinay":8961,"Ġlabhalu":8962,"ukupot":8963,"Ġfib":8964,"Ġpothu":8965,"Ġmahab":8966,"Ġsamipamloni":8967,"itlo":8968,"Ġpaduthunnaru":8969,"Ġruchik":8970,"Ġbuild":8971,"Ġcourse":8972,"Ġequ":8973,"Ġkalag":8974,"Ġvishv":8975,"Ġvair":8976,"dit":8977,"Ġjeevan":8978,"Ġsearch":8979,"chesin":8980,"istarani":8981,"Ġmukhyamainadi":8982,"Ġerpat":8983,"Ġbahya":8984,"Ġveyyi":8985,"Ġkovv":8986,"Ġkart":8987,"Ġsensor":8988,"Ġgurtunchukondi":8989,"Ġjeevanas":8990,"Ġpalanalo":8991,"Ġnaipunyalu":8992,"Ġpramadamlo":8993,"Ġpawan":8994,"Ġfinanc":8995,"Ġkishan":8996,"Ġcost":8997,"Ġprapanchaniki":8998,"Ġuparitalam":8999,"Ġranunna":9000,"Ġgatam":9001,"Ġkadul":9002,"utundaga":9003,"Ġchusanu":9004,"arjun":9005,"Ġparyataka":9006,"Ġreservations":9007,"Ġbid":9008,"Ġokate":9009,"Ġassalu":9010,"Ġpathakalu":9011,"Ġju":9012,"Ġmok":9013,"Ġchitrikarinch":9014,"Ġgodava":9015,"Ġutsava":9016,"Ġoohimchukondi":9017,"ces":9018,"Ġvenu":9019,"Ġrandi":9020,"Ġarmy":9021,"Ġye":9022,"Ġivvali":9023,"upathi":9024,"ugulu":9025,"Ġrakalu":9026,"Ġnadap":9027,"avuthondi":9028,"Ġsmartphone":9029,"Ġahar":9030,"Ġkurr":9031,"Ġdurm":9032,"Ġmiriy":9033,"Ġvillain":9034,"Ġple":9035,"Ġsrishtinchina":9036,"urlu":9037,"Ġrogi":9038,"Ġsusth":9039,"ikini":9040,"angula":9041,"Ġekeral":9042,"Ġteresa":9043,"Ġpushp":9044,"Ġcolour":9045,"Ġelections":9046,"Ġnatinat":9047,"Ġmarikondaru":9048,"kiranjanya":9049,"Ġhuz":9050,"occhindi":9051,"Ġteerch":9052,"Ġsrustistundi":9053,"ooth":9054,"iruch":9055,"Ġkalanga":9056,"Ġneh":9057,"Ġtrust":9058,"Ġsanghalu":9059,"Ġvigraham":9060,"Ġinthaku":9061,"Ġsamithi":9062,"odhaka":9063,"Ġeppudo":9064,"Ġtopic":9065,"Ġ1000":9066,"Ġvarala":9067,"Ġshashwath":9068,"odaniki":9069,"Ġshop":9070,"erse":9071,"Ġswecch":9072,"Ġswabhavam":9073,"impunu":9074,"Ġnotification":9075,"Ġparishkarinchadam":9076,"win":9077,"anamu":9078,"Ġdarunanga":9079,"Ġul":9080,"Ġkri":9081,"Ġavutunna":9082,"Ġchadivina":9083,"Ġdesk":9084,"udha":9085,"istunnadi":9086,"karamaina":9087,"Ġgumm":9088,"Ġho":9089,"Ġsha":9090,"Ġdiscount":9091,"Ġsansthalaku":9092,"athula":9093,"Ġgelip":9094,"Ê¹":9095,"Ġrich":9096,"Ġtrad":9097,"Ġnirnayanni":9098,"Ġsonta":9099,"Ġedurkontunna":9100,"eved":9101,"Ġvijayavantamaina":9102,"uct":9103,"Ġsalman":9104,"inchabadatayi":9105,"Ġveluguloki":9106,"Ġsava":9107,"onani":9108,"Ġvachchaka":9109,"Ġvyavasthalanu":9110,"Ġaavishkarinch":9111,"Ġgont":9112,"Ġfees":9113,"Ġudrikt":9114,"Ġbrows":9115,"Ġkavalante":9116,"Ġyuvakudu":9117,"Ġpramukhulu":9118,"Ġnavvuthu":9119,"Ġbidda":9120,"Ġasupatrilo":9121,"Ġprakasam":9122,"Ġrahasya":9123,"gan":9124,"Ġgelupu":9125,"ikaranam":9126,"Ġsukravaram":9127,"Ġsunnitmaina":9128,"Ġbunny":9129,"Ġamayak":9130,"Ġvesavi":9131,"Ġchadavadam":9132,"Ġdookudu":9133,"Ġingland":9134,"Ġstreel":9135,"22":9136,"Ġmayam":9137,"udem":9138,"Ġdrugs":9139,"other":9140,"ivrata":9141,"Ġprakatanalu":9142,"Ġduradr":9143,"eration":9144,"oso":9145,"ayat":9146,"Ġadaya":9147,"akkada":9148,"avay":9149,"Ġprop":9150,"Ġrajasekhar":9151,"Ġkarmika":9152,"Ġchanipoyina":9153,"Ġscheduled":9154,"ps":9155,"Ġbase":9156,"Ġchesukuntu":9157,"imchandi":9158,"Ġcross":9159,"Ġhack":9160,"aramm":9161,"Ġkors":9162,"iksha":9163,"Ġutsaham":9164,"Ġchesukovalani":9165,"Ġmanast":9166,"Ġvishal":9167,"Ġmatlade":9168,"Ġsteel":9169,"Ġtepp":9170,"Ġviruch":9171,"Ġperkonna":9172,"Ġcertific":9173,"pri":9174,"ublic":9175,"Ġmaya":9176,"Ġshort":9177,"Ġmartulaku":9178,"Ġwarm":9179,"Ġchusindi":9180,"Ġvimarsh":9181,"Ġthim":9182,"inder":9183,"Ġpandug":9184,"ye":9185,"liesh":9186,"Ġgames":9187,"Ġprayogam":9188,"Ġkaneesam":9189,"Ġjust":9190,"ivaru":9191,"Ġmandir":9192,"Ġsannah":9193,"Ġvamshi":9194,"Ġdurga":9195,"Ġretri":9196,"Ġninn":9197,"Ġennika":9198,"Ġkadupu":9199,"Ġprashnalaku":9200,"ipur":9201,"imchina":9202,"Ġnindina":9203,"arallo":9204,"Ġbott":9205,"alanopp":9206,"Ġpanichestunna":9207,"Ġviparitamaina":9208,"Ġbanis":9209,"anus":9210,"Ġgatedadi":9211,"Ġnakili":9212,"Ġpunaravar":9213,"Ġpatel":9214,"Ġkham":9215,"Ġrayadam":9216,"cil":9217,"Ġwom":9218,"ukuntanu":9219,"Ġviparitanga":9220,"Ġpettandi":9221,"Ġnirminch":9222,"Ġscore":9223,"Ġmaari":9224,"Ġsamasyalaku":9225,"akara":9226,"Ġdant":9227,"adanike":9228,"Ġbhoomipai":9229,"Ġbahirg":9230,"avacch":9231,"Ġadhisth":9232,"ipoindi":9233,"Ġsudhirla":9234,"eeta":9235,"Ġcup":9236,"Ġprantalanu":9237,"Ġuppagr":9238,"Ġvisvasam":9239,"Ġrakshinchadaniki":9240,"Ġdumm":9241,"icin":9242,"Ġvang":9243,"Ġsequ":9244,"Ġcycle":9245,"Ġraghav":9246,"agod":9247,"Ġkalch":9248,"Ġmech":9249,"Ġabhish":9250,"Ġdiguva":9251,"mad":9252,"xy":9253,"Ġvecchi":9254,"under":9255,"Ġislam":9256,"Ġbhumulu":9257,"Ġvard":9258,"earch":9259,"Ġcheyalane":9260,"Ġbeach":9261,"Ġtarunamlo":9262,"esin":9263,"Ġchestanani":9264,"Ġtanapai":9265,"Ġkalugutundi":9266,"Ġmutt":9267,"estunna":9268,"Ġangikarinch":9269,"elato":9270,"badi":9271,"arah":9272,"chesi":9273,"Ġacharya":9274,"Ġelectronic":9275,"Ġsandeep":9276,"Ġsignal":9277,"Ġbudhavaram":9278,"Ġside":9279,"Ġbord":9280,"Ġcheyabadatayi":9281,"Ġpilla":9282,"Ġbai":9283,"Ġshri":9284,"ective":9285,"Ġpit":9286,"Ġree":9287,"Ġabhiruch":9288,"imchenduku":9289,"Ġempe":9290,"Ġcharge":9291,"aratri":9292,"Ġgate":9293,"Ġadigina":9294,"Ġingliesh":9295,"Ġantarayam":9296,"Ġtheesukondi":9297,"Ġprapanchamloni":9298,"yt":9299,"Ġmukhyamantriga":9300,"Ġkendraniki":9301,"evu":9302,"analoni":9303,"assunu":9304,"evious":9305,"play":9306,"ds":9307,"Ġvirg":9308,"Ġtanadaina":9309,"Ġshaik":9310,"ayiga":9311,"Ġkonasagutunna":9312,"rame":9313,"Ġkotlu":9314,"Ġpatralanu":9315,"dev":9316,"Ġmuppu":9317,"Ġmarug":9318,"Ġtatv":9319,"Ġresearch":9320,"Ġchlorop":9321,"Ġpondutaru":9322,"Ġanumanalu":9323,"Ġnadup":9324,"Ġvolunte":9325,"Ġchandrashekar":9326,"Ġfield":9327,"Ġkarthik":9328,"Ġsapeksh":9329,"Ġmahillaku":9330,"Ġchowdary":9331,"arnu":9332,"Ġbhagalu":9333,"Ġjillaku":9334,"Ġmunch":9335,"Ġpuni":9336,"avanth":9337,"Ġlanch":9338,"areera":9339,"Ġmaku":9340,"akatt":9341,"Ġtecchi":9342,"Ġpriya":9343,"Ġsail":9344,"Ġmarchip":9345,"Ġchendutunna":9346,"Ġchuputundi":9347,"inchukoni":9348,"Ġgulabi":9349,"Ġvisipy":9350,"Ġbeema":9351,"apanch":9352,"Ġnigha":9353,"Ġkalashala":9354,"garu":9355,"he":9356,"Ġprevious":9357,"Ġmedium":9358,"Ġaspatr":9359,"Ġneelam":9360,"Ġupashamanam":9361,"Ġprarambhinchadaniki":9362,"Ġeduruga":9363,"apaduthunnaru":9364,"Ġprashansalu":9365,"Ġvyaty":9366,"Ġswar":9367,"avasth":9368,"Ġnewyark":9369,"ulli":9370,"Ġmarche":9371,"galu":9372,"Ġcheyani":9373,"Ġaarogyaniki":9374,"Ġpodavu":9375,"Ġdiggaz":9376,"Ġmadirigaane":9377,"yo":9378,"Ġ2000":9379,"Ġnamunalu":9380,"Ġretail":9381,"Ġdesalaku":9382,"Ġrunam":9383,"Ġworking":9384,"Ġcelebr":9385,"Ġnrit":9386,"Ġsyareera":9387,"Ġkatina":9388,"Ġvyatyasam":9389,"adevi":9390,"Ġemo":9391,"Ġsamvatsara":9392,"Ġmurali":9393,"Ġgirijana":9394,"Ġcolpoen":9395,"akulanu":9396,"Ġlakshyanni":9397,"Ġragane":9398,"dik":9399,"Ġprashanth":9400,"Ġchebite":9401,"Ġnirnayincharu":9402,"Ġmayor":9403,"rict":9404,"Ġsulu":9405,"mer":9406,"Ġintini":9407,"Ġneta":9408,"jee":9409,"Ġveladi":9410,"Ġkutumbalaku":9411,"uddin":9412,"Ġsridevi":9413,"Ġabhinandana":9414,"Ġtatt":9415,"Ġmamidi":9416,"mika":9417,"Ġsarams":9418,"avirus":9419,"Ġvastu":9420,"utunnayani":9421,"Ġdigina":9422,"Ġsrikakulam":9423,"atel":9424,"Ġbhaganni":9425,"Ġstyle":9426,"inchevaru":9427,"Ġhous":9428,"Ġoriginal":9429,"Ġ600":9430,"Ġprashanthanga":9431,"Ġanubhut":9432,"Ġvistarinch":9433,"Ġstambh":9434,"Ġregistration":9435,"ulap":9436,"Ġharik":9437,"allam":9438,"Ġashir":9439,"Ġchestunnanu":9440,"Ġveedhi":9441,"Ġcheyanunnaru":9442,"Ġartificial":9443,"Ġutk":9444,"Ġprajapr":9445,"Ġvimuk":9446,"Ġsetting":9447,"Ġjavab":9448,"Ġcontract":9449,"maa":9450,"chesina":9451,"Ġchamuru":9452,"osoft":9453,"agh":9454,"Ġneram":9455,"Ġsainyam":9456,"Ġkavitvam":9457,"alok":9458,"Ġpadhe":9459,"Ġunnattu":9460,"Ġengineer":9461,"25":9462,"Ġvaranta":9463,"Ġsahod":9464,"Ġpanula":9465,"Ġgantallo":9466,"Ġyerpaduthundi":9467,"Ġkula":9468,"iver":9469,"Ġther":9470,"Ġmarayi":9471,"Ġnamunalanu":9472,"Ġkitt":9473,"apar":9474,"Ġkalav":9475,"Ġchakkani":9476,"Ġvyavahar":9477,"Ġbaby":9478,"Ġsreemathi":9479,"Ġchh":9480,"abhipr":9481,"Ġromantic":9482,"Ġcheppu":9483,"ukunnappudu":9484,"Ġchurukuga":9485,"Ġvese":9486,"Ġsyareeraaniki":9487,"Ġshant":9488,"Ġmaharshi":9489,"Ġvecchani":9490,"vish":9491,"Ġsind":9492,"Ġkun":9493,"Ġcaron":9494,"Ġpolicy":9495,"Ġdakshin":9496,"Ġpichi":9497,"Ġatl":9498,"Ġpothe":9499,"Ġvesukuni":9500,"okati":9501,"Ġinstitute":9502,"Ġgandaragol":9503,"Ġprajekt":9504,"Ġistamani":9505,"lakshala":9506,"Ġvidhanalanu":9507,"Ġpodd":9508,"Ġtisuku":9509,"aptop":9510,"Ġviramam":9511,"Ġsonia":9512,"Ġcheri":9513,"assulo":9514,"eela":9515,"agano":9516,"Ġparoksh":9517,"Ġpremanu":9518,"Ġcharges":9519,"Ġkemer":9520,"pt":9521,"avutunnayi":9522,"adharit":9523,"ukovatam":9524,"poyaru":9525,"Ġaddank":9526,"agadda":9527,"Ġmarokati":9528,"Ġviplavam":9529,"Ġasaktikaranga":9530,"Ġplatforms":9531,"valla":9532,"ilonu":9533,"eyadaniki":9534,"Ġtufan":9535,"Ġanukoni":9536,"Ġbhajpa":9537,"yank":9538,"Ġhanum":9539,"Ġtaggina":9540,"Ġthisukocch":9541,"Ġunchadaniki":9542,"Ġkashtapadi":9543,"24":9544,"ora":9545,"Ġsevala":9546,"Ġbagund":9547,"Ġsamooham":9548,"Ġdadap":9549,"Ġtimes":9550,"agi":9551,"Ġhow":9552,"Ġtera":9553,"Ġgoppaga":9554,"wam":9555,"Ġpantalu":9556,"Ġhakkulu":9557,"Ġpd":9558,"atalaku":9559,"Ġbari":9560,"Ġshanthi":9561,"hich":9562,"Ġsanklishtamaina":9563,"thondi":9564,"Ġoh":9565,"Ġretir":9566,"Ġretrieved":9567,"13":9568,"Ġtask":9569,"ayalaku":9570,"Ġavutunnayi":9571,"star":9572,"Ġviac":9573,"Ġcommunicate":9574,"alamb":9575,"Ġilla":9576,"Ġmudra":9577,"Ġnirnayinchindi":9578,"arimchi":9579,"abandh":9580,"ste":9581,"Ġvariant":9582,"Ġrunalu":9583,"arwal":9584,"akaran":9585,"Ġren":9586,"olp":9587,"Ġgruha":9588,"etal":9589,"Ġlekapoyina":9590,"Ġgaduvu":9591,"ju":9592,"Ġbiopic":9593,"Ġjodi":9594,"Ġvidhi":9595,"Ġokkar":9596,"mas":9597,"Ġradu":9598,"Ġspashtata":9599,"Ġentertainment":9600,"Ġherol":9601,"Ġtarang":9602,"Ġmadhyam":9603,"Ġelaga":9604,"Ġmothanga":9605,"Ġmeh":9606,"Ġaravind":9607,"Ġlakshanam":9608,"Ġadhyakshulu":9609,"Ġvaish":9610,"Ġtags":9611,"Ġpratidi":9612,"kanga":9613,"Ġmadhyap":9614,"Ġpanichesaru":9615,"Ġfashion":9616,"Ġtelch":9617,"Ġtoh":9618,"Ġnashtalu":9619,"bas":9620,"Ġunnadani":9621,"Ġramg":9622,"Ġselav":9623,"Ġchakkati":9624,"avantham":9625,"Ġnammak":9626,"Ġprotsahincadaniki":9627,"Ġambed":9628,"Ġkhatalo":9629,"Ġkantentnu":9630,"Ġsavaal":9631,"Ġayur":9632,"Ġthappadu":9633,"Ġkharchuto":9634,"Ġedit":9635,"Ġmarpula":9636,"Ġwest":9637,"Ġchurch":9638,"Ġpopular":9639,"Ġhani":9640,"Ġyash":9641,"ukunnam":9642,"Ġviswavidyalayam":9643,"waj":9644,"yath":9645,"Ġsthanallo":9646,"Ġaloc":9647,"Ġprachuryam":9648,"bc":9649,"uddi":9650,"ukuntondi":9651,"Ġikkad":9652,"Ġcloud":9653,"Ġminchina":9654,"Ġahmed":9655,"Ġrose":9656,"Ġbond":9657,"Ġvastava":9658,"Ġoption":9659,"Ġartist":9660,"Ġsiris":9661,"asthayilo":9662,"Ġantimanga":9663,"Ġmith":9664,"Ġtos":9665,"abhim":9666,"esto":9667,"Ġchoodalani":9668,"Ġclub":9669,"Ġdadapuga":9670,"Ġciv":9671,"Ġrajesh":9672,"Ġepisode":9673,"Ġsinimapai":9674,"Ġtheesuk":9675,"Ġvenkates":9676,"Ġbahirang":9677,"Ġvineyog":9678,"andali":9679,"Ġtanaki":9680,"Ġgrih":9681,"Ġlaptop":9682,"Ġmarkulu":9683,"Ġdavid":9684,"ander":9685,"Ġravali":9686,"anikanth":9687,"Ġminaha":9688,"Ġbhug":9689,"Ġswath":9690,"Ġnepadhyam":9691,"lem":9692,"Ġpada":9693,"Ġdeeksh":9694,"itri":9695,"Ġaakulu":9696,"Ġcheth":9697,"adiy":9698,"Ġkanuk":9699,"Ġwhat":9700,"nanni":9701,"aland":9702,"edanni":9703,"Ġundevi":9704,"Ġintalo":9705,"Ġcongres":9706,"inatle":9707,"Ġlinks":9708,"Ġsik":9709,"Ġshani":9710,"osis":9711,"Ġagent":9712,"Ġparisthitula":9713,"upt":9714,"Ġpratid":9715,"Ġpeduth":9716,"Ġrajkiyanga":9717,"eddi":9718,"Ġpelliki":9719,"Ġutpattula":9720,"Ġsigg":9721,"unnar":9722,"Ġtaggadam":9723,"Ġperige":9724,"Ġmumm":9725,"Ġbant":9726,"Ġshekhar":9727,"wala":9728,"Ġpatak":9729,"Ġvissar":9730,"chepp":9731,"Ġchebutondi":9732,"ilon":9733,"Ġsaruk":9734,"Ġsrim":9735,"Ġenchukunna":9736,"Ġsepu":9737,"Ġvikas":9738,"Ġshakthi":9739,"athanga":9740,"Ġsubs":9741,"Ġtot":9742,"Ġaddam":9743,"sm":9744,"umdi":9745,"Ġsarasw":9746,"Ġdress":9747,"Ġshocking":9748,"Ġsamvatsaraluga":9749,"amaite":9750,"ushti":9751,"Ġivey":9752,"bert":9753,"Ġparikshala":9754,"Ġjavabu":9755,"Ġvadanalu":9756,"Ġotla":9757,"arikaina":9758,"Ġarogyanga":9759,"utanu":9760,"Ġatyutt":9761,"Ġtrac":9762,"Ġhung":9763,"akhand":9764,"Ġpremalo":9765,"Ġkulal":9766,"Ġsta":9767,"Ġauth":9768,"Ġeduc":9769,"Ġanuvartanam":9770,"Ġvaddu":9771,"Ġgutt":9772,"Ġsthitini":9773,"Ġindukosam":9774,"Ġabbay":9775,"Ġmottamodati":9776,"Ġpunichesin":9777,"ayane":9778,"Ġoly":9779,"Ġnatistunnaru":9780,"Ġpatrala":9781,"Ġvyavasthala":9782,"Ġsodari":9783,"dar":9784,"Ġmuse":9785,"len":9786,"Ġsrikr":9787,"Ġsodara":9788,"Ġdati":9789,"ukunta":9790,"Ġreli":9791,"Ġmavo":9792,"oun":9793,"sel":9794,"Ġinj":9795,"Ġdigi":9796,"Ġ250":9797,"Ġsowm":9798,"Ġtend":9799,"Ġsamajaniki":9800,"Ġjeevitamlo":9801,"akshamlo":9802,"Ġteka":9803,"Ġanubhuti":9804,"Ġmugicin":9805,"Ġprathipaksha":9806,"ca":9807,"Ġwhich":9808,"inappati":9809,"akshanga":9810,"Ġgudlu":9811,"Ġsalahalu":9812,"Ġkoll":9813,"Ġyeh":9814,"Ġlotu":9815,"Ġchitrallo":9816,"Ġasaktikar":9817,"Ġmessage":9818,"thy":9819,"Ġbots":9820,"Ġib":9821,"Ġcherukunna":9822,"Ġappatiki":9823,"Ġttd":9824,"ux":9825,"inattuga":9826,"Ġtish":9827,"Ġayane":9828,"Ġunnayi":9829,"Ġvinna":9830,"Ġalochanal":9831,"Ġkshetram":9832,"Ġkaabatti":9833,"Ġitharulaku":9834,"Ġtdpk":9835,"atalo":9836,"Ġparishramala":9837,"Ġchocol":9838,"arish":9839,"Ġmoola":9840,"Ġjarigi":9841,"Ġcondi":9842,"Ġyantram":9843,"Ġtry":9844,"alanukunte":9845,"Ġnitito":9846,"Ġdarakhast":9847,"Ġaway":9848,"Ġhajarayyaru":9849,"Ġsage":9850,"idaka":9851,"Ġuth":9852,"enni":9853,"Ġanukunte":9854,"Ġnivaran":9855,"vo":9856,"Ġprayana":9857,"Ġintr":9858,"Ġpatrallo":9859,"Ġadde":9860,"adala":9861,"Ġmicrosoft":9862,"Ġech":9863,"Ġmaran":9864,"Ġmantriga":9865,"Ġparishramalu":9866,"Ġundadanto":9867,"Ġabd":9868,"achchith":9869,"Ġchalla":9870,"Ġchitkalu":9871,"Ġchitranto":9872,"Ġchesukun":9873,"Ġcommunity":9874,"Ġbomma":9875,"Ġtaggutundi":9876,"Ġdigaru":9877,"Ġord":9878,"Ġrakshas":9879,"Ġambedkar":9880,"Ġnill":9881,"Ġrasam":9882,"anaanni":9883,"Ġrakul":9884,"Ġupayogapaduthundi":9885,"Ġkomm":9886,"ukain":9887,"Ġsendriya":9888,"Ġhectar":9889,"ogen":9890,"Ġaavedana":9891,"kr":9892,"Ġpam":9893,"Ġgard":9894,"uriki":9895,"Ġtakshana":9896,"Ġrupakalpana":9897,"ices":9898,"ecut":9899,"indane":9900,"Ġcoach":9901,"Ġ2004":9902,"Ġvunnayi":9903,"Ġbarilo":9904,"Ġanthe":9905,"ukhi":9906,"intaga":9907,"Ġpondandi":9908,"Ġchebutunnayi":9909,"ves":9910,"Ġbible":9911,"Ġmix":9912,"Ġpackag":9913,"Ġbhavalanu":9914,"Ġponde":9915,"Ġcoronavirus":9916,"Ġendaro":9917,"Ġagra":9918,"Ġasaktiga":9919,"elt":9920,"utta":9921,"Ġakas":9922,"Ġnimitham":9923,"Ġvyaparanni":9924,"Ġvestunnaru":9925,"Ġenchukovadam":9926,"sis":9927,"Ġledannaru":9928,"Ġagni":9929,"asthalam":9930,"Ġsrinu":9931,"arapradesh":9932,"aidi":9933,"Ġbhavinchi":9934,"Ġtelusukondi":9935,"Ġbali":9936,"gaj":9937,"araina":9938,"Ġvisham":9939,"Ġindialo":9940,"Ġvegavantam":9941,"Ġoperating":9942,"Ġnaalugu":9943,"aradu":9944,"Ġmanak":9945,"otsav":9946,"Ġmandalamloni":9947,"amah":9948,"Ġlakshyalu":9949,"Ġvifal":9950,"ukogal":9951,"rapr":9952,"Ġdusuk":9953,"Ġvastund":9954,"Ġpadaviki":9955,"Ġmarokaru":9956,"Ġatyadhikanga":9957,"office":9958,"Ġsanghala":9959,"Ġvistarinchi":9960,"Ġconference":9961,"Ġadrustam":9962,"athiki":9963,"Ġmarri":9964,"Ġgrup":9965,"Ġdeenito":9966,"Ġchellimpu":9967,"Ġadigaru":9968,"agad":9969,"Ġavasaranni":9970,"inatt":9971,"Ġkra":9972,"Ġvividh":9973,"Ġ85":9974,"Ġparinamalanu":9975,"inada":9976,"Ġsandi":9977,"Ġakali":9978,"Ġsuchana":9979,"lony":9980,"Ġnorth":9981,"Ġtown":9982,"Ġvyaktulanu":9983,"Ġsekarana":9984,"Ġremote":9985,"Ġchuttupakkala":9986,"Ġrub":9987,"Ġkonasagutondi":9988,"Ġteen":9989,"Ġpattub":9990,"Ġagrah":9991,"ours":9992,"eswaram":9993,"Ġruchikarmaina":9994,"Ġadayanni":9995,"Ġdikk":9996,"Ġaahv":9997,"alenu":9998,"avutunnaru":9999,"Ġabhiprayapaddaru":10000,"Ġcheyinch":10001,"Ġtrade":10002,"Ġparyavas":10003,"Ġvyaktigatamga":10004,"Ġpurogatini":10005,"Ġfoundation":10006,"Ġmonn":10007,"ications":10008,"Ġadbhuta":10009,"Ġsagindi":10010,"aiki":10011,"avaddani":10012,"iction":10013,"agalara":10014,"Ġkulam":10015,"Ġsambhashana":10016,"Ġputtinaroju":10017,"Ġrajanikanth":10018,"Ġcheyadame":10019,"Ġrashtralaku":10020,"Ġkovvu":10021,"Ġchesamani":10022,"Ġsridhar":10023,"Ġkutumbanni":10024,"Ġsarfar":10025,"Ġsurakshitamaina":10026,"Ġdiab":10027,"Ġkhani":10028,"Ġvelikit":10029,"Ġprajaswamya":10030,"Ġparimith":10031,"Ġawards":10032,"tv":10033,"Ġmudu":10034,"Ġgow":10035,"Ġcheyamani":10036,"Ġwine":10037,"Ġpadey":10038,"Ġkarunu":10039,"Ġapk":10040,"Ġvaikhari":10041,"Ġprob":10042,"apanalu":10043,"Ġaada":10044,"ashakti":10045,"Ġmadhur":10046,"Ġvidhanamlo":10047,"Ġsarir":10048,"ticy":10049,"hic":10050,"Ġvidhulu":10051,"Ġkendralu":10052,"Ġsekarinchina":10053,"Ġfiryad":10054,"Ġtelusukundam":10055,"Ġprinc":10056,"Ġhall":10057,"Ġadil":10058,"Ġdiffer":10059,"Ġsagutondi":10060,"Ġzone":10061,"telugu":10062,"Ġanek":10063,"ache":10064,"etta":10065,"Ġempicalon":10066,"Ġkanugont":10067,"Ġnidhula":10068,"Ġclear":10069,"Ġcrime":10070,"Ġbhashalo":10071,"Ġsamskaran":10072,"istondani":10073,"Ġparishubh":10074,"Ġanandanni":10075,"Ġupayogapad":10076,"Ġavishkarana":10077,"enge":10078,"Ġvyapt":10079,"Ġkanab":10080,"Ġlekkalu":10081,"Ġantekaka":10082,"Ġphotolon":10083,"ball":10084,"Ġchapp":10085,"Ġdeshanni":10086,"Ġpok":10087,"adilo":10088,"Ġguru":10089,"Ġtatkalika":10090,"ims":10091,"Ġkorutu":10092,"Ġjantu":10093,"Ġvaidyas":10094,"Ġmadyalo":10095,"Ġimm":10096,"Ġcla":10097,"Ġempele":10098,"Ġveyandi":10099,"Ġvaaramlo":10100,"Ġjaripina":10101,"Ġtene":10102,"Ġtelusukunna":10103,"Ġcharchaniyam":10104,"Ġadhikarulato":10105,"thulu":10106,"ikato":10107,"Ġjanagan":10108,"Ġvilinam":10109,"rita":10110,"alanukuntunn":10111,"Ġpariganimchandi":10112,"yaga":10113,"itiga":10114,"Ġterakekkina":10115,"Ġturn":10116,"Ġsammel":10117,"Ġcheppukochcharu":10118,"batu":10119,"oki":10120,"vv":10121,"Ġmala":10122,"Ġchid":10123,"Ġbeen":10124,"adhip":10125,"Ġdg":10126,"Ġtagginch":10127,"Ġacademy":10128,"cor":10129,"Ġhum":10130,"Ġcontain":10131,"arupam":10132,"inchinattu":10133,"ulake":10134,"entha":10135,"Ġavanni":10136,"Ġvillu":10137,"Ġsrinivasarao":10138,"anloni":10139,"Ġanavas":10140,"Ġshiva":10141,"Ġseat":10142,"aves":10143,"Ġjirn":10144,"Ġavutayi":10145,"Ġchestundani":10146,"Ġunnavaru":10147,"Ġandistunnaru":10148,"ipar":10149,"Ġsheet":10150,"Ġvijayas":10151,"Ġpranthaniki":10152,"Ġoct":10153,"uvulaku":10154,"Ġpoll":10155,"avall":10156,"Ġanasu":10157,"Ġcharitranu":10158,"Ġbacteria":10159,"Ġser":10160,"Ġcad":10161,"Ġcpi":10162,"ova":10163,"Ġayipoyindi":10164,"Ġvijayalu":10165,"Ġsandarbham":10166,"Ġjanaganana":10167,"Ġvantu":10168,"Ġcheppavachchu":10169,"Ġuncham":10170,"Ġgirl":10171,"mission":10172,"Ġspr":10173,"ardr":10174,"Ġnalugo":10175,"Ġresponse":10176,"Ġlopali":10177,"Ġsanniveshalu":10178,"lak":10179,"Ġnirmulan":10180,"Ġvistarana":10181,"Ġsampoor":10182,"Ġsrikaram":10183,"anula":10184,"Ġvadakam":10185,"Ġrepublic":10186,"Ġnanyamaina":10187,"Ġnishedham":10188,"gant":10189,"uniti":10190,"Ġjh":10191,"Ġpatanam":10192,"Ġgap":10193,"Ġnashtap":10194,"istunnam":10195,"ukunela":10196,"news":10197,"Ġchandrababun":10198,"Ġreserve":10199,"Ġwashing":10200,"Ġear":10201,"Ġfarm":10202,"Ġpunarn":10203,"Ġenthagano":10204,"Ġestate":10205,"Ġtalupu":10206,"Ġgerm":10207,"Ġpatraku":10208,"Ġprathipad":10209,"Ġshareera":10210,"Ġnayakula":10211,"ukovadanto":10212,"Ġprabhutvampai":10213,"Ġkaligindi":10214,"Ġcharyala":10215,"Ġjantuvulu":10216,"Ġnyayamurthy":10217,"Ġcharging":10218,"Ġpanicheyadaniki":10219,"Ġthom":10220,"Ġpogott":10221,"Ġtelga":10222,"Ġnadaka":10223,"Ġpremium":10224,"Ġcree":10225,"Ġanipinch":10226,"Ġadesinchindi":10227,"anird":10228,"Ġsutram":10229,"achal":10230,"Ġdim":10231,"Ġsaripothundi":10232,"Ġkuch":10233,"aries":10234,"Ġbhavincharu":10235,"alanukune":10236,"Ġsave":10237,"Ġpempudu":10238,"Ġkasepu":10239,"Ġcalories":10240,"Ġfitness":10241,"untu":10242,"Ġchupincharu":10243,"aristu":10244,"Ġadigindi":10245,"Ġphalitala":10246,"Ġjeetam":10247,"Ġkaranalanu":10248,"Ġkudir":10249,"Ġmrud":10250,"Ġdevelopment":10251,"Ġbahirgatham":10252,"arh":10253,"udalla":10254,"Ġashimchina":10255,"Ġfriends":10256,"Ġabhiv":10257,"Ġsentiment":10258,"Ġpind":10259,"Ġgum":10260,"andarini":10261,"asthe":10262,"Ġemb":10263,"Ġsadhincharu":10264,"Ġpranthanni":10265,"Ġpradeshamlo":10266,"Ġkobbari":10267,"zer":10268,"adin":10269,"inagar":10270,"ashakha":10271,"Ġkudur":10272,"Ġ2006":10273,"ress":10274,"arangam":10275,"ukunnarani":10276,"Ġnetritvam":10277,"Ġavir":10278,"Ġsaras":10279,"Ġtelusukovadam":10280,"Ġaru":10281,"Ġgramala":10282,"Ġelectron":10283,"Ġvyatirek":10284,"Ġpilupunicharu":10285,"Ġnidarshanam":10286,"adik":10287,"Ġveeksh":10288,"Ġsamaya":10289,"Ġrech":10290,"Ġindex":10291,"Ġbrahma":10292,"Ġpratisari":10293,"Ġsthayilanu":10294,"Ġperagadaniki":10295,"adina":10296,"Ġbhayank":10297,"Ġsamsthaku":10298,"Ġdistrict":10299,"eli":10300,"aceae":10301,"atle":10302,"Ġsamaik":10303,"indra":10304,"elle":10305,"Ġbandham":10306,"Ġnibandhanalanu":10307,"Ġsodh":10308,"atrika":10309,"Ġcali":10310,"Ġmuddu":10311,"Ġmeer":10312,"Ġswas":10313,"Ġagain":10314,"evaraku":10315,"Ġlekunte":10316,"Ġblag":10317,"Ġrights":10318,"Ġmonna":10319,"ules":10320,"eshwara":10321,"Ġsoukaryavantamaina":10322,"Ġvaividhy":10323,"Ġshasn":10324,"Ġvechi":10325,"Ġdead":10326,"Ġhair":10327,"Ġcake":10328,"Ġjy":10329,"akalanga":10330,"Ġghanata":10331,"Ġsamana":10332,"bhag":10333,"Ġchelare":10334,"atani":10335,"Ġtivrata":10336,"Ġnath":10337,"Ġcherukundi":10338,"Ġnived":10339,"Ġrut":10340,"irit":10341,"Ġmanassu":10342,"Ġpravesham":10343,"Ġrayalaseema":10344,"utayani":10345,"Ġshareeraanni":10346,"adata":10347,"Ġprang":10348,"Ġtwist":10349,"Ġmanushulu":10350,"Ġjog":10351,"Ġunites":10352,"Ġbharatiy":10353,"lishta":10354,"Ġroganirodhaka":10355,"ids":10356,"atiga":10357,"Ġpadatam":10358,"Ġbro":10359,"Ġsudheer":10360,"Ġkanp":10361,"Ġrefr":10362,"Ġlike":10363,"Ġavaman":10364,"ipping":10365,"priyamaina":10366,"ettina":10367,"Ġbhoug":10368,"padi":10369,"istara":10370,"Ġsadhimchindi":10371,"Ġpenche":10372,"Ġsadupayalu":10373,"Ġmanugada":10374,"ulandariki":10375,"Ġgst":10376,"Ġjc":10377,"Ġaashalu":10378,"Ġbutton":10379,"inate":10380,"Ġwr":10381,"ills":10382,"Ġunnam":10383,"Ġsansthalo":10384,"Ġvenkateshwar":10385,"Ġviniyogadarulanu":10386,"Ġadhisthanam":10387,"Ġtarig":10388,"impaj":10389,"Ġkalpistundi":10390,"Ġvenkata":10391,"Ġanubhavimch":10392,"rathanu":10393,"Ġbhavanalu":10394,"Ġnaveen":10395,"Ġnipunula":10396,"Ġjama":10397,"Ġinform":10398,"Ġshaktiga":10399,"Ġmantritva":10400,"Ġtelec":10401,"Ġnirvahinchi":10402,"Ġabhyasam":10403,"Ġreliance":10404,"Ġbac":10405,"Ġias":10406,"Ġpondaru":10407,"Ġdanilo":10408,"Ġnegative":10409,"Ġsanklishta":10410,"Ġsadhanam":10411,"Ġviews":10412,"chandr":10413,"Ġjosh":10414,"Ġfan":10415,"apurvakanga":10416,"Ġmahan":10417,"raparach":10418,"Ġmancham":10419,"Ġmaddatuga":10420,"akalo":10421,"Ġarach":10422,"Ġennadu":10423,"Ġdirection":10424,"Ġrajeev":10425,"alasi":10426,"Ġpunah":10427,"Ġss":10428,"Ġrow":10429,"Ġtamanna":10430,"Ġdruvikr":10431,"Ġsankshobham":10432,"Ġvadh":10433,"Ġvella":10434,"Ġactor":10435,"Ġpages":10436,"Ġvina":10437,"iry":10438,"otsava":10439,"Ġvicharanaku":10440,"Ġtannula":10441,"Ġveganto":10442,"Ġdating":10443,"incina":10444,"Ġmugis":10445,"Ġjaganmohanreddy":10446,"60":10447,"Ġsome":10448,"ague":10449,"tiga":10450,"attaru":10451,"Ġantardr":10452,"Ġwave":10453,"Ġakasam":10454,"umbers":10455,"Ġsamayallo":10456,"Ġuttarvulu":10457,"Ġsamr":10458,"Ġatyunn":10459,"Ġgermany":10460,"erjee":10461,"Ġthond":10462,"Ġrendusarlu":10463,"Ġvishleshakulu":10464,"Ġdvip":10465,"Ġkalaniki":10466,"Ġvellipoth":10467,"Ġdashalu":10468,"Ġsamanam":10469,"ishth":10470,"Ġteliste":10471,"Ġcheppalani":10472,"Ġvellu":10473,"Ġintegr":10474,"Ġsachin":10475,"Ġsqu":10476,"Ġutc":10477,"Ġvahinchina":10478,"Ġvideon":10479,"Ġsabhyulaku":10480,"Ġganuka":10481,"Ġvyarthalanu":10482,"Ġvuha":10483,"Ġnayam":10484,"Ġodish":10485,"Ġnirmistunnaru":10486,"Ġpandu":10487,"Ġnibandhanal":10488,"Ġhayiga":10489,"Ġadaran":10490,"Ġpoota":10491,"Ġmadhav":10492,"Ġintavaraku":10493,"uddini":10494,"Ġvedini":10495,"Ġgadich":10496,"agn":10497,"Ġpattukoni":10498,"Ġmugimp":10499,"Ġudaharanalu":10500,"Ġvyuhalanu":10501,"Ġtake":10502,"Ġwall":10503,"Ġprastutaniki":10504,"Ġkutumbalu":10505,"Ġbusy":10506,"Ġviruchukup":10507,"23":10508,"Ġennikalu":10509,"Ġcheyaalo":10510,"Ġkalapali":10511,"Ġparisodhakulu":10512,"Ġshasnasabha":10513,"Ġmac":10514,"Ġerra":10515,"Ġrout":10516,"Ġallah":10517,"ido":10518,"Ġcherukunnaru":10519,"Ġhrudayam":10520,"Ġeconom":10521,"Ġankshalu":10522,"Ġjio":10523,"unnaanu":10524,"Ġtelev":10525,"Ġyug":10526,"Ġthirmanam":10527,"Ġrecent":10528,"Ġposi":10529,"anki":10530,"ulandaru":10531,"Ġship":10532,"Ġshataniki":10533,"Ġteja":10534,"Ġnirvahistaru":10535,"Ġsahayanto":10536,"Ġbaguntundi":10537,"Ġparidhi":10538,"Ġmatchlo":10539,"Ġchinnari":10540,"Ġvyasalu":10541,"usthundi":10542,"Ġmamuluga":10543,"inchagalavu":10544,"Ġprogramming":10545,"udram":10546,"urance":10547,"ivet":10548,"Ġfut":10549,"Ġudyama":10550,"Ġchill":10551,"Ġnilichina":10552,"Ġsamathulyatanu":10553,"Ġdanam":10554,"Ġsweet":10555,"Ġkarulo":10556,"Ġangla":10557,"arikam":10558,"Ġniluv":10559,"Ġarik":10560,"Ġvitiki":10561,"Ġrot":10562,"ige":10563,"ladesh":10564,"Ġdadiki":10565,"Ġconnection":10566,"ugga":10567,"Ġagarwal":10568,"Ġexpress":10569,"annamata":10570,"Ġbellam":10571,"Ġasantripti":10572,"Ġhist":10573,"Ġpade":10574,"Ġtayarav":10575,"inchabadd":10576,"Ġmishramanni":10577,"Ġparivart":10578,"evari":10579,"eshadu":10580,"Ġvistrut":10581,"Ġabhimanulaku":10582,"Ġradio":10583,"esp":10584,"ilalo":10585,"Ġlakk":10586,"Ġtisukochch":10587,"Ġpathakanni":10588,"Ġwarming":10589,"Ġkadh":10590,"athuga":10591,"Ġnakshatr":10592,"Ġhanikar":10593,"Ġral":10594,"Ġevarikaina":10595,"Ġtiraskarinch":10596,"Ġkanipistunnaayi":10597,"Ġpurtisth":10598,"Ġlibr":10599,"istanani":10600,"Ġpettukunna":10601,"Ġbanking":10602,"Ġlee":10603,"Ġantariksha":10604,"Ġmadhyapradesh":10605,"Ġcet":10606,"imi":10607,"Ġveth":10608,"Ġnanyatanu":10609,"Ġchap":10610,"Ġgy":10611,"Ġ95":10612,"Ġpump":10613,"Ġcheti":10614,"Ġpariharam":10615,"Ġakanksh":10616,"Ġvyaktigatic":10617,"avyaptanga":10618,"Ġlocal":10619,"Ġprakhy":10620,"Ġintlone":10621,"Ġnumbers":10622,"Ġeck":10623,"ete":10624,"Ġmarintaga":10625,"impula":10626,"Ġdarshakudiga":10627,"Ġmritade":10628,"Ġnagababu":10629,"Ġlothuga":10630,"Ġnirmistunna":10631,"Ġvachchindi":10632,"Ġpaduthunna":10633,"Ġsecretary":10634,"Ġfoc":10635,"Ġnaat":10636,"Ġsrav":10637,"Ġelection":10638,"inchukun":10639,"Ġsudhakar":10640,"Ġmarutunna":10641,"Ġsathyam":10642,"Ġpatuga":10643,"Ġperugutayi":10644,"Ġkaranamani":10645,"Ġraman":10646,"Ġpratyekinchi":10647,"Ġparamanu":10648,"atledu":10649,"gur":10650,"kort":10651,"Ġgirijan":10652,"Ġprajapratin":10653,"Ġtone":10654,"abadda":10655,"ukunnatlu":10656,"Ġbujji":10657,"ande":10658,"Ġhem":10659,"Ġtheir":10660,"Ġsandesanni":10661,"alek":10662,"Ġpadite":10663,"Ġmasala":10664,"Ġdharimchi":10665,"Ġautomatic":10666,"Ġmuh":10667,"Ġchestune":10668,"Ġannoun":10669,"Ġvidhvam":10670,"Ġpratinidhulu":10671,"Ġaspatrilo":10672,"Ġvasth":10673,"Ġprajad":10674,"Ġnirvahakulu":10675,"Ġtoliv":10676,"Ġretl":10677,"Ġcheyyi":10678,"Ġsannahalu":10679,"epai":10680,"Ġnirmanamlo":10681,"Ġcamer":10682,"Ġsajeev":10683,"Ġpatram":10684,"Ġhuzur":10685,"Ġcharyalaku":10686,"Ġmeth":10687,"Ġprayogalu":10688,"Ġneojakavarga":10689,"anloki":10690,"enes":10691,"allalo":10692,"eve":10693,"Ġvittanalu":10694,"imat":10695,"Ġnaan":10696,"Ġtelusukov":10697,"ality":10698,"Ġkrith":10699,"Ġrabot":10700,"Ġvelupalli":10701,"Ġkanipinchadu":10702,"Ġraktha":10703,"Ġracha":10704,"Ġmugisindi":10705,"Ġoffers":10706,"Ġanduvalana":10707,"Ġdialogue":10708,"Ġkristu":10709,"Ġchendaru":10710,"ipotayi":10711,"Ġbold":10712,"Ġsanketalu":10713,"Ġprarambhamavuthundi":10714,"Ġasaukary":10715,"Ġabhyarthiga":10716,"Ġsarvis":10717,"Ġuddeshyam":10718,"Ġstartup":10719,"Ġpovadam":10720,"iyar":10721,"othu":10722,"Ġparisthitulalo":10723,"rahman":10724,"Ġkallaku":10725,"40":10726,"vanni":10727,"inka":10728,"Ġtagginche":10729,"80":10730,"zz":10731,"antaga":10732,"Ġchattalu":10733,"Ġkanipinchina":10734,"Ġinterviewlo":10735,"rala":10736,"eyalani":10737,"Ġvasati":10738,"Ġhrs":10739,"Ġkanugonandi":10740,"Ġgopyata":10741,"palli":10742,"Ġprabhavavantamaina":10743,"Ġokatiga":10744,"Ġsays":10745,"Ġcontin":10746,"yaan":10747,"ovadaniki":10748,"Ġpettukoni":10749,"akta":10750,"eyali":10751,"Ġkathala":10752,"Ġprakatanalo":10753,"Ġhaasan":10754,"Ġrajyangam":10755,"Ġtelchi":10756,"Ġanim":10757,"Ġterichi":10758,"Ġneraverch":10759,"Ġhol":10760,"Ġdidd":10761,"Ġdinotsavam":10762,"Ġergatuku":10763,"Ġjarugutumdani":10764,"Ġcond":10765,"ellaga":10766,"Ġabhimanula":10767,"Ġts":10768,"Ġprayanist":10769,"Ġramakrishn":10770,"ier":10771,"vir":10772,"Ġtaragat":10773,"vamlo":10774,"loga":10775,"Ġkhand":10776,"Ġtomato":10777,"Ġchesevaru":10778,"enduke":10779,"Ġarag":10780,"ainanta":10781,"Ġrabad":10782,"ichand":10783,"Ġdashala":10784,"Ġdatab":10785,"Ġboxoffice":10786,"Ġpadma":10787,"Ġsangrah":10788,"Ġswagatham":10789,"enga":10790,"apote":10791,"Ġchepalu":10792,"Ġsaripot":10793,"Ġjeevitaniki":10794,"Ġjayal":10795,"Ġbash":10796,"Ġkutami":10797,"Ġchadarapu":10798,"Ġyajam":10799,"Ġclassic":10800,"Ġuma":10801,"Ġdeh":10802,"Ġnagarik":10803,"Ġrashtranni":10804,"Ġconcept":10805,"Ġcb":10806,"Ġjutt":10807,"iles":10808,"Ġnamasthe":10809,"imche":10810,"Ġsatyam":10811,"gapore":10812,"inundi":10813,"Ġparadars":10814,"Ġpatti":10815,"avyam":10816,"intlo":10817,"Ġnagaraniki":10818,"Ġmakers":10819,"Ġsarihaddu":10820,"Ġshastravetta":10821,"Ġdifferent":10822,"Ġteep":10823,"Ġnr":10824,"Ġdesalalo":10825,"erga":10826,"onnata":10827,"Ġanchor":10828,"chal":10829,"Ġstorage":10830,"Ġjantuvula":10831,"Ġeetal":10832,"apetti":10833,"Ġsamikaranam":10834,"Ġbhavistaru":10835,"Ġoopiri":10836,"Ġolymp":10837,"Ġkaryakramala":10838,"Ġpranalikalu":10839,"Ġveedh":10840,"Ġtolivelugu":10841,"Ġglam":10842,"Ġnirakarinch":10843,"Ġtarabadi":10844,"Ġtelugun":10845,"Ġanukondi":10846,"Ġsifarus":10847,"Ġkhareedaina":10848,"Ġkatti":10849,"Ġkej":10850,"Ġbra":10851,"Ġdeng":10852,"Ġviacesar":10853,"Ġrekk":10854,"etram":10855,"Ġpedalaku":10856,"Ġgreenhouse":10857,"Ġsiddip":10858,"Ġrs":10859,"ables":10860,"Ġodd":10861,"Ġsriv":10862,"Ġgalaxy":10863,"ukundam":10864,"odyam":10865,"Ġchusukondi":10866,"Ġpravesha":10867,"Ġchainalo":10868,"Ġanati":10869,"Ġmanoj":10870,"Ġswalp":10871,"Ġsimp":10872,"Ġchesukunte":10873,"eelo":10874,"Ġvenna":10875,"Ġvyaktulaku":10876,"Ġparisthitilo":10877,"Ġgurthuku":10878,"Ġterkekkutunna":10879,"Ġsociety":10880,"action":10881,"Ġbullet":10882,"aguji":10883,"Ġvellada":10884,"Ġchetiki":10885,"Ġbangladesh":10886,"Ġmohamm":10887,"Ġmupp":10888,"ajiv":10889,"untai":10890,"Ġ800":10891,"Ġvijayaniki":10892,"Ġvipu":10893,"Ġiddariki":10894,"Ġperigayi":10895,"ved":10896,"Ġmaripoyindi":10897,"Ġdip":10898,"avasam":10899,"Ġistu":10900,"Ġdrivers":10901,"Ġkshamapanalu":10902,"Ġstadi":10903,"Ġtelikapati":10904,"anip":10905,"Ġhet":10906,"Ġkhari":10907,"Ġrakanga":10908,"Ġglass":10909,"Ġfinancial":10910,"Ġsamakshamlo":10911,"Ġcheppinatlu":10912,"Ġheat":10913,"nala":10914,"Ġkodu":10915,"Ġsamme":10916,"tick":10917,"Ġanumathulu":10918,"Ġvyathirekata":10919,"Ġatyuttama":10920,"Ġsweey":10921,"Ġleaders":10922,"ulai":10923,"Ġantadu":10924,"Ġvishadam":10925,"Ġdharalanu":10926,"Ġreleas":10927,"Ġflash":10928,"Ġasthulu":10929,"Ġmondi":10930,"abda":10931,"Ġgos":10932,"Ġinjan":10933,"Ġalex":10934,"Ġyouth":10935,"Ġcommunist":10936,"Ġauton":10937,"Ġcards":10938,"board":10939,"Ġvistrutamaina":10940,"Ġsell":10941,"akumar":10942,"Ġbhram":10943,"Ġchestamu":10944,"Ġrajani":10945,"Ġkhachchith":10946,"Ġtre":10947,"Ġcharchaku":10948,"Ġvyaktigaticarinchina":10949,"Ġadigi":10950,"ugaru":10951,"Ġnammuth":10952,"valu":10953,"yalato":10954,"Ġmaramm":10955,"inchalane":10956,"Ġpurushulu":10957,"itu":10958,"Ġbhuvan":10959,"Ġpatan":10960,"Ġanubhavalanu":10961,"Ġkaryakalapala":10962,"Ġvaibhav":10963,"impulaku":10964,"Ġbotsa":10965,"Ġvineyoganni":10966,"Ġsodhana":10967,"anaina":10968,"Ġnoti":10969,"Ġengland":10970,"Ġrekett":10971,"Ġparikaralanu":10972,"Ġvaraniki":10973,"Ġsavallu":10974,"Ġasupatriki":10975,"Ġname":10976,"Ġbul":10977,"Ġvastaru":10978,"timp":10979,"Ġpariksha":10980,"Ġrashmika":10981,"Ġchart":10982,"Ġbcc":10983,"Ġatadini":10984,"Ġnidhulanu":10985,"Ġmettaga":10986,"word":10987,"evar":10988,"Ġchestarani":10989,"Ġevar":10990,"Ġistunnaru":10991,"Ġperugutondi":10992,"unnu":10993,"Ġposts":10994,"Ġkortuku":10995,"Ġthattukol":10996,"uvy":10997,"Ġrendent":10998,"Ġsingapore":10999,"Ġvellanu":11000,"Ġelagaina":11001,"Ġkhanij":11002,"das":11003,"Ġparishad":11004,"Ġmerugga":11005,"Ġswatant":11006,"Ġkarun":11007,"Ġannayya":11008,"Ġjanvari":11009,"Ġgaddi":11010,"Ġaaviri":11011,"arledu":11012,"ikudu":11013,"Ġlad":11014,"Ġnarendram":11015,"Ġvargikarinch":11016,"Ġnadiche":11017,"Ġatagallu":11018,"alanga":11019,"Ġbrath":11020,"Ġcherukovadaniki":11021,"Ġnethalaku":11022,"ippudu":11023,"Ġtalent":11024,"Ġcommittees":11025,"ukog":11026,"iddi":11027,"kaiah":11028,"Ġcommon":11029,"Ġpondup":11030,"Ġminor":11031,"Ġscenes":11032,"halo":11033,"Ġkalust":11034,"ori":11035,"Ġbharata":11036,"Ġexecut":11037,"Ġadrusht":11038,"Ġplace":11039,"Ġbhale":11040,"Ġevo":11041,"Ġvidhamaina":11042,"Ġherole":11043,"Ġchestunnama":11044,"Ġsambhavistundi":11045,"Ġmidaku":11046,"Ġvedukalu":11047,"Ġparishkaralanu":11048,"Ġcondition":11049,"Ġaik":11050,"Ġchek":11051,"Ġthere":11052,"attam":11053,"Ġkalakar":11054,"Ġprarambhamaina":11055,"Ġvidyuttu":11056,"Ġyoch":11057,"Ġdesamlone":11058,"Ġmunicipality":11059,"Ġkalayika":11060,"Ġhanikarmine":11061,"Ġprakatinch":11062,"Ġsangharsh":11063,"inchukundi":11064,"Ġcouncil":11065,"Ġmop":11066,"Ġdan":11067,"ikosam":11068,"Ġjala":11069,"Ġjim":11070,"Ġpadala":11071,"Ġrecycling":11072,"Ġpull":11073,"Ġkenn":11074,"agol":11075,"astri":11076,"arthi":11077,"aduthunna":11078,"Ġalasyanga":11079,"Ġcpm":11080,"Ġjarg":11081,"ols":11082,"uce":11083,"Ġsham":11084,"Ġsadharanam":11085,"Ġpmk":11086,"Ġenglish":11087,"Ġbhaktula":11088,"Ġtalam":11089,"Ġgift":11090,"Ġokat":11091,"Ġration":11092,"Ġprajas":11093,"Ġkutumbamlo":11094,"Ġvallani":11095,"back":11096,"Ġtut":11097,"Ġnidhi":11098,"Ġkumbhak":11099,"Ġprana":11100,"Ġgurinchina":11101,"Ġvijayavad":11102,"Ġvimaanas":11103,"Ġpaathasalaso":11104,"Ġghatanapai":11105,"ze":11106,"inchinappatiki":11107,"Ġprachina":11108,"Ġpractices":11109,"Ġbheema":11110,"Ġpaine":11111,"ipotunna":11112,"padam":11113,"Ġchesinattu":11114,"Ġippudi":11115,"Ġ67":11116,"Ġdeposit":11117,"Ġvides":11118,"dhi":11119,"Ġrupayala":11120,"inanduna":11121,"ardhan":11122,"Ġcharma":11123,"ikaram":11124,"sham":11125,"Ġshasw":11126,"Ġlakshmin":11127,"Ġfocus":11128,"kat":11129,"Ġsesh":11130,"Ġkana":11131,"Ġ190":11132,"Ġotam":11133,"Ġcry":11134,"Ġmarus":11135,"Ġgenerate":11136,"Ġavasarala":11137,"Ġapply":11138,"Ġparirakshana":11139,"Ġoptimize":11140,"Ġrbi":11141,"Ġinsp":11142,"Ġluck":11143,"Ġshuddhi":11144,"Ġjeeva":11145,"Ġvisual":11146,"Ġpadavulu":11147,"Ġtakshaname":11148,"othondi":11149,"Ġmaranimcharu":11150,"Ġvolunteers":11151,"kala":11152,"athala":11153,"Ġmeede":11154,"Ġscor":11155,"Ġkishor":11156,"ovy":11157,"Ġavalamb":11158,"Ġvijayavantham":11159,"Ġpanichestayi":11160,"Ġugravad":11161,"Ġgeor":11162,"Ġlady":11163,"mcharu":11164,"Ġscene":11165,"Ġpeduthundi":11166,"Ġmuseum":11167,"lock":11168,"Ġthes":11169,"Ġappulu":11170,"Ġnirvahinchandi":11171,"Ġkalisina":11172,"Ġaiduguru":11173,"aprasad":11174,"inchaledani":11175,"Ġsets":11176,"Ġinsurance":11177,"Ġboyapati":11178,"hanni":11179,"veda":11180,"ukund":11181,"Ġpadardh":11182,"Ġvivarala":11183,"Ġvellandi":11184,"Ġ120":11185,"Ġsamacharanto":11186,"Ġspoon":11187,"avalla":11188,"Ġratn":11189,"Ġbhagangane":11190,"ologies":11191,"emit":11192,"Ġayyaka":11193,"Ġabhyarthula":11194,"Ġsadal":11195,"Ġbriton":11196,"Ġdigumati":11197,"arta":11198,"amam":11199,"Ġpata":11200,"Ġserial":11201,"Ġemina":11202,"Ġlabhinche":11203,"Ġsabhyulatho":11204,"Ġdemands":11205,"Ġactiv":11206,"bel":11207,"cha":11208,"Ġdalitha":11209,"Ġcheyali":11210,"Ġspain":11211,"Ġanukokunda":11212,"Ġsavaran":11213,"Ġsahodyog":11214,"Ġpong":11215,"Ġpick":11216,"Ġkanal":11217,"igur":11218,"Ġmanalo":11219,"Ġtayaruch":11220,"Ġbhadratanu":11221,"Ġchakravarthy":11222,"xic":11223,"Ġeast":11224,"ollu":11225,"Ġyella":11226,"akshana":11227,"Ġupayoginchina":11228,"Ġregister":11229,"Ġmajhi":11230,"Ġnirmanaanni":11231,"adur":11232,"akat":11233,"Ġcollectors":11234,"Ġshatabd":11235,"Ġkshaminchandi":11236,"Ġtand":11237,"Ġnatural":11238,"Ġkumm":11239,"Ġentante":11240,"Ġvagd":11241,"charan":11242,"Ġsivas":11243,"Ġkari":11244,"asnu":11245,"ukokunda":11246,"Ġcheyataniki":11247,"anthara":11248,"Ġpattanamlo":11249,"Ġcheyyadam":11250,"patt":11251,"Ġtho":11252,"estondi":11253,"Ġsadhimchi":11254,"Ġvahanalanu":11255,"Ġnirnayaniki":11256,"adanna":11257,"alsind":11258,"Ġ72":11259,"Ġthisukovachu":11260,"Ġbhashanu":11261,"Ġpolchandi":11262,"Ġasht":11263,"Ġwell":11264,"Ġchestund":11265,"Ġswarg":11266,"istunnamu":11267,"Ġudyogala":11268,"Ġmodiki":11269,"adarula":11270,"Ġmanavulu":11271,"Ġbhavam":11272,"Ġkritham":11273,"Ġuppagratalu":11274,"Ġundevaru":11275,"Ġvivaha":11276,"Ġsagat":11277,"Ġselavu":11278,"Ġyogi":11279,"akudiki":11280,"ipudi":11281,"Ġdimp":11282,"Ġvacharu":11283,"Ġbeg":11284,"Ġhelic":11285,"Ġpainting":11286,"Ġbariloki":11287,"Ġsatam":11288,"Ġthisukondi":11289,"Ġabhiprayalanu":11290,"Ġnyayavadi":11291,"Ġsitt":11292,"Ġmast":11293,"yac":11294,"Ġkoratala":11295,"Ġnirodhaka":11296,"Ġparisodhanalu":11297,"Ġdraw":11298,"Ġadir":11299,"itiya":11300,"Ġjammu":11301,"Ġkriyash":11302,"Ġcat":11303,"Ġtelep":11304,"alilo":11305,"Ġars":11306,"Ġkonam":11307,"Ġsadhinchadam":11308,"Ġnizayi":11309,"Ġpalgoni":11310,"Ġsani":11311,"Ġrendavadi":11312,"inchataniki":11313,"Ġbandhuvulu":11314,"Ġuddesham":11315,"Ġveldulli":11316,"Ġvidichipett":11317,"aray":11318,"Ġvice":11319,"Ġduh":11320,"Ġvayuvu":11321,"Ġheg":11322,"Ġlocation":11323,"Ġsthanikanga":11324,"Ġkalanu":11325,"Ġroll":11326,"agra":11327,"Ġkarona":11328,"Ġflat":11329,"aharam":11330,"Ġtelupu":11331,"Ġbalavantanga":11332,"Ġknow":11333,"alekap":11334,"akanna":11335,"Ġgot":11336,"oddani":11337,"Ġvydy":11338,"Ġnimdit":11339,"Ġnammakanni":11340,"Ġkalapandi":11341,"Ġplease":11342,"Ġrettu":11343,"Ġrupanni":11344,"Ġbagunt":11345,"Ġdarun":11346,"Ġvelde":11347,"Ġparvatrika":11348,"Ġdrishtya":11349,"Ġanubandham":11350,"eal":11351,"Ġviste":11352,"Ġfiction":11353,"utvam":11354,"Ġkaligistayi":11355,"Ġnatimchindi":11356,"Ġanchanalanu":11357,"Ġdampatulu":11358,"Ġuddesinchi":11359,"aped":11360,"ollo":11361,"Ġpettalani":11362,"Ġgodav":11363,"Ġcontest":11364,"Ġekkadaina":11365,"Ġsanthoshanga":11366,"alen":11367,"aparust":11368,"Ġfa":11369,"Ġdum":11370,"Ġdrama":11371,"Ġgoutham":11372,"Ġpandaga":11373,"akudani":11374,"adhikarulu":11375,"Ġchorav":11376,"Ġvidudalaku":11377,"inchadani":11378,"Ġcra":11379,"Ġsahasam":11380,"Ġoting":11381,"Ġvyavasthaku":11382,"Ġbhayanto":11383,"Ġpict":11384,"adatta":11385,"Ġmai":11386,"Ġalochimch":11387,"Ġmaatlaadatam":11388,"Ġtaruvati":11389,"Ġboggu":11390,"charya":11391,"Ġevari":11392,"Ġpaik":11393,"Ġprathibha":11394,"Ġclient":11395,"Ġattack":11396,"Ġadilabad":11397,"Ġprajapratinidh":11398,"yasam":11399,"Ġkarmikulaku":11400,"Ġjatiy":11401,"Ġstream":11402,"Ġeuropean":11403,"Ġvery":11404,"istonna":11405,"icy":11406,"Ġcrim":11407,"Ġboot":11408,"Ġpilav":11409,"Ġrogue":11410,"Ġutsahamga":11411,"Ġanasuya":11412,"Ġvallane":11413,"alapatu":11414,"Ġyuvakulu":11415,"Ġtholisariga":11416,"Ġpavitra":11417,"Ġpartiluk":11418,"Ġ66":11419,"Ġvaikapa":11420,"Ġmama":11421,"ikanth":11422,"Ġscoot":11423,"Ġchampion":11424,"aritanam":11425,"Ġvadilesi":11426,"Ġjatulu":11427,"Ġaushadha":11428,"medi":11429,"Ġdeepavali":11430,"Ġchar":11431,"ashiksh":11432,"Ġsarvas":11433,"Ġpadu":11434,"ikal":11435,"ikula":11436,"iving":11437,"Ġshasan":11438,"Ġard":11439,"onies":11440,"elor":11441,"Ġnashtalanu":11442,"Ġkorea":11443,"Ġsakram":11444,"Ġring":11445,"Ġtoti":11446,"Ġnashtanni":11447,"Ġkaram":11448,"achalam":11449,"Ġevvaru":11450,"Ġnatakam":11451,"Ġdharmam":11452,"oi":11453,"Ġthod":11454,"Ġgopichand":11455,"Ġvinipistondi":11456,"Ġsthayini":11457,"Ġbadhyatalanu":11458,"udra":11459,"Ġsangharshana":11460,"Ġtellavaru":11461,"Ġgarishta":11462,"anning":11463,"Ġtechina":11464,"Ġmade":11465,"Ġthan":11466,"Ġgoduma":11467,"Ġhaz":11468,"Ġbhavishyatt":11469,"Ġpryath":11470,"Ġparisodhana":11471,"Ġvidip":11472,"Ġtalap":11473,"Ġbhojan":11474,"Ġnelakolp":11475,"Ġfibre":11476,"Ġpc":11477,"Ġtadi":11478,"uvvu":11479,"ukuntam":11480,"Ġlokam":11481,"Ġdukanam":11482,"Ġtraining":11483,"ger":11484,"isaru":11485,"Ġgaaru":11486,"Ġsamasyalapai":11487,"Ġchocolate":11488,"men":11489,"Ġpadak":11490,"Ġsrushti":11491,"Ġbayatapett":11492,"Ġgovind":11493,"Ġmaradam":11494,"Ġadivas":11495,"ampalli":11496,"Ġterm":11497,"Ġvasan":11498,"Ġveyali":11499,"Ġsanthosham":11500,"adhikari":11501,"Ġsway":11502,"Ġfixe":11503,"Ġkank":11504,"Ġayid":11505,"Ġuntarani":11506,"Ġteerp":11507,"Ġrajakeeyalloki":11508,"Ġmoney":11509,"Ġgreater":11510,"Ġkolpovadam":11511,"Ġmantram":11512,"akarulu":11513,"Ġanur":11514,"itene":11515,"Ġpadalanu":11516,"erso":11517,"Ġvilas":11518,"Ġvipaksh":11519,"Ġgurtinchina":11520,"Ġdarunam":11521,"Ġdushpr":11522,"key":11523,"Ġprep":11524,"Ġparinamam":11525,"Ġvidudal":11526,"comm":11527,"pm":11528,"Ġpacch":11529,"udam":11530,"Ġpadakunda":11531,"Ġdirectors":11532,"Ġthallidandrula":11533,"Ġspandistu":11534,"Ġjagannath":11535,"udani":11536,"utuntaru":11537,"iroj":11538,"angat":11539,"Ġvadiki":11540,"Ġpenchi":11541,"agulu":11542,"Ġanukunnaru":11543,"Ġkidnap":11544,"Ġvaividhyamaina":11545,"Ġsinimalato":11546,"Ġtokk":11547,"overy":11548,"Ġkonukk":11549,"Ġnijangane":11550,"Ġnehru":11551,"arain":11552,"Ġivvaledu":11553,"Ġchupistundi":11554,"Ġanuvad":11555,"Ġstreela":11556,"inantha":11557,"Ġunnavariki":11558,"ailam":11559,"Ġsamsung":11560,"Ġdonald":11561,"mit":11562,"Ġanukuni":11563,"agadu":11564,"Ġsame":11565,"evvaru":11566,"Ġpettali":11567,"Ġbhagalanu":11568,"Ġalochanalo":11569,"Ġdiguv":11570,"aristunna":11571,"Ġperugudalaku":11572,"Ġthriller":11573,"aruch":11574,"imir":11575,"utvak":11576,"Ġmilit":11577,"yaraj":11578,"Ġshram":11579,"Ġnirmanalu":11580,"Ġcomplet":11581,"Ġjvaram":11582,"Ġrojuroj":11583,"antho":11584,"Ġvayid":11585,"jil":11586,"ugani":11587,"Ġavutunnaru":11588,"itions":11589,"Ġmahasam":11590,"Ġtravel":11591,"Ġbjplo":11592,"nath":11593,"Ġemotional":11594,"Ġteepi":11595,"leni":11596,"chait":11597,"Ġayannu":11598,"Ġsuchinchindi":11599,"Ġdrushti":11600,"nan":11601,"Ġtamilamlo":11602,"Ġparishkaranni":11603,"akriy":11604,"Ġjeb":11605,"Ġchesedi":11606,"Ġtelusa":11607,"ariste":11608,"poyadu":11609,"Ġcheptunnaru":11610,"Ġdongil":11611,"Ġkathinanga":11612,"las":11613,"atantra":11614,"Ġkalas":11615,"Ġphil":11616,"Ġtelipadu":11617,"Ġnagarallo":11618,"Ġkakinada":11619,"Ġubh":11620,"atw":11621,"Ġvs":11622,"eters":11623,"Ġshabd":11624,"Ġtaluk":11625,"Ġcalls":11626,"Ġcast":11627,"Ġpradhan":11628,"Ġparimit":11629,"Ġdynam":11630,"Ġpryathn":11631,"adarulu":11632,"Ġtine":11633,"ilak":11634,"Ġswap":11635,"Ġadbhutam":11636,"Ġsujatha":11637,"unnaro":11638,"Ġfish":11639,"Ġayidu":11640,"Ġanshal":11641,"Ġnirmataga":11642,"kalanu":11643,"akelaku":11644,"Ġrik":11645,"Ġprashant":11646,"Ġtanato":11647,"Ġiss":11648,"poon":11649,"Ġanubandha":11650,"Ġparishilincharu":11651,"Ġparisramik":11652,"Ġbharathi":11653,"Ġkilola":11654,"Ġasadharana":11655,"Ġhelicop":11656,"jid":11657,"tho":11658,"ipy":11659,"Ġvinayak":11660,"Ġhechch":11661,"Ġpeel":11662,"Ġvadini":11663,"Ġsaik":11664,"Ġkishtamaina":11665,"Ġnon":11666,"Ġganga":11667,"inge":11668,"Ġrajender":11669,"Ġekkadiki":11670,"Ġandukani":11671,"Ġpramanika":11672,"Ġkadha":11673,"Ġfest":11674,"Ġkalv":11675,"Ġeker":11676,"Ġrangareddy":11677,"Ġvishayala":11678,"ustu":11679,"Ġmaans":11680,"Ġparishk":11681,"Ġthem":11682,"Ġpilichi":11683,"cin":11684,"iniki":11685,"Ġpcc":11686,"Ġsametha":11687,"Ġtagginchavachchu":11688,"Ġmodalett":11689,"Ġinterf":11690,"Ġactive":11691,"tml":11692,"Ġchen":11693,"Ġkorindi":11694,"paiga":11695,"iche":11696,"Ġmodatidi":11697,"Ġpremisth":11698,"Ġque":11699,"Ġbcci":11700,"Ġaakh":11701,"Ġpracreal":11702,"Ġooru":11703,"eyy":11704,"Ġunnata":11705,"Ġsamavesaniki":11706,"Ġparishilinchi":11707,"Ġpannulu":11708,"Ġbhugarbh":11709,"Ġtalas":11710,"Ġrequ":11711,"Ġvalle":11712,"Ġphoton":11713,"Ġparikarala":11714,"Ġbhougolic":11715,"cine":11716,"Ġnirvahinchalani":11717,"Ġabhivruddini":11718,"urea":11719,"Ġbatting":11720,"Ġgadichina":11721,"arlaku":11722,"Ġchinese":11723,"Ġvidyanu":11724,"Ġcapital":11725,"Ġbengalu":11726,"Ġdak":11727,"Ġrajinam":11728,"Ġnirvahistunnaru":11729,"forman":11730,"Ġvinodam":11731,"Ġnirminchadaniki":11732,"Ġsecons":11733,"Ġsekarinchi":11734,"Ġakshay":11735,"Ġguide":11736,"Ġmini":11737,"Ġandala":11738,"Ġveyy":11739,"Ġwait":11740,"Ġmargallo":11741,"Ġettaina":11742,"Ġpramadakaramaina":11743,"nic":11744,"Ġtav":11745,"ulabh":11746,"itramaina":11747,"ramam":11748,"Ġvimana":11749,"forni":11750,"Ġcricketer":11751,"Ġrachayitalu":11752,"rag":11753,"alaloni":11754,"Ġbha":11755,"Ġpadanni":11756,"abaddam":11757,"Ġnishk":11758,"Ġvaccination":11759,"Ġvyadhulu":11760,"Ġsiddipet":11761,"Ġsandarb":11762,"Ġvivadaspada":11763,"Ġtitt":11764,"Ġframe":11765,"Ġpaul":11766,"Ġrekh":11767,"Ġkindaku":11768,"Ġdravyol":11769,"Ġsakalamlo":11770,"alug":11771,"aphis":11772,"Ġtelivaina":11773,"itor":11774,"Ġundadani":11775,"Ġcheruvu":11776,"Ġtisukuv":11777,"inchukol":11778,"Ġroopondincharu":11779,"Ġdepartment":11780,"akapovachchu":11781,"Ġhatyaku":11782,"Ġlicense":11783,"idev":11784,"Ġappu":11785,"Ġabhyantaram":11786,"Ġuddeshanto":11787,"Ġbhinnamaina":11788,"Ġpravarthananu":11789,"Ġtelevision":11790,"Ġgreek":11791,"Ġjanata":11792,"Ġvintha":11793,"izha":11794,"Ġtiger":11795,"Ġsadhanalu":11796,"Ġ77":11797,"Ġnijay":11798,"Ġyuvath":11799,"Ġnivasinche":11800,"Ġviramana":11801,"Ġroyal":11802,"Ġkeep":11803,"Ġteda":11804,"Ġsanh":11805,"Ġaspatriki":11806,"mon":11807,"soni":11808,"Ġgayalu":11809,"Ġasaktini":11810,"Ġgoud":11811,"Ġheart":11812,"Ġsampraday":11813,"Ġspandinchina":11814,"Ġjatula":11815,"Ġvaividhyam":11816,"Ġinput":11817,"Ġkasar":11818,"Ġrus":11819,"udadu":11820,"agaane":11821,"Ġannattu":11822,"Ġtrag":11823,"Ġpeddala":11824,"Ġ68":11825,"Ġabhiprayanni":11826,"Ġsanukulanga":11827,"Ġvasthunnaru":11828,"americ":11829,"Ġapar":11830,"Ġkotlatho":11831,"con":11832,"oha":11833,"atito":11834,"Ġmust":11835,"Ġpra":11836,"Ġrangulo":11837,"Ġerpadatayi":11838,"Ġyehov":11839,"asalu":11840,"Ġanagane":11841,"Ġunnath":11842,"onnayi":11843,"Ġarthik":11844,"Ġsamajanni":11845,"Ġatyunnata":11846,"aparanga":11847,"Ġpurvam":11848,"Ġavasaramani":11849,"Ġalochinchandi":11850,"Ġgoda":11851,"Ġthisukuvachch":11852,"konda":11853,"ariche":11854,"Ġthivr":11855,"Ġado":11856,"Ġasale":11857,"Ġvatito":11858,"Ġchattanni":11859,"Ġkashtapad":11860,"Ġcream":11861,"Ġjoin":11862,"Ġitrulato":11863,"anunnatlu":11864,"Ġshit":11865,"Ġavutaru":11866,"Ġwarning":11867,"Ġchestunte":11868,"Ġandolanku":11869,"Ġvuhaalu":11870,"mod":11871,"atar":11872,"adhana":11873,"Ġidivar":11874,"Ġdinachary":11875,"Ġpow":11876,"Ġ63":11877,"Ġmaranimchina":11878,"Ġdavakh":11879,"Ġsamyuktanga":11880,"ging":11881,"Ġvidhaluga":11882,"Ġprapanchamlone":11883,"Ġswachchanda":11884,"Ġdagara":11885,"Ġincharge":11886,"adhanam":11887,"Ġthalap":11888,"Ġsiddeva":11889,"Ġkalpulu":11890,"Ġakarshaniyanga":11891,"Ġchallaga":11892,"rig":11893,"Ġmd":11894,"Ġbach":11895,"Ġinco":11896,"Ġdasari":11897,"Ġmedad":11898,"Ġvastayani":11899,"Ġgradu":11900,"Ġmarusati":11901,"utundo":11902,"emu":11903,"Ġpatala":11904,"Ġmasjid":11905,"Ġshirshika":11906,"Ġsamar":11907,"endla":11908,"Ġveet":11909,"Ġvinooth":11910,"Ġithivritt":11911,"ikritam":11912,"Ġmarum":11913,"Ġramudu":11914,"ansam":11915,"Ġà¤ķ":11916,"Ġcesindani":11917,"ateg":11918,"asagar":11919,"Ġjames":11920,"Ġtarvate":11921,"Ġpanth":11922,"avatam":11923,"Ġsarve":11924,"Ġbadhyatanu":11925,"Ġduradrusht":11926,"jagan":11927,"avutundani":11928,"enth":11929,"Ġsinimalanu":11930,"utunnaayi":11931,"Ġammai":11932,"Ġ'''":11933,"Ġpustakanni":11934,"Ġquarant":11935,"Ġmidi":11936,"Ġganita":11937,"Ġlift":11938,"Ġmotors":11939,"Ġversus":11940,"Ġdubai":11941,"Ġbhavinchina":11942,"Ġvanaru":11943,"Ġsulbhamaina":11944,"Ġkeerth":11945,"Ġnetritvamloni":11946,"elan":11947,"Ġteluguv":11948,"occhina":11949,"oint":11950,"aju":11951,"Ġthamm":11952,"Ġsatya":11953,"Ġuttamamina":11954,"fer":11955,"apaksha":11956,"Ġjatha":11957,"Ġspurthi":11958,"Ġsuchanalanu":11959,"Ġvarganiki":11960,"Ġnamodayyayi":11961,"inad":11962,"Ġca":11963,"istundaga":11964,"Ġencount":11965,"Ġteach":11966,"ardasth":11967,"Ġterav":11968,"Ġvakr":11969,"Ġterapai":11970,"Ġkaranamavutundi":11971,"Ġjaragadam":11972,"Ġsuluv":11973,"ties":11974,"Ġcheppaledu":11975,"Ġjarimana":11976,"othunnaru":11977,"Ġrob":11978,"ayanik":11979,"Ġbayati":11980,"Ġproducer":11981,"Ġnarendramodi":11982,"ayanna":11983,"Ġjyoth":11984,"Ġrupee":11985,"Ġcheyabadd":11986,"Ġbharatadeshwari":11987,"Ġokaroju":11988,"Ġannatlu":11989,"Ġlakshyanto":11990,"Ġgurtuch":11991,"Ġsamadhanalu":11992,"Ġsadviniyogam":11993,"Ġchusharu":11994,"pat":11995,"Ġpadat":11996,"Ġpalana":11997,"time":11998,"Ġettakelaku":11999}